t h
i n
a n
E R</w>
U S
US ER</w>
@ USER</w>
o u
in g</w>
e a
e r
o n
th e</w>
t o</w>
e r</w>
a r
o r
e d</w>
h a
e n
i s</w>
i t
a l
U R
T T
s t
P UR
H TT
PUR L</w>
HTT PURL</w>
o n</w>
o u</w>
i n</w>
a c
an d</w>
m e</w>
e s</w>
a t
y ou</w>
r e
s t</w>
l o
l i
v e</w>
o r</w>
i l
a t</w>
i t</w>
o f</w>
r o
e n</w>
e l
n o
a y</w>
i c
a n</w>
h o
. .</w>
f or</w>
l y</w>
' s</w>
t i
s e</w>
m y</w>
a s</w>
o m
r i
h e</w>
k e</w>
e e
b e
' t</w>
w h
l e</w>
in g
th at</w>
e v
f ac
o o
e s
r ea
u r
ea r
g h
. ..</w>
o l
e t</w>
i s
u n
l a
fac e
b u
th e
m a
ou t</w>
i r
b e</w>
w it
e c
on e</w>
ou r</w>
r a
n 't</w>
s h
s i
t s</w>
d o</w>
c h
a b
wit h</w>
d i
u c
al l</w>
ar e</w>
er e</w>
a l</w>
u st</w>
p p
th is</w>
s o</w>
l d</w>
gh t</w>
t o
d ay</w>
ha ve</w>
n e
il l</w>
w i
ing _
w as</w>
no w</w>
g o
a m
ha t</w>
' m</w>
T h
e m
t t
a g
d o
bu t</w>
en t</w>
li ke</w>
ou ld</w>
o f
y our</w>
s e
j ust</w>
at i
wi th
a y
no t</w>
i d
o p
er s</w>
a s
k ing</w>
T he</w>
face _
u p</w>
w or
p l
t r
ou n
p o
with _
c e</w>
or e</w>
d s</w>
c a
o me</w>
u m
e x
face_ with_
g et</w>
c h</w>
m o
ro m</w>
s p
j o
face :</w>
t er</w>
t h</w>
d e</w>
th er</w>
f rom</w>
t a
k s</w>
l e
w e</w>
b o
th ing</w>
an t</w>
i g
b y</w>
s u
c an</w>
c om
s a
the y</w>
c on
v er
p ro
ac k</w>
l l</w>
s m
v i
h ear
oo d</w>
ev er</w>
ab out</w>
at e</w>
i f</w>
r e</w>
wh en</w>
i ght</w>
p er
w hat</w>
p e
el l</w>
ho w</w>
w ee
u s
an d
h i
f or
k now</w>
d e
g u
om e
d y</w>
lo ve</w>
w ill</w>
f u
ay s</w>
es s</w>
q u
ti me</w>
t ed</w>
u se</w>
u s</w>
ati on</w>
s c
s _
ea r</w>
a d
e st
Y ou</w>
i r</w>
g i
w n</w>
op le</w>
f a
W h
t e</w>
al ly</w>
t ing</w>
e y</w>
i d</w>
2 0
I t</w>
in k</w>
ev er
: face_with_
e y
n o</w>
g o</w>
l ea
A n
m ore</w>
g e
hear t
t er
n a</w>
p re
en d</w>
C h
in e</w>
it y</w>
S t
jo y
s ome
' re</w>
lo o
g e</w>
on s</w>
u t</w>
pe ople</w>
ol lo
t ear
ur e</w>
uc h</w>
g h</w>
e d
on g</w>
v er</w>
of _
ic e</w>
p ar
ou r
c o
s_ of_
tear s_of_
joy :</w>
tears_of_ joy:</w>
w ay</w>
w ould</w>
wh o</w>
:face_with_ tears_of_joy:</w>
l ly</w>
h er</w>
s on</w>
i m
h is</w>
sm il
ha s</w>
y ing</w>
u l
w a
r y</w>
g ood</w>
se e</w>
a d</w>
go t</w>
k ed</w>
ti on</w>
f e</w>
e st</w>
in d</w>
w ant</w>
f ollo
r u
s he</w>
a m</w>
en t
b ack</w>
ing_ face:</w>
th ere</w>
it e</w>
ar d</w>
an y</w>
s s</w>
d ing</w>
th ink</w>
c an
ou gh</w>
di d</w>
lo l</w>
it s</w>
l u
o c
o w</w>
the m</w>
T H
s ome</w>
I n
l s</w>
_ face:</w>
m e
be en</w>
ca use</w>
to o</w>
f f
s el
d er</w>
v ing</w>
N e
t y</w>
m uch</w>
ma ke</w>
' ll</w>
f uc
ne ed</w>
I N
ing s</w>
es :</w>
rea lly</w>
ne w</w>
L i
w s</w>
f ri
a me</w>
ee p</w>
a pp
p la
go ing</w>
t w
L o
ha d</w>
ha pp
an y
20 1
oun d</w>
' ve</w>
w at
on ly</w>
smil ing_
e p
ri ght</w>
n ing</w>
g r
i es</w>
b er</w>
id e
s ho
m on
t al
M y</w>
b r
s s
f ir
h ea
a f
ever y
i c</w>
p e</w>
ol d</w>
h a</w>
hi m</w>
s :</w>
w an
i on</w>
re c
ev en</w>
I f</w>
o ther</w>
Th is</w>
f e
to day</w>
c ome</w>
d er
p a
can 't</w>
R B
u p
c r
ag e</w>
st ar
the ir</w>
g ir
t on
RB -</w>
th en</w>
W e</w>
l ing</w>
o ver</w>
s k
an s</w>
el y</w>
wor k</w>
st ill</w>
sh it</w>
h ere</w>
w ays</w>
li fe</w>
ou s</w>
ey es:</w>
s ay</w>
A N
re e</w>
ho o
of f</w>
th an</w>
m in
m an</w>
p h
0 0</w>
h and
e l</w>
s ed</w>
f in
t ur
wh y</w>
n ever</w>
w ere</w>
ic k</w>
_ heart
st r
p s</w>
b l
G o
ab le</w>
l y
N o
: )</w>
f i
rea t</w>
tt er</w>
sh ould</w>
c ould</w>
be cause</w>
ac t
y s</w>
an ce</w>
is h</w>
ag a
b i
u t
L O
k es</w>
p or
fu l</w>
vi a</w>
b ea
m is
i m</w>
oo k</w>
v es</w>
t wee
sel f</w>
h el
ee l</w>
en ce</w>
1 9
m ar
n i
s er
re d
do es</w>
tt ing</w>
An d</w>
en ts</w>
ec t</w>
s l
l ed</w>
p r
an k</w>
an g
E A
t ra
fir st</w>
be st</w>
d ed</w>
pl ea
d is
il e</w>
follo w</w>
c u
H e</w>
ar y</w>
A l
e t
n ight</w>
al ways</w>
W hat</w>
be ing</w>
ta ke</w>
T hat</w>
ro w</w>
in t
do wn</w>
a r</w>
i l</w>
T o
H a
la st</w>
wh ere</w>
ide o</w>
H A
l ou
f t</w>
I n</w>
D o</w>
w ell</w>
n a
it t
m s</w>
mo st</w>
m ent</w>
f eel</w>
i al</w>
b ab
af ter</w>
b le</w>
e :</w>
on na</w>
be tter</w>
ac e</w>
as s</w>
_heart :</w>
S o</w>
ha ha</w>
p u
a v
c la
at ed</w>
loo k</w>
l et</w>
es s
plea se</w>
g ra
ic h</w>
: smiling_
c oun
O n
at t
en ds</w>
y ear</w>
ver y</w>
' '</w>
a w
t ea
on t</w>
in to</w>
ic k
some one</w>
ac k
:smiling_ face_with_
M ar
` `</w>
il y</w>
sh i
ti m
lo w
s in
M a
s o
i st
T r
B ut</w>
rea dy</w>
or y</w>
s on
sa id</w>
g onna</w>
C on
ear s</w>
S h
s h</w>
d u
hoo l</w>
f ore</w>
J o
v ed</w>
Y O
E R
tr y</w>
s w
w r
b a
l l
IN G</w>
bo dy</w>
m er
M o
ea n</w>
in c
st o
ou ght</w>
J ust</w>
an ks</w>
the se</w>
g g
em ber</w>
ig g
g reat</w>
v ideo</w>
b ro
cr y
v o
some thing</w>
w on
u d
H ow</w>
O N
u r</w>
c al
d ea
p ri
ati on
w n
Wh en</w>
ma de</w>
E n
in t</w>
d es
aga in</w>
x t</w>
gh t
p ic
c ar
or t</w>
c lo
g ame</w>
gir l</w>
Ne w</w>
B o
P o
s ing</w>
an c
a p
R T</w>
in n
in d
follo w
be fore</w>
con t
li c
ec k</w>
i z
cry ing_face:</w>
ou t
1 0
ch ing</w>
s ure</w>
ne xt</w>
N o</w>
ho me</w>
th o
1 0</w>
m any</w>
gi ve</w>
# S
m u
s ec
wor ld</w>
s si
of f
in ter
pla y
b it
R e
- R
- L
happ y</w>
e en</w>
d ays</w>
si de</w>
s ee
wee k</w>
c ol
sa me</w>
th r
A L
O O
e b
sc hool</w>
' d</w>
b ad</w>
fri end</w>
m at
ge tting</w>
it ed</w>
e e</w>
t ri
th ings</w>
wan na</w>
fuc k</w>
uc k</w>
ly _
t ure</w>
lou d
A r
R E
m or
i a</w>
ever y</w>
Th ey</w>
su pp
t om
itt le</w>
R o
al s</w>
al so</w>
t ell</w>
u e</w>
u ally</w>
ho pe</w>
a u
P ro
m a</w>
b rea
T o</w>
tim es</w>
c ha
lo c
-L RB-</w>
-R RB-</w>
v e
or row</w>
ea t</w>
l es</w>
c or
ou se</w>
: loud
pl ay</w>
ly_ crying_face:</w>
:loud ly_crying_face:</w>
en d
m p
I S</w>
wh ich</w>
oo l</w>
me di
ou s
si on</w>
m y
Wh y</w>
in s</w>
W or
wit ter</w>
M E</w>
st er</w>
or s</w>
do ing</w>
w ar
U n
n y</w>
en ti
k no
b er
ha te</w>
f f</w>
y ears</w>
si c</w>
wa it</w>
tw o</w>
s it
ea h</w>
lo w</w>
an ge</w>
ic al</w>
# B
si g
S T
u st
twee t</w>
rea l</w>
R ea
s how</w>
re m
n ed</w>
f ind</w>
c ra
wat ch</w>
us ed</w>
M A
s ur
th ough</w>
l at
l ong</w>
s y
g re
H o
fri ends</w>
P ar
an t
Th e
f un
ex c
l ittle</w>
ati ons</w>
k eep</w>
C o
at es</w>
l ess</w>
um p</w>
g a
u ti
B r
sto p</w>
d one</w>
E N
p er</w>
tom orrow</w>
w om
hel p</w>
com m
d r
f am
y a</w>
p ut</w>
tho se</w>
m ean</w>
g s</w>
a ma
wh ile</w>
l ine</w>
L I
: red
TH E</w>
b all</w>
F O
C om
s en
smiling_ eyes:</w>
b s</w>
at s</w>
YO U</w>
N O
lo t</w>
be li
u m</w>
S he</w>
E x
ton ight</w>
V E</w>
:red _heart:</w>
I s</w>
li ve</w>
per son</w>
il l
b ir
L a
el l
D o
d ec
a a
in _
our s</w>
ar ound</w>
: f
tal k</w>
n igg
e ve</w>
d uc
e i
fe el
ti l</w>
al l
m an
every one</w>
ro o
rea d</w>
st u
b or
ing_ face_with_
: w
en s</w>
h ard</w>
d re
s ha
un der
il li
hea d</w>
for m
it ing</w>
F or</w>
li st
z ing</w>
th in
thr ough</w>
lea se</w>
w ho
f r
s y</w>
k e
en c
# C
S p
ph one</w>
al i
act ually</w>
A R
it h</w>
gu ys</w>
star t</w>
w al
tt a</w>
I T
D i
n ee
ro w
_ hand
shi p</w>
a way</w>
: p
tt y</w>
N ow</w>
en ing</w>
per son
sl eep</w>
E D</w>
sp ec
d ont</w>
n ame</w>
every thing</w>
al ready</w>
am es</w>
fuc king</w>
th ought</w>
s ea
A ll</w>
s et</w>
ay ing</w>
e a</w>
# M
A mer
bi g</w>
on d</w>
a in
Amer ic
com ing</w>
S u
l and</w>
ig h</w>
P re
al e</w>
th day</w>
c er
B e
to p</w>
f ree</w>
No t</w>
th er
ff er
ri st
M e</w>
e m</w>
at ing</w>
w in</w>
ic s</w>
mis s</w>
ac c
rea m</w>
mon ey</w>
s or
c are</w>
ma kes</w>
2 0</w>
A A
t y
r ed</w>
sin ce</w>
o wn</w>
v is
O U
3 0</w>
Th ere</w>
c all</w>
O N</w>
e w</w>
z e</w>
mor ning</w>
p ing</w>
em ent</w>
k is
s es</w>
h u
ac t</w>
tr ying</w>
an g</w>
w e
T O</w>
any thing</w>
Lo l</w>
h ar
n t</w>
w ish</w>
F or
is h
z y</w>
la u
o h</w>
Y our</w>
p i
a k
ha ving</w>
Lo ve</w>
ch ar
b ed</w>
P e
on es</w>
fac e</w>
ma o</w>
fa v
20 0
d ra
b li
N E
tea m</w>
gh ts</w>
M on
# T
st and</w>
par t</w>
an other</w>
l ear
g er</w>
h ouse</w>
p le</w>
_ sk
_sk in_
ton e:</w>
_skin_ tone:</w>
O R
Go d</w>
c ho
O n</w>
ha ha
A T
no thing</w>
h h
f oo
: (</w>
I N</w>
un til</w>
w ard</w>
i ous</w>
s ol
C ar
loo king</w>
am n</w>
w er</w>
t on</w>
d ro
m er</w>
a h</w>
P lease</w>
b oo
E S</w>
com p
id s</w>
si d
in st
s oc
d ri
On e</w>
AN D</w>
my self</w>
s ong</w>
m i
no t
v en</w>
< 3</w>
s ing
H app
s uch</w>
R a
mo vi
I T</w>
k in</w>
in v
heart -
E E
g la
ch es</w>
C a
heart- eyes:</w>
won 't</w>
s un
y _face:</w>
L e
gir ls</w>
n ice</w>
ex p
Q u
Tr ump</w>
P L
bab y</w>
mu sic</w>
beli eve</w>
pl ace</w>
k er</w>
g en
ch il
y eah</w>
ha t
an ds</w>
ee t</w>
gu y</w>
A u
fam ily</w>
ma king</w>
c ri
b as
th ers</w>
id e</w>
h on
# F
A C
g y</w>
k ay</w>
jo b</w>
with out</w>
B l
c k</w>
O h</w>
b ur
m ay</w>
ir e</w>
di ffer
A c
se d
G et</w>
I L
ch ange</w>
m om
fu n</w>
t ex
E S
ar k
ca me</w>
at ch</w>
:smiling_face_with_ heart-eyes:</w>
pla ying</w>
y et</w>
uti ful</w>
s um
st ory</w>
roo m</w>
Th ank</w>
bit ch</w>
m ind</w>
ous ly</w>
le ft</w>
pre tty</w>
re l
A d
hear t</w>
bir thday</w>
H O
any one</w>
ent ly</w>
K K
tal king</w>
wat ching</w>
I C
re sp
ti ons</w>
m ight</w>
Th anks</w>
so on</w>
ti ve</w>
se en</w>
i an</w>
k ing_face:</w>
l ar
ou th</w>
G u
el e
h un
ing_ hand
ama zing</w>
D e
A S
f il
O M
ain 't</w>
T i
wr ong</w>
i ve</w>
G ood</w>
in ing</w>
i ons</w>
ha l
1 2</w>
ation al</w>
th ank</w>
P r
mo m</w>
B u
c ur
U S</w>
o s</w>
en g
s ays</w>
li ght
n ess</w>
u al</w>
as k</w>
D ay</w>
s uc
T a
bo th</w>
B i
5 0</w>
C an</w>
wee k
1 8
c am
ha ir</w>
i e</w>
en ough</w>
Ch rist
h ur
bab ly</w>
A Y</w>
p ol
or t
p ho
F r
U C
th anks</w>
in a</w>
: face_
H ar
fe w</w>
w ea
ea d</w>
ed _face:</w>
S c
an k
n or
m m
1 5</w>
w ent</w>
it ion</w>
who le</w>
el se</w>
le g
pl e
ag o</w>
F ri
ur ing</w>
t old</w>
v ic
sea son</w>
o b
s aying</w>
um b
S ome
w ing</w>
y es</w>
b out</w>
c ou
o k</w>
ca r</w>
i st</w>
ch ed</w>
ear ly</w>
k y</w>
ver s
in st</w>
sor ry</w>
x x
ea ch</w>
qu est
Wh o</w>
m ust</w>
ge ts</w>
Ha ve</w>
loo ks</w>
pp ing</w>
do wn
ec tion</w>
t witter</w>
M Y</w>
b ar
m as</w>
I D
M e
ing :</w>
it er
medi um
1 2
at ur
li st</w>
Li ke</w>
th o</w>
an n
bea utiful</w>
l mao</w>
W ith</w>
b le
el s</w>
nigg a</w>
pp ed</w>
_hand :</w>
ma y
Happ y</w>
st s</w>
ac h
st ay</w>
P l
G r
E L
m il
b ook</w>
st ed</w>
re e
an a</w>
d a</w>
n s</w>
li ked</w>
ra is
en si
y our
t ic
tr ue</w>
h ear</w>
cal led</w>
d ate</w>
_ po
C ol
ig n</w>
# P
l in
sed _face:</w>
L et</w>
po int</w>
heart _
: heart_
em p
ge ther</w>
tur n</w>
rem ember</w>
# D
en ed</w>
c rea
0 0
d amn</w>
h or
on al</w>
cla ss</w>
aga inst</w>
li ght</w>
1 1</w>
per i
go tta</w>
b it</w>
pro bably</w>
h igh</w>
lea ve</w>
fa r</w>
t or</w>
:w ear
G O
W a
Ch eck</w>
o o</w>
: medium
cu te</w>
E ver
S E</w>
th s</w>
bo y</w>
la r</w>
O f</w>
:wear y_face:</w>
h ours</w>
lea st</w>
c our
g one</w>
r un
F a
on ce</w>
S O</w>
c ool</w>
t or
person _
: person_
sp ea
c lu
oo d
sl ee
sa w</w>
1 9</w>
er y</w>
d ic
h it</w>
R EA
A s</w>
al _
k en</w>
ea t
W ell</w>
f ood</w>
week end</w>
fun ny</w>
gu e</w>
A T</w>
an e</w>
ne ws</w>
se x</w>
ep t</w>
w in
f ound</w>
t el
P er
Ne ws</w>
di o</w>
coun t</w>
gr inn
ma g
ir d</w>
h um
st or
ar t</w>
di e</w>
fav or
e _
: grinn
T ra
; )</w>
:smiling_face_with_ smiling_eyes:</w>
S er
to gether</w>
wor king</w>
C a</w>
v ice</w>
M an
com es</w>
P h
R O
per f
it ies</w>
R I
il s</w>
# G
D a
f er
op e</w>
# A
tw een</w>
ho t</w>
ru n</w>
1 00</w>
A re</w>
t e
ro ll
an ts</w>
your self</w>
po st</w>
Ever y
tr u
C ha
do m</w>
ne y</w>
O K
un der</w>
o kay</w>
ati ve</w>
por t
par ty</w>
ch eck</w>
P la
sa d</w>
A f
d a
est er
pro duc
un ch</w>
bu y</w>
bu il
rea son</w>
em s</w>
su it
A t</w>
fu ll</w>
i se</w>
n um
mar k
rea li
A M</w>
gu ess</w>
nee ds</w>
le y</w>
d d
su b
En g
: re
es ome</w>
am u
en ding</w>
M u
n er</w>
m em
1 1
wom en</w>
lau gh
under stand</w>
y e</w>
or d</w>
T witter</w>
movi e</w>
supp ort</w>
# N
bu m</w>
# W
I m</w>
stu ff</w>
k ids</w>
vi ew</w>
t est</w>
may be</w>
d uring</w>
di a</w>
ec ted</w>
i e
S a
be tween</w>
us ing</w>
F ollo
I S
wan ted</w>
L ea
A pp
F in
s qu
ma d</w>
ec h
bl ack</w>
o t</w>
en tion</w>
g ar
J u
z z
feel ing</w>
de f
m en</w>
b low
ti c</w>
differ ent</w>
thin king</w>
i p
suit :</w>
am a</w>
e ts</w>
st ing</w>
oo oo
hal f</w>
: un
d ev
tw o
us h</w>
e f
ir us</w>
0 00</w>
b c</w>
l on
ou p</w>
lo st</w>
l iter
s po
bu sin
T I
o ver
ta king</w>
H ea
amu sed_face:</w>
:un amused_face:</w>
b ra
in f
tur es</w>
ing_hand s:</w>
C A
: D</w>
k ey</w>
in ed</w>
s ite</w>
p as
t ook</w>
wan ts</w>
Jo h
lat er</w>
h ell</w>
Pe ople</w>
r ac
ing_ heart
ic ally</w>
C or
b lo
follow ers</w>
L Y</w>
N or
h i</w>
sig n
b ack
brea k</w>
:heart_ suit:</w>
ing_face_with_ smiling_eyes:</w>
S H
y o</w>
s ent</w>
u te</w>
jo y</w>
cra zy</w>
inc lu
B ar
li es</w>
favor ite</w>
twee ts</w>
H ey</w>
g ames</w>
1 8</w>
wh ite</w>
pu bli
ti v
H i</w>
_heart s:</w>
d es</w>
sh ed</w>
at e
l d
re st</w>
ac h</w>
B e</w>
' all</w>
i f
st er
p ed</w>
S un
h y
ch ang
wor d</w>
U N
ul t</w>
0 .
hi gh
In ter
f lo
o thers</w>
re p
l ate</w>
mo ve</w>
s wee
k ey
C O
k il
op en</w>
oun g</w>
oun ds</w>
m ing</w>
W H
f l
di es</w>
ou d</w>
tex t</w>
st up
se x
sp ir
star ted</w>
m us
: two
d em
hea l
sec ond</w>
E V
hear d</w>
C H
I ts</w>
h e
To day</w>
i ously</w>
ge st</w>
t ball</w>
ta in</w>
h er
for m</w>
num ber</w>
E l
coun try</w>
h h</w>
ha haha</w>
ea l</w>
k ind</w>
li e</w>
G e
b lu
in e
M ic
1 3</w>
sid ent</w>
b al
pa st</w>
st re
al ity</w>
d en</w>
pro f
po ssi
st ra
c ant</w>
di rec
ut es</w>
1 6</w>
lo r</w>
on d
d ou
n e</w>
S ha
an s
fu lly</w>
roll ing_
li m
H ere</w>
i ally</w>
ver n
exc ited</w>
bo ys</w>
ey es</w>
M i
F u
k ers</w>
n d</w>
follow ing</w>
go es</w>
:two _hearts:</w>
TH IS</w>
Wor ld</w>
f la
ti red</w>
m id
su l
a _
is su
des er
G reat</w>
perf ect</w>
K E</w>
un e</w>
on av
2 5</w>
por t</w>
m ed</w>
con f
liter ally</w>
Bl ack</w>
R A
d ad</w>
P ho
fa st</w>
o t
O r
B a
D is
e p</w>
Ti me</w>
C an
illi on</w>
B ro
m ine</w>
ff ic
tt er
t f</w>
G o</w>
is m</w>
M ay
201 6</w>
el d</w>
u g
P M</w>
v al
m eet</w>
it al</w>
al most</w>
1 5
st ud
1 4
G ir
E N</w>
D id</w>
al bum</w>
li sh</w>
p m</w>
c ro
h our</w>
go d</w>
mom ent</w>
br ing</w>
any more</w>
busin ess</w>
T u
R ep
kis s:</w>
con si
1 6
p ic</w>
l es
St ar
1 4</w>
or _
wor ds</w>
: bea
fac t</w>
AL L</w>
in ess</w>
T V</w>
Y es</w>
d ge</w>
il ity</w>
L LO
wa ke</w>
wa iting</w>
n am
f all</w>
C oun
f ans</w>
mat ter</w>
ble m</w>
le ge</w>
an sw
ide a</w>
M ay</w>
R es
_po int
onav irus</w>
me ans</w>
l ev
y s
v ol
off ic
I R
I D</w>
gi ving</w>
T O
p ay</w>
l a</w>
stup id</w>
happ en</w>
light _skin_tone:</w>
ing_ a_
:face_ blow
ing_a_ kiss:</w>
:face_blow ing_a_kiss:</w>
inn er</w>
st ate</w>
I s
aw esome</w>
f re
S ome</w>
F ac
x x</w>
R i
oun d
is o
F ir
a st</w>
FO LLO
Af ter</w>
a ir
o pp
LO VE</w>
# H
clo se</w>
f an</w>
Fri day</w>
un ity</w>
Americ an</w>
po sit
de fin
om g</w>
201 5</w>
ei ther</w>
S ee</w>
L oo
sing le</w>
s al
st ri
N i
A M
list en</w>
ag es</w>
T S</w>
par t
p ur
i on
B est</w>
O F</w>
t en</w>
t t</w>
wom an</w>
v id
ca p
M an</w>
min utes</w>
r y
be g
a il
t ro
1 .
ss ed</w>
M in
O b
for get</w>
U p
G re
k a</w>
vo te</w>
S m
1 3
m m</w>
wat er</w>
n u
e lo
pp l</w>
sum mer</w>
E T</w>
smil ing_face:</w>
m ess
p op
war ds</w>
W ill</w>
suc c
: rais
b and</w>
On ly</w>
lo v
I G
ca se</w>
1 7</w>
pol it
th y</w>
ss es</w>
l er</w>
to wn</w>
ing_heart :</w>
smil e</w>
th ree</w>
cont in
d ream</w>
W A
W at
pic ture</w>
al one</w>
y le</w>
v s</w>
I M</w>
k ee
wor th</w>
ele br
ri ed</w>
A B
d on
i gh
W al
cur r
s end</w>
1 7
B ra
de d
19 9
Li fe</w>
pl an
dea l</w>
ester day</w>
M c
w ear</w>
im port
v il
pro blem</w>
en ded</w>
un i
ad ded</w>
t ick
HA HA
b b
d ers</w>
F rom</w>
w el
Ch ar
lo gy</w>
h and</w>
u u
:medium _
C am
as h</w>
mon th</w>
: sp
no w
t ou
M ore</w>
ma l</w>
bea t</w>
Y eah</w>
Christ mas</w>
D O
c k
y 'all</w>
st and
st ic</w>
ch ance</w>
or der</w>
est ing</w>
f ight</w>
li ce</w>
S ho
to s</w>
P a
er al</w>
br o</w>
pr oud</w>
1 st</w>
pl ac
fin ally</w>
: -
P O
: OK
sw eat
2 4</w>
W i
see ing</w>
b ig
play ed</w>
to t
ust in</w>
y y
M or
s ick</w>
wal k</w>
sc ar
con cer
k ind
h ind</w>
t it
app o
m b
po wer</w>
dre n</w>
g row
NO T</w>
wee ks</w>
:OK _hand:</w>
j ect</w>
ne l</w>
dea d</w>
bro ther</w>
cour se</w>
t ill</w>
- -</w>
rec i
ac ks</w>
S ec
v en
h ey</w>
# R
es day</w>
mon ths</w>
FO R</w>
r ing</w>
O ur</w>
C ity</w>
inst ead</w>
U p</w>
S y
f ic
t able</w>
v el</w>
un k</w>
b ri
w on</w>
ho ld</w>
em o
ir t</w>
W ea
PL EA
f ine</w>
c l
NO W</w>
m ing_face_with_smiling_eyes:</w>
:bea ming_face_with_smiling_eyes:</w>
S ta
c oo
lo se</w>
do g</w>
W ar
lo y
D u
str uc
ac count</w>
ark l
in ts</w>
on y</w>
d le</w>
H ope</w>
4 0</w>
nigg as</w>
Fir st</w>
:sp arkl
: th
B ec
V ideo</w>
kno wn</w>
as ked</w>
:w in
n ational</w>
ea ting</w>
resp on
u ro
N a
The se</w>
LO L</w>
er a</w>
tr y
g y
y oung</w>
medi a</w>
us si
lo ad</w>
s of
ga ve</w>
b la
c ity</w>
k new</w>
it ely</w>
fu ture</w>
W om
z a</w>
V o
D ec
p t</w>
2 1</w>
n et</w>
c ry</w>
# L
du de</w>
es si
be come</w>
: smiling_face:</w>
pre ssi
j a
y esterday</w>
c ut</w>
i v
, 000</w>
est ly</w>
FOLLO W</w>
cu z</w>
H is</w>
Americ a</w>
b loc
sh ar
R ec
P P
oo o</w>
atur day</w>
bo x</w>
M is
D AY</w>
_hand s:</w>
B ea
eb ook</w>
in es</w>
gr oup</w>
r an
ti es</w>
es sed</w>
PLEA SE</w>
ear ch</w>
m ed
id k</w>
hur t</w>
) :</w>
k ill</w>
ear ing</w>
cont ro
# I
import ant</w>
won der</w>
on line</w>
U K</w>
in ce</w>
C ome</w>
st em</w>
ch er</w>
el t</w>
O r</w>
an no
lou d</w>
fr ont</w>
ec e</w>
ic a</w>
c at
y ou
si ster</w>
we ird</w>
for ward</w>
B U
s ou
gla d</w>
st e</w>
slee p
possi ble</w>
quest ion</w>
ro ss</w>
ensi ve
for ever</w>
an i
:p ensive
:pensive _face:</w>
supp o
e er</w>
: /</w>
enc y</w>
happ ened</w>
sc re
ex t
2 .
w hat
kno ws</w>
com ple
umb s_
de p
:th umbs_
at or</w>
vern ment</w>
pic s</w>
lear n</w>
d um
S E
D on
par ents</w>
sm all</w>
n er
be hind</w>
c re
won der
ex peri
en se</w>
bo y
N ever</w>
iso de</w>
t u
wor ks</w>
lic k</w>
F UC
i i
d ar
D es
Follo w</w>
g an
at ely</w>
C la
d ates</w>
ma il</w>
t ar
at a</w>
S e
# K
O c
th ats</w>
B O
# E
KK KK
vi e
l ink</w>
for d</w>
S o
U ni
Un ited</w>
ish ed</w>
Go t</w>
out side</w>
rel ation
ic al_
ser iously</w>
sen se</w>
l an
t a</w>
rea ding</w>
e -
O p
foo tball</w>
S T</w>
ag ree</w>
ho l
ol ded
:f olded
:folded _hands:</w>
B y</w>
re s
m ee
some times</w>
W atch</w>
or ies</w>
Y ou
s ons</w>
ru gg
w o
Y or
d it
Wh ite</w>
Bi g</w>
pa in</w>
li ving</w>
on g
ail able</w>
up :</w>
k id</w>
u n</w>
( :</w>
hea d
sm h</w>
en ter</w>
f em
ch ec
w er
201 4</w>
z ed</w>
d nt</w>
ra ther</w>
run ning</w>
AA AA
A L</w>
F ree</w>
p ea
rec ei
co ver</w>
D em
l uck</w>
Joh n</w>
mark :</w>
d rea
sho t</w>
fir e</w>
ta kes</w>
s er</w>
G ra
Wh ere</w>
Ha ha</w>
wor st</w>
ev il
tri ed</w>
sign :</w>
sw ear</w>
i mag
J e
Sun day</w>
P u
vo ice</w>
mon key
an nel</w>
c hat</w>
May be</w>
L u
s mo
d ay
ea sy</w>
u tion</w>
ON E</w>
v ers</w>
r is</w>
du e</w>
g a</w>
L E</w>
F l
p ick</w>
In st
sm ir
chil dren</w>
sh are</w>
B ir
fi eld</w>
di an</w>
p is
f li
w eb
ent al</w>
Ph one</w>
en joy</w>
dea th</w>
re li
N O</w>
vi d</w>
g le</w>
st om
follow ed</w>
or ts</w>
Wea ther</w>
U R</w>
ind ic
spec ial</w>
per form
An y
v ide
t b
ty pe</w>
si mp
qu e</w>
S oc
c old</w>
swee t</w>
C H</w>
cou ple</w>
pro t
sweat :</w>
at ure</w>
bor n</w>
K ING</w>
Ne w
S O
or d
f an
al low
no -
tr a</w>
201 7</w>
c elebr
G en
S aturday</w>
s il
Fac ebook</w>
soc ial</w>
w w
u su
A N</w>
P ri
R em
Th en</w>
w il
publi c</w>
2 2</w>
str ong</w>
L D</w>
c i
F uck</w>
act ly</w>
NE W</w>
defin itely</w>
g ed</w>
t ly</w>
ur y</w>
j u
6 0</w>
2 4
lo ved</w>
il ls</w>
B lu
ad a</w>
est ed</w>
3 0
bl ems</w>
dre ss</w>
do or</w>
st a
Li ve</w>
fe e</w>
app ro
al e_
gh ter</w>
co ver
ton gu
ale_ sign:</w>
G i
see ms</w>
s na
S al
col lege</w>
C al
T R
T E</w>
f al
19 8
Ma ke</w>
A m
Br it
G er
li l</w>
H T</w>
T ur
T ea
sho ws</w>
ha n</w>
H ouse</w>
B ri
f ea
sh ing</w>
c es</w>
To p</w>
ic es</w>
F e
E ar
answ er</w>
ad v
vers ity</w>
sel ves</w>
AR E</w>
: smir
:smir king_face:</w>
T al
man ag
do c
:grinn ing_face_with_
fi re
ma in</w>
ec ts</w>
D I
tongu e:</w>
p an
kind a</w>
j ud
st on</w>
m et</w>
ser vice</w>
D ra
p at
k k
pl an</w>
f it</w>
d ol
list ening</w>
uc ky</w>
pic tures</w>
en e
ul l
B E
sig n</w>
ma j
S or
h ands</w>
M at
W ould</w>
Ob ama</w>
no body</w>
sur pri
S A
E ven</w>
ha m</w>
al ong</w>
b ers</w>
s la
TH AT</w>
B C</w>
dri ve</w>
oc k</w>
play er</w>
c le</w>
201 8</w>
stra ight</w>
r r
u lar</w>
er ing</w>
ser ies</w>
wea ther</w>
W as</w>
9 9</w>
201 3</w>
chil d</w>
k et
pl s</w>
:thumbs_ up:</w>
it ch</w>
est er</w>
E d
dr ink</w>
resp ect</w>
sh ed_face:</w>
W ee
monkey :</w>
lau gh</w>
cor onavirus</w>
fi ed</w>
Mu sic</w>
st ea
V i
dev elo
O ut</w>
g rea
ne w
son gs</w>
3 .
s ound</w>
Com m
R ev
t rea
- no-
s it</w>
a use</w>
su per</w>
re sul
evil _
Yor k</w>
-no- evil_
-no-evil_ monkey:</w>
feel s</w>
pre s
qu i
ab sol
Pre sident</w>
d red
St ate</w>
fil m</w>
jo in</w>
ist s</w>
pla in</w>
ap p</w>
US T</w>
f ig
m illion</w>
E very</w>
w ed</w>
:- )</w>
U M
lev el</w>
tr ust</w>
C l
s n
r a</w>
201 9</w>
r s</w>
OU T</w>
hun dred
star ting</w>
mb ol
st at
E uro
por n</w>
app reci
g n
mis sed</w>
c o</w>
f er</w>
iz e</w>
p age</w>
2 5
St ill</w>
4 5</w>
sh ort</w>
V al
w it</w>
: hundred
_point s:</w>
:hundred _points:</w>
ig n
Bec ause</w>
sy mbol
ec h</w>
av ailable</w>
s k</w>
m fa
ch e
I m
lo gi
E X
fa ke</w>
:re gi
ro ad</w>
Al so</w>
p ass</w>
sy stem</w>
c us
lo ves</w>
c li
Sc hool</w>
g ood
be t</w>
E C
c ed</w>
2 3</w>
in al</w>
clu b</w>
y ours</w>
or ig
pr act
ond on</w>
Fu ll</w>
ur ch</w>
c op
tru th</w>
lu shed_face:</w>
:f lushed_face:</w>
c as
s ounds</w>
Mon day</w>
M O
hon estly</w>
g es</w>
# t
W ow</w>
wat ched</w>
tur ned</w>
IL L</w>
b en
g on</w>
is ion</w>
t ers</w>
hi story</w>
OM G</w>
Pla ying</w>
pl et
tel ling</w>
b el
ag ra
bo ard</w>
B E</w>
F RE
n on
deser ve</w>
g an</w>
vide os</w>
d ark
C u
n ec
B ab
l eep</w>
TH E
hh h</w>
re gi
T W
La st</w>
Li st
Ta ke</w>
ti on
comp any</w>
st ro
y er</w>
D ea
W E</w>
s is</w>
Di rec
mo ther</w>
B er
L A
A b
d en
ar ti
c ul
ep isode</w>
enti al</w>
gr ound</w>
ie ty</w>
sa ve</w>
B ack</w>
r t</w>
J a
F i
m _
di ed</w>
in king</w>
:face_with_ rolling_
:face_with_rolling_ eyes:</w>
ex t</w>
f ro
_ b
J es
go vernment</w>
pro blems</w>
2 nd</w>
pre ss</w>
Rea lly</w>
w ed
c el
heal th</w>
of fee</w>
vis it</w>
u ght</w>
e ff
hum an</w>
S outh</w>
pho to</w>
bu s</w>
relation ship</w>
t re
ar ea</w>
V ID
st ers</w>
a int</w>
T ri
R ussi
:rais ing_hands:</w>
en n
dis appo
T w
en a</w>
w ow</w>
m outh</w>
F A
n ear</w>
ac tion</w>
in side</w>
m ul
im p
T ho
ati c</w>
pro gra
H ol
s em
ss ing</w>
ar ds</w>
: sleep
ri ble</w>
en ter
d ance</w>
play ers</w>
com pe
L ondon</w>
er :</w>
fuc ked</w>
Do es</w>
J an
il ed</w>
on :</w>
tt le</w>
: 30</w>
A bout</w>
A n</w>
w ood</w>
sp end</w>
hea v
gen er
t un
In dia</w>
lea n</w>
ic ks</w>
H er</w>
re lea
L ook</w>
es p
A fr
A ma
play list</w>
st ar</w>
s ever
S ea
le tter
H um
s a</w>
bas ed</w>
v ir
se y</w>
some body</w>
H el
B oo
c er</w>
19 7
b ly</w>
nee ded</w>
K a
form ation</w>
st y</w>
bit ches</w>
reali ze</w>
st ore</w>
ha el</w>
y el
e x</w>
pri l</w>
ch ee
oo gle</w>
ac y</w>
b t</w>
ut ely</w>
us es</w>
tr an
gra ph
mus ical_
: musical_
ed uc
ES T</w>
ca st</w>
r an</w>
anc es</w>
spea k</w>
9 .
fin al</w>
M il
G O</w>
# No
dum b</w>
S P
# O
cr ying</w>
ta ken</w>
p ra
EN T</w>
pro c
a ir</w>
el ec
wor ry</w>
en e</w>
al d</w>
g ay</w>
ser ious</w>
k o</w>
F C</w>
happ ens</w>
T im
D O</w>
OO OO
b loo
H u
i ans</w>
T V
Ju ly</w>
el ess</w>
j ust
Ne ed</w>
b ought</w>
l o</w>
wi fe</w>
_ letter
m ate</w>
Sor ry</w>
201 2</w>
# i
un t</w>
ing ton</w>
r ound</w>
wr ite</w>
tt e</w>
US A</w>
contro l</w>
S en
loo ked</w>
every day</w>
5 0
c ent
M y
lea d</w>
Y S</w>
k i
f o
der ed</w>
S um
sh irt</w>
K eep</w>
C ra
D M</w>
as king</w>
ic an</w>
ex actly</w>
the _
B us
pp er</w>
what ever</w>
w earing</w>
p es</w>
ho me
Some times</w>
gi ven</w>
ta in
movi es</w>
jo bs</w>
E O</w>
u ty</w>
er gy</w>
t es</w>
ur s
Hea l
la w</w>
wor se</w>
p al
g am
g as</w>
chang ed</w>
b a</w>
T ru
in spir
Mo st</w>
le ts</w>
r or</w>
ho m
No v
:musical_ not
T em
O K</w>
off ice</w>
: 00</w>
id ed</w>
f ol
2 6</w>
L E
on _
ug ly</w>
d i</w>
wa r</w>
am s</w>
T A
g ust</w>
H A</w>
jo ke</w>
ra in</w>
' S</w>
b an
# n
m ist
2 8</w>
b at
sc i
ir ed</w>
sho p</w>
agra m</w>
A pril</w>
indic at
H er
att le</w>
i o</w>
see m</w>
ad m
de l</w>
rea l
w ever</w>
of ten</w>
experi ence</w>
: thin
:thin king_face:</w>
2 7</w>
wor k
U P</w>
Every one</w>
mat ch</w>
g ro
str ic
c atch</w>
pi ece</w>
o wn
J ustin</w>
ann oun
W est</w>
W in
f ing
oc r
im a</w>
S top</w>
it ch
A no
sh ut</w>
W ed
it ting</w>
in ted</w>
on al_
de li
indicat or_
symbol _letter
:regi onal_
indicator_ symbol_letter
:regional_ indicator_symbol_letter
ri es</w>
for got</w>
us sy</w>
ER E</w>
boy friend</w>
e f</w>
ha ts</w>
:medium _skin_tone:</w>
ev ent</w>
d ick</w>
sh es</w>
ur ity</w>
w l</w>
sa fe</w>
V ER</w>
aa aa
S co
cla pp
Mar ch</w>
Con gr
li ves</w>
or gan
H igh</w>
Eng lish</w>
sc ri
scar ed</w>
er ed</w>
p hi
d anc
ea s</w>
po ints</w>
M us
ev ed_face:</w>
pa id</w>
ar tic
f rea
tick ets</w>
Au str
tr ack</w>
s li
ho li
sex y</w>
op in
tri p</w>
: clapp
o d</w>
W e
bu l
oo oo</w>
H ome</w>
r d</w>
b ye</w>
kil led</w>
anno ying</w>
Wom en</w>
W HA
d y
J ap
: '
g un
m ents</w>
P ol
G A
c ks</w>
# V
bro ke</w>
w tf</w>
d el
ch i
hi m
H on
c ard</w>
y _
ke ting</w>
ing_hand :</w>
inclu ding</w>
k a
dro p</w>
ar m</w>
p ool</w>
the m
d ly</w>
att ention</w>
f oc
f at</w>
Ano ther</w>
R u
O m
I d
on ds</w>
FRE E</w>
E M
na h</w>
: light_skin_tone:</w>
tr ac
Ge or
lon ger</w>
W il
c y
I I</w>
gir l
b ru
L mao</w>
f elt</w>
:clapp ing_hands:</w>
lo ts</w>
fa ir</w>
enc es</w>
ou th
ell o</w>
4 .
:win king_face:</w>
fer ence</w>
por ts</w>
v ar
suppo sed</w>
Sta r</w>
ep t
re qu
loc al</w>
enti re</w>
sit ting</w>
K ar
O F
sc or
J une</w>
try na</w>
P i
F o
M ad
R ed</w>
every body</w>
col l
cal ling</w>
P at
S tr
F L</w>
Jes us</w>
oun t</w>
B rea
1 /
es sion</w>
an na</w>
N ational</w>
D S</w>
a f</w>
ho t
Nor th</w>
fin ished</w>
D ON
stand ing</w>
est s</w>
stud ents</w>
as s
G la
E m
big gest</w>
S k
: fire
:regional_indicator_symbol_letter _
p a</w>
en ch</w>
in o</w>
c hoo
qu ite</w>
en tr
H ear
sc rea
ta ils</w>
li er</w>
pho tos</w>
r it
uc k
sc ho
: g
ad d</w>
S el
M er
_ _</w>
y all</w>
me ant</w>
wr iting</w>
tr ans
any way</w>
gr and
S S
ver sion</w>
en ted</w>
f our</w>
g ing</w>
ur ple
2 9</w>
Some one</w>
t ech
brea k
po or</w>
gre ss</w>
m o</w>
gla ss
st ep</w>
ri de</w>
G ame</w>
Par ty</w>
G ar
an ing</w>
AN T</w>
mid dle</w>
gi ves</w>
f y</w>
th row</w>
v el
C ould</w>
go al</w>
S il
issu e</w>
:p urple
:purple _heart:</w>
twee ting</w>
en joy
ensi ve</w>
D amn</w>
5 .
boo ks</w>
H H
inv est
_ mark:</w>
Ne t
um p
i Phone</w>
:fire :</w>
Ch ina</w>
# The
p en
ing_face_with_ tongue:</w>
un g</w>
Rea d</w>
st yle</w>
fin ish</w>
min ute</w>
la dy</w>
xx x</w>
urs day</w>
bu tt
be came</w>
A w
iz ed</w>
f ur
lov ely</w>
App le</w>
a ds</w>
e ed</w>
9 0</w>
hu ge</w>
YO UR</w>
Gir l</w>
ac ked</w>
con st
di dnt</w>
ba g</w>
Sh ould</w>
ra l</w>
lat est</w>
S how</w>
D ev
c at</w>
sit u
ou l
or ity</w>
m in</w>
d au
V e
do w</w>
t em
par tic
:grinning_face_with_ sweat:</w>
0 s</w>
mis sing</w>
se a</w>
D ar
Loo king</w>
star ts</w>
pre sent</w>
mo ved</w>
ou ghts</w>
po lice</w>
mess age</w>
ac ross</w>
:medium_ light_skin_tone:</w>
rec ord</w>
on_ the_
flo or_
rolling_ on_the_
floor_ laugh
rolling_on_the_ floor_laugh
: rolling_on_the_floor_laugh
:rolling_on_the_floor_laugh ing:</w>
dark _skin_tone:</w>
Mic hael</w>
v ent</w>
en ge</w>
sec re
char ac
as si
for t</w>
J UST</w>
pa per</w>
po sted</w>
:musical_not es:</w>
AC K</w>
S i
s ch
bu sy</w>
G E</w>
S ur
dr unk</w>
sel f
# J
lo b
2 3
it u
ec ially</w>
d ru
d inner</w>
i al
j our
op s</w>
it es</w>
ey e</w>
T y
p tion</w>
Pho to</w>
B ur
cha ll
Uni versity</w>
with in</w>
B ay</w>
LI KE</w>
ti e</w>
No thing</w>
ba be</w>
c offee</w>
hoo d</w>
k i</w>
l ucky</w>
8 0</w>
J ames</w>
F un
bu ll
as leep</w>
ga in</w>
e mail</w>
# f
r ic
T er
To o</w>
Go ing</w>
web site</w>
feel ings</w>
blo g</w>
IT H</w>
gh ting</w>
ab ility</w>
la h</w>
p p</w>
thin ks</w>
Au gust</w>
contin u
p ussy</w>
shi ps</w>
li f
t ors</w>
esp ecially</w>
N igg
quest ions</w>
U P
fa ther</w>
st age</w>
et c</w>
li kes</w>
c ir
Y ear</w>
i li
m ood</w>
th es</w>
EV ER
St re
re min
A t
him self</w>
li k
ee ee
con v
vic es</w>
sp ace</w>
e qu
L A</w>
A ss
C ur
on a</w>
y ea</w>
vil le</w>
H ad</w>
M r</w>
plet ely</w>
pro v
tot ally</w>
o te</w>
mo ving</w>
Rea l</w>
Tw o</w>
wel come</w>
di st
id ent</w>
ne t
F am
to ber</w>
i or</w>
ex pressi
stu dy</w>
th ro
T om
inv ol
blu e</w>
ti onal</w>
cu stom
a ff
po t
vic tor
w ers</w>
S t</w>
L ou
ch ill</w>
t v</w>
y ed</w>
R ight</w>
ni a</w>
comm unity</w>
W el
v al</w>
vis ion</w>
exp ect</w>
W ant</w>
g l
inter esting</w>
N A</w>
qu ar
ni e</w>
T H</w>
mfa o</w>
R om
ish ing</w>
V er
issu es</w>
in ning</w>
ser v
mar k</w>
Nov ember</w>
par ty
L ord</w>
ER S</w>
o l</w>
win ning</w>
s ell</w>
O ffic
F oo
en _heart:</w>
p h</w>
a th
i di
J er
Ex c
po p</w>
sa v
B A
de st</w>
m ur
WHA T</w>
wal king</w>
C ho
y an</w>
them selves</w>
drea ms</w>
absol utely</w>
P A
be st
con n
b ad
S ing
St u
N ight</w>
c red
W OR
relea sed</w>
r ace</w>
L at
bor ed</w>
x ed</w>
sh ion</w>
2 7
T wee
id ence</w>
An g
Bir thday</w>
th ank
ick en</w>
ant ly</w>
ac king</w>
W ITH</w>
gi ft</w>
u ary</w>
r n</w>
G a
k id
19 6
ver se</w>
leg al</w>
ob vi
usu ally</w>
mem bers</w>
Ra dio</w>
ic o</w>
' T</w>
co m</w>
ec on
BU T</w>
w all</w>
Par k</w>
d ele
rep ly</w>
co de</w>
re gu
lea ving</w>
vi ol
R el
dar k</w>
Rep u
- -
c le
op er
ig nor
ang er</w>
an e
g row</w>
l em
att ack</w>
in y</w>
: sk
2 8
tri es</w>
:sparkl ing_heart:</w>
gy m</w>
M A</w>
ha m
mi se</w>
6 .
t our</w>
on ed</w>
p ul
suc ks</w>
K ing</w>
imag ine</w>
ro ck</w>
3 1</w>
concer t</w>
D ri
3 5</w>
ea l
v a</w>
ab o
:sk ull
M al
mee ting</w>
buil ding</w>
C hi
an ti
su per
beli ev
gra du
tru ly</w>
3 3</w>
:medium_ dark_skin_tone:</w>
b ile</w>
si de
f ra
d eep</w>
cho ice</w>
Bab y</w>
nam ed</w>
ol s</w>
inf o</w>
ou ble</w>
con vers
ex tra</w>
in j
wonder ful</w>
pri v
Har ry</w>
ro ll</w>
B A</w>
fuc kin</w>
p ati
fri end
L ear
pl ans</w>
C A</w>
supp or
wo ke</w>
Oc tober</w>
em ale_sign:</w>
:f emale_sign:</w>
id a</w>
HA VE</w>
Blu e</w>
atur al</w>
twee ted</w>
up er</w>
con c
f ree
St ates</w>
af ter
si ze</w>
g or
O k</w>
cal ls</w>
au th
Da vid</w>
com pletely</w>
ber t</w>
I C</w>
T ex
glass es:</w>
st :</w>
au l</w>
f s</w>
Bus iness</w>
m ember</w>
pro mo
su n</w>
p ay
qu ick</w>
I F</w>
h o</w>
inc rea
l unch</w>
Dec ember</w>
B al
M en</w>
gg ing</w>
gu n</w>
iz za</w>
ol f</w>
tou ch</w>
pro ject</w>
a po
not ice</w>
Th ursday</w>
itt en</w>
gra de</w>
l in</w>
G oogle</w>
and y</w>
h ou
I tal
: party
comple te</w>
tb h</w>
# m
k et</w>
Bu y</w>
mark et</w>
: see
ar row
bu d
cl ear</w>
wh e
Ch il
c lean</w>
appreci ate</w>
N Y
po se</w>
wi de</w>
pu tting</w>
po lic
mis sion</w>
Repu bli
pre t
i er</w>
lea gue</w>
cr it
loc k</w>
S am
li ed</w>
fi ve</w>
W illi
un ic
re w</w>
si ve</w>
c ent</w>
Do wn
a head</w>
3 rd</w>
Fl or
1 -
R E</w>
v ea
S ept
Jan uary</w>
mist a
sho es</w>
c lear
M ag
vie ws</w>
P al
Coun ty</w>
ex am
: P</w>
charac ter</w>
O kay</w>
re lease</w>
aw k
Al l
cor rec
tur ns</w>
dri ving</w>
C lu
Sh ar
on to</w>
O f
D A
ar ri
UC H</w>
dau ghter</w>
tra in</w>
pro ve</w>
re port</w>
laugh ing</w>
sk in</w>
O ff
:skull :</w>
ar ently</w>
pre sident</w>
List en</w>
wi se</w>
Jo in</w>
in formation</w>
s our
b an</w>
r ul
S S</w>
A tt
des cri
Sept ember</w>
:sparkl es:</w>
H ello</w>
t in</w>
l ying</w>
Ch annel</w>
j e
blu e
ay lor</w>
wor ked</w>
:see -no-evil_monkey:</w>
sp ent</w>
ad dy</w>
b by</w>
clo thes</w>
victor y
st uck</w>
id ity</w>
dec ided</w>
k m</w>
al ia</w>
a st
contin ue</w>
Al ways</w>
Sp ec
: victory
:victory _hand:</w>
0 1</w>
n esday</w>
O ut
opp ort
st rugg
ac ting</w>
ant a</w>
li eved_face:</w>
:re lieved_face:</w>
B L
D r
pp er:</w>
slee ping</w>
rec or
lin es</w>
C all</w>
sun glasses:</w>
artic le</w>
car eer</w>
al es</w>
S uper</w>
en ergy</w>
K now</w>
ther n</w>
I '
ri d</w>
k in
TH ING</w>
person al</w>
Ch ris</w>
tea cher</w>
:p out
:smiling_face_with_ sunglasses:</w>
s ale</w>
maj or</w>
curr ently</w>
Eng land</w>
C ap
_po pper:</w>
:party _popper:</w>
dis cus
s uck</w>
low er</w>
lo g
se :</w>
M id
ro l
choo se</w>
differ ence</w>
om s</w>
re co
part ment</w>
ch er
ch ea
b om
c tion</w>
and a</w>
b ar</w>
G ET</w>
tt en</w>
ra dio</w>
I M
stor ies</w>
: crying_face:</w>
C up</w>
sh ine</w>
ali st</w>
ig r
B re
sp ee
: eyes:</w>
z z</w>
bro ken</w>
emp loy
o d
V is
A ir
h ang</w>
HA PP
Don ald</w>
P aul</w>
e ber</w>
W ind</w>
t -
st ation</w>
C E</w>
Su pp
el ection</w>
ri ght
7 .
posit ion</w>
br ought</w>
opin ion</w>
hel d</w>
g ers</w>
Jo b</w>
to m</w>
Tu esday</w>
gi c</w>
ra id</w>
pr ice</w>
Brit ish</w>
succ ess</w>
L L
rea ch</w>
sing ing</w>
ter n
L y
re turn</w>
ear lier</w>
:pout ing_face:</w>
f ell</w>
V ery</w>
sou l</w>
B ook</w>
M ex
sof t</w>
ea se</w>
0 8
d ition</w>
s wi
it ary</w>
W ar</w>
di vid
ec tive</w>
simp le</w>
N ext</w>
En d</w>
C our
tot al</w>
S ee
7 0</w>
J ack
O ff</w>
O R</w>
Can ada</w>
Q U
Com p
polit ical</w>
S an</w>
: s
j i</w>
am i</w>
th oughts</w>
pa ign</w>
kis s</w>
Gir ls</w>
: blue
:blue _heart:</w>
Om g</w>
a de</w>
M ed
squ int
ou gh
Man ag
ket ball</w>
#M TV
ff ic</w>
an o</w>
dep end
ch urch</w>
st ick</w>
S im
ind ex
ir ing</w>
col ate</w>
O ver</w>
p un
star s</w>
happ ening</w>
qu ality</w>
min s</w>
mar ried</w>
Lea gue</w>
uc e</w>
tea ms</w>
pop ul
y ers</w>
cla im
st ry</w>
ic ed</w>
T ell</w>
in du
ch ers</w>
c ru
V I
fem ale</w>
orig inal</w>
Ca use</w>
G A</w>
we ight</w>
f ly</w>
kee ps</w>
ist er</w>
H or
f ru
arrow :</w>
na ked</w>
d ata</w>
m ac
Tu be</w>
tra ining</w>
Ho t</w>
w est</w>
g g</w>
pl us</w>
spo t</w>
t reat</w>
nor mal</w>
An y</w>
pho to
c ked</w>
ter m</w>
5 00</w>
re di
ri st</w>
Dem ocr
cover ed</w>
P S
fav our
B een</w>
Th ink</w>
peri od</w>
i x</w>
pract ice</w>
ing ing</w>
oun ded</w>
F U
C ON
S hi
lo ad
2 6
3 2</w>
ou ld
S pr
succ ess
f eet</w>
H op
: sun
fig ure</w>
B en
P S</w>
2 -
ho es</w>
C ali
G U
as y</w>
4 0
z on</w>
_point ing_
index _pointing_
ec ting</w>
allow ed</w>
posit ive</w>
D el
I ON</w>
N Y</w>
l and
pro mise</w>
K o
om in
K or
ig er
off er</w>
sever al</w>
am p
ge l</w>
po wer
th a</w>
for ce</w>
ca ught</w>
FUC K</w>
wit ch</w>
:sleep ing_face:</w>
_ with_
Sh it</w>
lan gu
co s</w>
Wi th
M UCH</w>
: 5
A si
sho wer</w>
tra de</w>
kno wing</w>
: kis
Joh n
ta il</w>
P R
Be ing</w>
D Y</w>
S to
de b
lik ely</w>
f ar
y o
2 9
y u</w>
: m
app ear
ac hi
om f</w>
p ment</w>
Tea m</w>
ir ty</w>
bra in</w>
ill er</w>
com e
Con t
des ign</w>
_ face_with_
c e
li ghts</w>
ut om
stric t</w>
D E</w>
anc y</w>
no on</w>
s low</w>
inter ested</w>
re ly</w>
fi x</w>
ho e</w>
pea ce</w>
em ents</w>
sho pping</w>
sig ned</w>
pro vid
w a</w>
tur ed</w>
A ir</w>
s m</w>
d at</w>
for nia</w>
i i</w>
con fu
al a
e h</w>
pu ter</w>
situ ation</w>
pl es</w>
Ch ic
expressi on
stre et</w>
g er
S M
m es</w>
F ind</w>
g ry</w>
am ount</w>
t een</w>
ca ke</w>
ine se</w>
sh it
on ic</w>
Heal th</w>
T or
buil d</w>
pp y</w>
lar ge</w>
eng th</w>
awk ward</w>
G ive</w>
les s_
w ont</w>
B lo
tra vel</w>
ge ous</w>
: expression
less_ face:</w>
:expression less_face:</w>
no logy</w>
N A
bloc k</w>
cor ding</w>
kil ling</w>
F re
fi st:</w>
sk y</w>
b t
st e
H un
H al
est iv
curr ent</w>
Fr ench</w>
re ss</w>
:rais ed
ra p</w>
Wat ching</w>
WA S</w>
t al</w>
un less</w>
B at
sp ital</w>
form er</w>
at ul
h us
20 0</w>
cer tain</w>
de tails</w>
Soc ial</w>
happ iness</w>
lo sing</w>
L S</w>
in k
ur ed</w>
ol der</w>
k ick</w>
u tr
sp orts</w>
C R
ali ve</w>
der ing</w>
up date</w>
ran dom</w>
Da ily</w>
sa d
sha ll</w>
it a</w>
ar a</w>
a in</w>
D E
ro te</w>
b y
up s</w>
opp o
Id k</w>
m ir
sho ot</w>
scre en</w>
C lick</w>
j a</w>
Ge tting</w>
V ir
par k</w>
na p</w>
gre en</w>
go tten</w>
Wed nesday</w>
U T
perform ance</w>
Sum mer</w>
ta x</w>
D r</w>
d :</w>
r ich</w>
B R
ne igh
B S</w>
F la
W ish</w>
S ol
Gre en</w>
CA N</w>
clo set</w>
fi ghting</w>
ell a</w>
m enti
co lor</w>
B la
B or
r en
mul ti
ssi ve</w>
sm art</w>
Wh ich</w>
: grow
:grow ing_heart:</w>
m ess</w>
W S</w>
n n
sho wing</w>
all :</w>
mu m</w>
C ro
t ition</w>
da ily</w>
a a</w>
ta g</w>
cont act</w>
ro le</w>
8 .
lo ss</w>
con fir
th ird</w>
4 th</w>
You Tube</w>
sur vi
K en
# w
pu ll</w>
k o
HO W</w>
Le g
T ech
an im
hur ts</w>
de stro
F il
10 0
exc ept</w>
mp ion
D ear</w>
B as
Stre et</w>
ver age</w>
des ig
an i</w>
bloo d</w>
pla ys</w>
A m</w>
att emp
inter net</w>
graph y</w>
T on
x D</w>
h ang
ist an</w>
IN G
d ying</w>
ph ones</w>
sho o
flo or</w>
il er</w>
Up dates</w>
girl friend</w>
S et</w>
en ever</w>
h il
b ility</w>
mer c
haha haha</w>
si ght</w>
ho pe
A v
N E</w>
4 8</w>
m ental</w>
ph ys
B el
hand le</w>
N ice</w>
V ic
re por
G B</w>
ex plain</w>
li t</w>
m on</w>
L ittle</w>
bo o</w>
Inst agram</w>
av o
sp ort</w>
at ors</w>
KKKK KKKK
sec onds</w>
x ing</w>
S C
er o</w>
go als</w>
z a
L oc
v in</w>
lo ving</w>
t en
lob al</w>
Fam ily</w>
w rote</w>
H e
smo ke</w>
Tim es</w>
offic ial</w>
ir s</w>
ur es</w>
o my</w>
p izza</w>
Me dia</w>
it iz
d on</w>
ac tiv
be y
# s
C y
G ood
side -
hand _
I G</w>
an ish</w>
ag a</w>
ri c</w>
x es</w>
ag s</w>
tit le</w>
: 0
Any one</w>
ho st</w>
A ri
O S</w>
: up
H E</w>
la p
crea ted</w>
eal ous</w>
r or
H y
min i
I sl
crea te</w>
G old</w>
reli gi
Ra in</w>
ur s</w>
P hi
clo sed</w>
comm on</w>
m en
c a</w>
Bro wn</w>
Rem ember</w>
f ear</w>
: p</w>
Cali fornia</w>
pr inc
respon si
7 5</w>
mm m</w>
bea ch</w>
af raid</w>
A s
bor ing</w>
hon est</w>
ca st
in s
ta stic</w>
co ach</w>
prof ile</w>
re fer
H as</w>
wr it
Tex as</w>
il ing</w>
al y
ou tta</w>
com b
sec urity</w>
re n</w>
K S</w>
inter view</w>
to wards</w>
ma ke
ben ef
A D
sch ed
pro per
ous in</w>
pre ssed</w>
ch icken</w>
C loud</w>
Mo vi
it ted</w>
buil t</w>
E ast</w>
m it</w>
i als</w>
y y</w>
b on
re ma
heal thy</w>
R ic
u gh</w>
EL L</w>
home work</w>
ss ure</w>
c ream</w>
bl ess</w>
th in</w>
E D
O H</w>
a p</w>
f ish</w>
par ed</w>
real ity</w>
plac es</w>
st a</w>
In v
F eb
tur ning</w>
v ely</w>
bull shit</w>
le x</w>
dec ision</w>
T aylor</w>
sc ore</w>
H igh
Hel p</w>
ke ts</w>
jud ge</w>
3 9</w>
3 6</w>
LI VE</w>
g oo
0 7
hun gry</w>
in ting</w>
tick et</w>
wr itten</w>
WH Y</w>
b es</w>
Wee k</w>
op ening</w>
C rea
ess ing</w>
itu de</w>
t ea</w>
do gs</w>
i est</w>
h es</w>
cour t</w>
li g
i p</w>
favour ite</w>
Ar t</w>
acc ep
W ay</w>
for e
# c
L L</w>
pop ular</w>
e z</w>
ph on
#No w
qu ote</w>
dr inking</w>
: ti
holi day</w>
hor n
di ffic
al a</w>
recei ved</w>
ssi c</w>
sh rugg
E U</w>
Clu b</w>
side- down
:up side-down
:upside-down _face:</w>
m ea
coun ts</w>
ev ening</w>
be er</w>
re gre
t ory</w>
dou bt</w>
wa ste</w>
T F</w>
c king</w>
3 -
s now</w>
G HT</w>
sc ene</w>
convers ation</w>
OO D</w>
Feb ru
in ation</w>
spea k
O ld</w>
I F
Wa sh
st ream</w>
ca m</w>
Chic ago</w>
Is ra
ge tt
Austr alia</w>
si ons</w>
su sp
: an
p ack</w>
pis sed</w>
ho le</w>
On line</w>
Febru ary</w>
lea der</w>
al right</w>
inter est</w>
disappo int
em bar
ti pp
bo t
p ants</w>
n ames</w>
c up</w>
st rea
some where</w>
al low</w>
S ince</w>
ad vice</w>
C r
St ay</w>
C OM
m p</w>
st ly</w>
k ing
tw ice</w>
Every thing</w>
s old</w>
fam ous</w>
non -
bla me</w>
ent ary</w>
str ation</w>
essi onal</w>
g ar</w>
w ins</w>
P an
bl ack
s at
su it</w>
Fin ally</w>
stud ent</w>
4 4</w>
g old</w>
L ar
n ic
P ra
er c
sto pped</w>
li c</w>
l mfao</w>
bur n</w>
AT E</w>
Th ings</w>
pr ay</w>
re gar
Geor ge</w>
inc redi
V O
m ention</w>
igg er</w>
M OR
P E
in o
k ept</w>
3 6
f t
rac ist</w>
cred it</w>
E v
ea st</w>
up set</w>
a ster</w>
A P</w>
Col lege</w>
ex per
:person_ tipp
:person_tipp ing_hand:</w>
ep s</w>
Th r
horn s:</w>
a bu
ep h
bi a</w>
ec t
Wh ile</w>
:person_ shrugg
:person_shrugg ing:</w>
H EA
n one</w>
tel ls</w>
: back
hand_ index_pointing_
:back hand_index_pointing_
act ual</w>
le dge</w>
dou ble</w>
res earch</w>
fa ult</w>
m i</w>
T L</w>
op en
H ill
di g
com for
foc us</w>
so o</w>
pres ent
reali zed</w>
- ></w>
do ws</w>
estiv al</w>
proc ess</w>
pa ir</w>
grea test</w>
# p
An dro
B B
GO D</w>
N iger
lear ned</w>
ag re
# b
vo ted</w>
c ousin</w>
respon se</w>
ch annel</w>
3 4</w>
VID EO</w>
thr u</w>
pas sed</w>
hol ding</w>
tt est</w>
abo ve</w>
mp h</w>
Mor ning</w>
tr o</w>
bo ss</w>
Sec re
j ealous</w>
9 5</w>
progra m</w>
wed ding</w>
re spec
break fast</w>
Cor onavirus</w>
ar r
ill a</w>
# Th
Wor k</w>
cam paign</w>
ar ious</w>
mil es</w>
_ __</w>
el ine</w>
uc c
co st</w>
F al
Re gi
Su per
M em
dra ma</w>
s low
priv ate</w>
Do wn</w>
La dy</w>
cho colate</w>
5 5</w>
ear th</w>
bu ying</w>
mo del</w>
k ar
C lo
af f</w>
Jo bs</w>
S ay</w>
ess es</w>
cla m
arti st</w>
Tho se</w>
Po st</w>
b un
i ther</w>
y al</w>
Ch inese</w>
d ry</w>
D C</w>
umb ers</w>
conf used</w>
l ay</w>
Mis s</w>
soc i
V ER
f ear
d ear</w>
resul ts</w>
or a</w>
ni ghts</w>
Ha haha</w>
ne utr
W on
b il
n atural</w>
id ing</w>
chang es</w>
red _face:</w>
:ti red_face:</w>
HA R
iz ation</w>
in ks</w>
C ent
er ous</w>
ri ghts</w>
d ee
el ly</w>
i onal</w>
cla im</w>
0 9
# o
haha h</w>
bas ically</w>
4 2</w>
v ac
so s</w>
Americ ans</w>
b ank</w>
R oc
la b
Y ES</w>
Russi a</w>
fu l
Pro duc
la zy</w>
tear s</w>
in no
whe ther</w>
a k</w>
W AT
d m</w>
hus band</w>
j er
y -
struc tion</w>
I A</w>
P C</w>
cra p</w>
la ge</w>
se ball</w>
Flor ida</w>
Op en</w>
o x
com ment</w>
atul ations</w>
j us</w>
Sc i
k ing_face_with_tongue:</w>
:win king_face_with_tongue:</w>
Wa it</w>
ea si
ta ste</w>
L ong</w>
langu age</w>
W ILL</w>
am p</w>
IG HT</w>
sid es</w>
Inter national</w>
t at
lear ning</w>
IN E</w>
m outh
cha se</w>
IT S</w>
ri a</w>
#C O
ser ved</w>
tr act</w>
C oo
EN D
C L
ser vices</w>
Mon ey</w>
ch ester</w>
El ec
invest ig
ar ms</w>
surpri sed</w>
ho ping</w>
ma ge</w>
bl essed</w>
ing_ in_
re st
re view</w>
ex ist
in i</w>
la un
nec ess
hh hh</w>
Loo ks</w>
kno w
im m
C enter</w>
qu ick
u d</w>
hel lo</w>
ee d
la w
bea uty</w>
# Y
go in</w>
: speak
Po lice</w>
cla sses</w>
S ar
har d
invol ved</w>
Wash ington</w>
beg inning</w>
y oun
gen eral</w>
i us</w>
im ma</w>
hope fully</w>
ha h</w>
m ic
re comm
A S</w>
acc ept</w>
si mil
4 -
j ects</w>
sci ence</w>
# St
A g
0 6
b unch</w>
P ER
M E
educ ation</w>
#Now Playing</w>
Pho to
pl at
id eas</w>
200 8</w>
exp ected</w>
ex clam
bro k
D ig
fal ling</w>
:grinn ing_face_with_smiling_eyes:</w>
Go tta</w>
um ent</w>
no te</w>
S ch
chec k
OU LD</w>
war m</w>
ne g
3 8</w>
Par t</w>
Po wer</w>
is ing</w>
I R</w>
B it
In dian</w>
fre sh</w>
am e
Jap an</w>
cont ent</w>
In di
chall enge</w>
shar ing</w>
kee ping</w>
H D</w>
Bo y</w>
gi e</w>
r on</w>
Y ING</w>
:' )</w>
P ort
S ize</w>
Ho wever</w>
di um</w>
Be tter</w>
exam ple</w>
v y</w>
FUC KING</w>
IC E</w>
S U
clear ly</w>
up on</w>
p ite</w>
li m</w>
mem ories</w>
_ eyes:</w>
The ir</w>
S A</w>
bu t
fa v</w>
ac tive</w>
dra w</w>
fur ther</w>
3 7</w>
re tweet</w>
bas ketball</w>
K NOW</w>
id ent
r ics</w>
ev ents</w>
u le</w>
th ous
ra ge</w>
on a
char ge</w>
g in
k n
D ont</w>
do es
ev ent
M ur
ter rible</w>
bi e</w>
int ro
el low</w>
po sed</w>
row ing</w>
Pl ay</w>
b igger</w>
be l</w>
Y oung</w>
br and</w>
T A</w>
J en
Congr ats</w>
exclam ation
O ri
nu de</w>
le gs</w>
P ak
re -
int on</w>
com pla
mo tiv
lo ve
tra ffic</w>
o ts</w>
tal ks</w>
hel ping</w>
T un
se qu
D en
n ation</w>
cri min
F F
HAPP Y</w>
wh it
neutr al
fa il</w>
Fr ance</w>
ane se</w>
per ature</w>
hear ing</w>
ter y</w>
p chat</w>
Ama zon</w>
ha i</w>
Afr ica</w>
st ats</w>
dec ide</w>
t el</w>
bey ond</w>
ar s</w>
st al
s en</w>
e Bay</w>
a h
tr ouble</w>
B ill</w>
s ession</w>
opport unity</w>
m ach
J O
sel ling</w>
n ers</w>
st aff</w>
Jo e</w>
0 5
s i</w>
Mar k</w>
wea k</w>
5 sos</w>
p ers</w>
TW EE
si x</w>
ma r</w>
B ad</w>
Euro pe</w>
On ce</w>
H ist
P or
g est
W N</w>
el a</w>
ti ps</w>
secre t</w>
rea sons</w>
T ry</w>
car s</w>
fol ks</w>
Ac c
: confu
:confu sed_face:</w>
bi o</w>
a w</w>
Ser ies</w>
B itch</w>
d ating</w>
N T</w>
ey s</w>
po st
li ber
s eat</w>
H ou
r ick</w>
L ab
E ver</w>
foo d:</w>
a verage</w>
: neutral
:neutral _face:</w>
at trac
r on
US E</w>
obvi ously</w>
m ent
Andro id</w>
I VE</w>
M any</w>
face pal
fe ed</w>
is ed</w>
ar t
Bu il
ri dic
d addy</w>
grow ing</w>
4 7</w>
c us</w>
r ate</w>
Bra z
vi l</w>
Ro ad</w>
he he</w>
der n</w>
sp read</w>
To m</w>
l ma
e fully</w>
oooo o</w>
l ex
publi shed</w>
si r</w>
ester n</w>
com puter</w>
id es</w>
sav or
dis gu
simp ly</w>
ic ked</w>
brea king</w>
Pr ice</w>
ser ve</w>
embar ra
k ie</w>
e li
no se:</w>
Be fore</w>
j ack
v a
f u</w>
R ock</w>
out u
AL LY</w>
t ch</w>
ord an</w>
ing_ food:</w>
:face_ savor
:face_savor ing_food:</w>
O ly
Ex p
w w</w>
d s
K e
bl es</w>
4 9</w>
for tun
W r
P RE
1 ,
P E</w>
z ine</w>
ST O
val ue</w>
ef fort</w>
popul ation</w>
fa m</w>
ea s
itch en</w>
le tting</w>
after noon</w>
run s</w>
ent y</w>
sur v
n g</w>
R ol
sho ts</w>
R oo
Lear n</w>
200 9</w>
sha me</w>
k no</w>
in divid
wil d</w>
4 1</w>
no min
b o</w>
4 3</w>
t ab
t s
B ey
stre ss</w>
if ic</w>
Ser iously</w>
direc tion</w>
e tte</w>
any body</w>
pre gn
f lu
Ar ti
b ing</w>
3 5
success ful</w>
H ate</w>
tur ing</w>
a wake</w>
sen al</w>
c up
z es</w>
Lu ke</w>
W O
H am
ang ry</w>
or able</w>
ri f
Down load</w>
d ated</w>
ma in
Mi ke</w>
T Y</w>
fli x</w>
mil itary</w>
ridic ul
F ar
re la
j um
Ha ving</w>
G ol
ay ed</w>
sc ary</w>
ex ist</w>
y r</w>
re fu
foo t</w>
comp an
s ort</w>
s in</w>
U se</w>
: brok
:brok en_heart:</w>
ho p</w>
Ma de</w>
spea king</w>
rel ated</w>
app arently</w>
ign ore</w>
t oo
S ou
P ur
a part</w>
cam era</w>
b day</w>
r ay</w>
# th
w ine</w>
Pre tty</w>
li p</w>
inf lu
Mo m</w>
scho ols</w>
Gu ess</w>
ri bu
am ong</w>
Offic ial</w>
C are</w>
# U
O ver
win dow</w>
ee e</w>
gor geous</w>
a utom
wor ried</w>
Pl us</w>
rec ently</w>
4 6</w>
G R
comm ents</w>
li shed</w>
rul es</w>
fac ts</w>
li ps</w>
p sy
v ement</w>
ev il</w>
p aying</w>
f ts</w>
resul t</w>
S wee
l ess
facepal m
Y o</w>
K ind
ol a</w>
act ers</w>
am er
:person_ facepalm
:person_facepalm ing:</w>
f light</w>
M ac
:heart_ with_
t ough</w>
Mar keting</w>
TH AN
fro m_
Lou is</w>
p oo
ba se</w>
d am
cas es</w>
i lies</w>
200 7</w>
stea m_
:face_with_ steam_
from_ nose:</w>
:face_with_steam_ from_nose:</w>
P A</w>
w ind</w>
ni ght
n umbers</w>
P ad</w>
D ate</w>
:m ale_sign:</w>
dro pped</w>
Sm h</w>
diffic ult</w>
X D</w>
LO OK</w>
mar t</w>
an ity</w>
su dd
coun tries</w>
Is la
Star s</w>
: disappoint
:disappoint ed_face:</w>
u h</w>
Gr oup</w>
lat ely</w>
mon ey
inclu de</w>
plac ed</w>
intro duc
su gg
blo ss
it self</w>
ma ma</w>
d irty</w>
loc ated</w>
Hill ary</w>
e es</w>
U G
ou ts</w>
f low
con gr
D ay
w en</w>
win ter</w>
gg ed</w>
b ill</w>
Ch el
hea t</w>
TI ME</w>
E p
c row
Wee k
Tal k</w>
rea t
an _
F uc
n early</w>
ot es</w>
un ning</w>
D ol
gr ou
Christ ian</w>
ee ds</w>
I mag
G onna</w>
act or</w>
L MA
S M</w>
#T ea
vo ting</w>
F er
Hum idity</w>
B ACK</w>
pro mis
apo logi
not iced</w>
tea ch</w>
B EA
GO P</w>
indu stry</w>
correc t</w>
ter min
st one</w>
le tter</w>
att ers</w>
u sh
S l
il a</w>
wonder ing</w>
V ID</w>
tal ked</w>
sp ring</w>
br a</w>
c lim
B attle</w>
easi er</w>
int age</w>
ag ed</w>
C ri
c lick</w>
car es</w>
li p
simil ar</w>
E Y</w>
N FL</w>
pre sen
comfor table</w>
H en
Tru e</w>
ur ant</w>
ar g
P H
m al
c on</w>
ho wever</w>
tra sh</w>
I L</w>
polit ics</w>
a :</w>
pre c
g ri
U T</w>
Foo tball</w>
S ame</w>
S wi
ck et</w>
s and
g in</w>
Ar my</w>
Sil ver</w>
make up</w>
acc ess</w>
form ed</w>
li d</w>
M el
S an
m el
s ooo</w>
5 -
F ire</w>
ho spital</w>
P en
dit ional</w>
S po
TH ER</w>
ad dic
19 5
su me</w>
il ly</w>
idi ot</w>
hor rible</w>
G E
S I
pp ers</w>
Col l
la dies</w>
fa ith</w>
Twee t</w>
ac tions</w>
down load</w>
anc ial</w>
em ber
L ight</w>
ac he</w>
Direc tion</w>
F E</w>
R ed
p ush</w>
Fr anc
Cl inton</w>
t our
S qu
chee se</w>
e en
NE VER</w>
x y</w>
I ma</w>
THE Y</w>
Ser vice</w>
mpion ship</w>
Sco t
W o
sh ort
r o</w>
ri se</w>
Pla y
b attle</w>
F av
for ms</w>
does nt</w>
high er</w>
est ab
Th er
eas ily</w>
Su b
bo w
DON T</w>
jour n
Dea ls</w>
L au
En joy</w>
Con gress</w>
j ump</w>
wan ting</w>
lea ding</w>
B BC</w>
b re
p ack
S and
screa m
n i</w>
hel ps</w>
bu tt</w>
D A</w>
AAAA AAAA
spee ch</w>
ati ves</w>
re f
om :</w>
can di
Ca se</w>
ly wood</w>
br ary</w>
se tt
cam er
s earch</w>
is on</w>
w ay
ri age</w>
prot ect</w>
ic ep
J ack</w>
D EA
ak a</w>
illi ant</w>
vic ti
entr e</w>
r at
slow ly</w>
c ore</w>
c ut
no se</w>
0 4
en ess</w>
W ho
hel ped</w>
Ton ight</w>
sm ell</w>
merc ial</w>
Lo ve
Y 'all</w>
h its</w>
0 2</w>
every where</w>
#S ound
h ic
be low</w>
A wards</w>
enc ed</w>
char acters</w>
mm ing</w>
bo w</w>
ri sk</w>
p us</w>
0 3
s_ mark:</w>
EV ER</w>
ed _b
A P
:f lex
icep s:</w>
ed_b iceps:</w>
:flex ed_biceps:</w>
co in</w>
na sty</w>
s ay
scream ing_in_
:face_ screaming_in_
fear :</w>
:face_screaming_in_ fear:</w>
C as
l ack</w>
t ee
Pro f
ish es</w>
ir es</w>
fuc k
ff s</w>
P rem
# Go
as sho
l ands</w>
consi der</w>
exc use</w>
s outh</w>
or ed</w>
D oc
pro of</w>
bot tom</w>
vol v
pre vi
U l
um s</w>
str on
F IN
w is
L LY</w>
st ock</w>
beg an</w>
prov ide</w>
A sh
ver pool</w>
C ru
A pp</w>
b ee
plan ning</w>
lar s</w>
D J</w>
Be li
o es</w>
bal ls</w>
br inging</w>
the tic</w>
An n
wal ked</w>
# g
Bi eber</w>
hu g</w>
# no
S W
t ually</w>
wh enever</w>
chang ing</w>
:re volv
ing_heart s:</w>
:revolv ing_hearts:</w>
Ger many</w>
ch rist
a sh
shoo ting</w>
ac ts</w>
it or</w>
e ful</w>
um bl
ell ent</w>
F eel</w>
si on
illi ons</w>
s am
Un der
down :</w>
EA R
we ed</w>
loc ked</w>
ar ch
Ger man</w>
hil arious</w>
6 5</w>
sp on
Rea l
# Li
er t</w>
al o
g ent
Pr o</w>
c ash</w>
Russi an</w>
in it
w inner</w>
J ordan</w>
Wel come</w>
neigh b
mo on</w>
manag er</w>
exp lo
c itiz
# h
Bea utiful</w>
sex ual</w>
t ree</w>
al ty</w>
A W
der ship</w>
sur ance</w>
Cour t</w>
ri ous</w>
s ar
mar keting</w>
ha ir
her o</w>
M om
stor m</w>
se ts</w>
S ports</w>
hu h</w>
ab t</w>
par ts</w>
W hat
c il</w>
200 6</w>
Sm ith</w>
d is</w>
bloss om:</w>
d -
o il</w>
b low</w>
C ou
s ent
C N
D D
C D</w>
st aying</w>
i ew</w>
N BA</w>
any where</w>
tr e</w>
N I
cent ury</w>
surpri se</w>
danc ing</w>
tra vel
qu it</w>
celebr ate</w>
G ames</w>
r i</w>
SE E</w>
suppo se</w>
B EST</w>
v t</w>
an o
R Y</w>
Qu een</w>
usu al</w>
li sh
p et</w>
i ent</w>
econ om
GO T</w>
S of
Y o
op ened</w>
1 :
le g</w>
B id</w>
Tr ying</w>
ca pe</w>
H and
bo t</w>
cla ss
vir on
mar y</w>
C K</w>
g ni
bru h</w>
z i</w>
f r</w>
ter ror
yel low
ru de</w>
0. 0</w>
wor kers</w>
lim ited</w>
T ER
el ing</w>
Ad v
fam ilies</w>
H S</w>
D ro
and er</w>
pp in</w>
sp ending</w>
sa ved</w>
bab ies</w>
#Tea m
develo pment</w>
in -
Y Y
t i</w>
T ar
3 00</w>
Mex ico</w>
i g</w>
butt on</w>
n eck</w>
bt w</w>
ex am</w>
f ool</w>
or ial</w>
Tom orrow</w>
G l
cr ush</w>
deser ves</w>
D uring</w>
car ds</w>
A ra
MA N</w>
MOR E</w>
Ama zing</w>
hea ds</w>
D ead</w>
#CO VID
n n</w>
Can a
regu lar</w>
produc ts</w>
sen ding</w>
J ust
0 5</w>
M S</w>
I' M</w>
ni fic
al ot</w>
M IN
FO R
ul ts</w>
bro ad
Sea son</w>
R yan</w>
e th
sun g</w>
H ur
G OOD</w>
mo bile</w>
Movi e</w>
bu cks</w>
gro wn</w>
sp eed</w>
fan tastic</w>
k ies</w>
rec ent</w>
0 3</w>
ta ins</w>
EN D</w>
regre t</w>
offic ially</w>
o logy</w>
g ur
US D</w>
uti ons</w>
prof essional</w>
K ids</w>
# d
ta pe</w>
bloc ked</w>
K im</w>
bo ttle</w>
T -
fin ding</w>
A i</w>
b lic
ay a</w>
gu il
pl ane</w>
b ound</w>
ba th
fa iled</w>
fa shion</w>
load ed</w>
mat h</w>
t une</w>
Ang el
W ANT</w>
9 9
D U
ad ult</w>
P ic
ate ful</w>
int en
mat er
Inter net</w>
6 -
st ates</w>
No body</w>
er _
2 /
An d
Ch urch</w>
d ama
ext rem
ac es</w>
sho w
5 th</w>
re sted</w>
ES S</w>
W in</w>
F an
ot a</w>
ell er</w>
D V
ou te</w>
can cer</w>
sal es</w>
St or
K u
im medi
# job</w>
un ities</w>
Dis ney</w>
:sun :</w>
Sp anish</w>
SH IT</w>
Bl ack
Rep ort</w>
ay n</w>
y ear
L ev
ad dress</w>
M ul
sho wed</w>
heav y_
em er
b in</w>
G G
Gla d</w>
oun tain</w>
0 8</w>
: money
mista ke</w>
C AN
gu it
ec es</w>
w as
20 00</w>
Fri ends</w>
Isl and</w>
bri dge</w>
St e
tal ent</w>
Pu bli
#Sound Cloud</w>
Congr atulations</w>
Vis it</w>
cor ru
s -
xx xx
p ean</w>
M P
ti fic
ru le</w>
: cher
F ood</w>
ear ned</w>
se par
air s</w>
lo ws</w>
0 4</w>
M ess
k ne
S K
n or</w>
H im</w>
beg in</w>
partic ip
T our</w>
Hear t</w>
compe tition</w>
cul ture</w>
Th ank
Bo ston</w>
ang ers</w>
su s</w>
an ia</w>
lea ders</w>
C ar</w>
clo ser</w>
a do
Y a</w>
ridicul ous</w>
: yellow
M ON
:yellow _heart:</w>
sc en
TI ON</w>
Mar ket</w>
depend ent</w>
be coming</w>
phi c</w>
F T</w>
gla ss</w>
de ed</w>
su m</w>
Every body</w>
com ing_
Li l</w>
ha ps</w>
quick ly</w>
D er
: on
st it
consi dered</w>
net work</w>
chec ked</w>
Gu ys</w>
pressi on</w>
bal lo
St ory</w>
A h</w>
P RO
CO VID</w>
J ud
IT E</w>
ed eral</w>
f c</w>
aw ful</w>
3 3
D ani
Nigg as</w>
frea king</w>
sun shine</w>
P ea
hel la</w>
ri sh</w>
m ale</w>
x it</w>
exclamation _mark:</w>
S ong</w>
li ved</w>
ar ies</w>
d d</w>
a -
Gen eral</w>
pic al</w>
ick et</w>
outu be</w>
cat _face_with_
:on coming_
y m
i k
Spec ial</w>
F RO
U s</w>
fil led</w>
soc iety</w>
O ther</w>
log ical</w>
st y
ry _
Comp any</w>
gla sses</w>
Ri ver</w>
can s</w>
re si
Chel sea</w>
B T
it al
:grinn ing_
m l</w>
Rev iew</w>
Some thing</w>
EE N</w>
u k</w>
compan ies</w>
Isra el</w>
ther wise</w>
ver ti
h an
H ard</w>
pre dic
ing ly</w>
fac es</w>
pic ked</w>
S L
b is
R R
:heart_with_ arrow:</w>
hou se
et ro
pre ssure</w>
Fo x</w>
ri e</w>
uc ks</w>
bro thers</w>
vers ary</w>
:sleep y_face:</w>
V ol
tt ed</w>
Su n</w>
ess or</w>
St eve</w>
ant asy</w>
s op
h ide</w>
Mic ro
Per f
val u
uu uu
I t
Up date</w>
produc t</w>
strugg le</w>
Aw esome</w>
S am</w>
stat ement</w>
chil d
th ea
IN K</w>
U gh</w>
kid ding</w>
r ent</w>
ir ts</w>
T ED</w>
on e
Ar senal</w>
t ech</w>
Par is</w>
NE ED</w>
sched ule</w>
cre ep
mi e</w>
Hop efully</w>
follo ws</w>
pl z</w>
Vo te</w>
t ac
p ink</w>
K ing
har der</w>
car ry</w>
st ance</w>
W all</w>
N av
f ill</w>
B each</w>
Rea dy</w>
r ying</w>
s at</w>
: c
can cel
ev idence</w>
all er</w>
ex pla
st ood</w>
cu dd
p on</w>
dre w</w>
Bea uty</w>
n y
PL E</w>
u als</w>
ali an</w>
ja il</w>
L ED</w>
announ ced</w>
a c</w>
Dig ital</w>
Ital y</w>
4 8
u k
yy y</w>
s ity</w>
avo id</w>
it ation</w>
Pre ss</w>
deb ate</w>
WH O</w>
St ud
hot el</w>
Al lah</w>
A gain</w>
nor th</w>
T UR
S ex
0 6</w>
tri c</w>
un followers</w>
mi x</w>
H ER</w>
br ings</w>
soc cer</w>
si a</w>
w hats</w>
t ag
rel ev
j un
AS S</w>
sh ire</w>
w at</w>
an gel</w>
Al ex
J ones</w>
cri me</w>
Li verpool</w>
A re
incredi ble</w>
8 :</w>
p on
0 7</w>
: cro
OU R</w>
Dev elo
ha vi
jo kes</w>
wil ling</w>
ev in</w>
k e:</w>
HA HA</w>
qui et</w>
4 5
stat us</w>
E L</w>
E mp
x im
mo d
:cher ry_
:cherry_ blossom:</w>
Ho ly</w>
fem ales</w>
ON LY</w>
C i
ic ians</w>
mouth :</w>
recei ve</w>
gr an
it ness</w>
el ls</w>
# a
N ic
app ly</w>
emo tional</w>
M ust</w>
Euro pean</w>
7 -
in ary</w>
cro ss</w>
Li ber
suppor ting</w>
pur pose</w>
y rs</w>
mo stly</w>
Jap anese</w>
W eb
tee th</w>
0 9</w>
cal m</w>
Au th
B ul
polic y</w>
stom ach</w>
thank ful</w>
gu ar
B roo
cop y</w>
sol ution</w>
E r
b i</w>
st ands</w>
self -
Nigg a</w>
as ks</w>
H a</w>
W W
th u
achi ev
Net flix</w>
U U
t wi
y a
ba e</w>
ww w</w>
cor ner</w>
F B</w>
tw are</w>
lea ves</w>
6 4</w>
A lex</w>
:smiling_face_with_ horns:</w>
op tion</w>
d ang
heav y</w>
gh ty</w>
er o
# k
in er</w>
li fe
allow een</w>
z er</w>
sour ce</w>
:kis s_mark:</w>
sen ior</w>
te en
ur a</w>
comple ted</w>
Man chester</w>
M uch</w>
me aning</w>
ba seball</w>
OU N
for ced</w>
st eps</w>
att itude</w>
n on</w>
c ook</w>
e go</w>
re sta
ent ure</w>
necess ary</w>
Ve gas</w>
st ems</w>
L ee</w>
c enter</w>
w oo
dri ver</w>
el ling</w>
oc i
c ats</w>
FRO M</w>
do l</w>
aw ard</w>
ree k</w>
# In
N ick
ly rics</w>
you re</w>
aw are</w>
sk ills</w>
L uc
al though</w>
phon e:</w>
L M
tex ting</w>
B ru
M ind</w>
ie f</w>
bi an</w>
doc tor</w>
C er
Pak istan</w>
ut ers</w>
tr ump</w>
L aw
ab ly</w>
G ri
M ight</w>
sh u
K no
F R
pu ts</w>
k em
ni versary</w>
reco gni
inter national</w>
adm it</w>
B IT
ic ian</w>
an x
5 5
g ency</w>
REA LLY</w>
:raised _hand:</w>
:oncoming_ fist:</w>
ic king</w>
ber ry</w>
WAT CH</w>
dele te</w>
cam p</w>
:' (</w>
F ut
v an</w>
Ro bert</w>
anc ed</w>
str ate
ing er</w>
tim ate</w>
S ir</w>
H all</w>
B ank</w>
r ings</w>
le st</w>
ch ick</w>
H ead</w>
i um</w>
w an</w>
10 00</w>
ti ght</w>
re vea
# st
j am
Wom an</w>
coll ection</w>
bar ely</w>
A war
St ra
ch a</w>
anti -
Pro t
p ee
H U
shit ty</w>
grou ps</w>
jo ined</w>
3 8
s le
ta ught</w>
LI FE</w>
mess ages</w>
Sec ond</w>
:f ro
D un
z one</w>
Ho ttest</w>
produc tion</w>
inspir ation</w>
mo ves</w>
Ma j
mil k</w>
sit ion</w>
dec is
M I
li a</w>
Ac tually</w>
sa fe
app ear</w>
al co
g ree</w>
An ti
D av
John son</w>
def ense</w>
inclu ded</w>
Hon estly</w>
m atters</w>
just ice</w>
Ti ps</w>
oun ding</w>
Sp ea
re land</w>
enjoy ed</w>
any ways</w>
4 9
g en</w>
know ledge</w>
RE D</w>
wor ld
hi stor
tain ment</w>
:speak -no-evil_monkey:</w>
EVER Y
c ing</w>
el ected</w>
Bo th</w>
Ass oci
rais ed</w>
gett in</w>
c t</w>
0 2
Mi ami</w>
Le ts</w>
1/ 2</w>
Val ent
fi e</w>
S N
T ro
ho l</w>
H ill</w>
T ER</w>
be d
n al</w>
pe op
as on</w>
L a</w>
H ell</w>
10 .
e k</w>
X X
t an</w>
f eat</w>
d un
d less</w>
in sul
P ut</w>
ra ise</w>
C elebr
na ils</w>
qu een</w>
C U
r es</w>
mur der</w>
C ool</w>
Ch rist</w>
W TF</w>
Jack son</w>
w are</w>
il led</w>
bur g</w>
M T</w>
gi a</w>
AS T</w>
sh oul
nam ent</w>
WH EN</w>
# now
Wh it
ma ssive</w>
Cent ral</w>
ber g</w>
ven ue</w>
y ard</w>
H ERE</w>
Mat t</w>
dru gs</w>
her self</w>
Th ree</w>
ag ing</w>
gr ateful</w>
H EL
Pe ter</w>
pis s</w>
str ength</w>
bro wn</w>
direc t</w>
ra in
u u</w>
S uch</w>
N ah</w>
m ers</w>
uti ve</w>
do s</w>
ob s
cra ft</w>
Sco tt</w>
bir d</w>
T it
ea ls</w>
Sh are</w>
B AB
i mage</w>
H alloween</w>
enjoy ing</w>
e tt
ist ry</w>
D ad</w>
c in
tea chers</w>
as soci
qu ali
# y
dit ions</w>
Tem p</w>
po sting</w>
Ear th</w>
y :</w>
0 -
pregn ant</w>
M ir
d ings</w>
Wor ld
doc um
is es</w>
c s</w>
work out</w>
Afr ican</w>
em ic</w>
on -
Ni all</w>
fin als</w>
B en</w>
pot ential</w>
D ays</w>
LMA O</w>
B IR
est im
L EA
vil lage</w>
ster n</w>
C over</w>
wa king</w>
l ord</w>
er -
H i
um my</w>
sna p</w>
st airs</w>
Car ol
STO P</w>
el and</w>
t ics</w>
hol ds</w>
off ers</w>
neg ative</w>
i Pad</w>
ep tion</w>
pre mi
imm igr
gra m</w>
gen u
sit es</w>
face book</w>
com mercial</w>
ma ss
# vo
th t</w>
ree ts</w>
im possible</w>
and ing</w>
Bo y
relev ant</w>
ed ge</w>
i ble</w>
k itchen</w>
M other</w>
# the
bo ther</w>
sna pchat</w>
fre sh
event ually</w>
power ful</w>
Pl an
loo d</w>
Kor ea</w>
possi bly</w>
200 5</w>
rem ember
bath room</w>
dec ent</w>
mom ents</w>
k l
custom er</w>
H an
ter ms</w>
pro per</w>
fri day</w>
who se</w>
3 7
ic e
ST A
po sts</w>
sec tion</w>
de dic
Manag er</w>
pre fer</w>
# news</w>
: squint
:squint ing_face_with_tongue:</w>
Mar tin</w>
b ac
St art</w>
bud dy</w>
f o</w>
Ni ke</w>
squint ing_face:</w>
:grinning_ squinting_face:</w>
B on
lo ads</w>
Braz il</w>
bir th</w>
r ange</w>
S ays</w>
ed ly</w>
T hats</w>
d omin
C at
War s</w>
M M
exc iting</w>
T ech</w>
W anna</w>
Qu est
aw ar
dru g</w>
Tem perature</w>
DO C
ig an</w>
Y ears</w>
ho ly</w>
extrem ely</w>
ap er</w>
ar my</w>
cont ribu
il legal</w>
de y</w>
Ma king</w>
B ud
cha mp
ay ne</w>
Sal es</w>
a i</w>
big _eyes:</w>
:grinning_face_with_ big_eyes:</w>
all as</w>
scor ed</w>
# jobs</w>
: gre
St ation</w>
appear ed</w>
fi f
ough out</w>
ac cording</w>
sub scri
leg it</w>
part ner</w>
o le</w>
maj ority</w>
con ference</w>
i th
NY C</w>
RI GHT</w>
2 2
ex ec
H oo
E ST
DON 'T</w>
U N</w>
Tho mas</w>
anim als</w>
M P</w>
fing ers</w>
L im
d cast</w>
Off ice</w>
Imag ine</w>
rea ched</w>
hi p</w>
ul a</w>
ac counts</w>
ac qu
g ol
mem ory</w>
ys is</w>
bi ke</w>
B I</w>
Gr and</w>
econ omy</w>
ol :</w>
gg s</w>
b f</w>
fa il
th ir
20 20</w>
ac comp
aw w</w>
app lic
E li
AB OUT</w>
SH E</w>
or dered</w>
Fun ny</w>
disgu sting</w>
y l
chea p</w>
K at
uni or</w>
re y</w>
In c</w>
N ation</w>
ala xy</w>
Fin al</w>
S U</w>
I P</w>
Go vernment</w>
dre ssed</w>
Pro bably</w>
B ack
C C</w>
w et</w>
OM E
M AN
g ate</w>
or ing</w>
ma sk
j k</w>
exp ensive</w>
gun na</w>
cer tain
V intage</w>
gest ur
sh i</w>
b right</w>
D eb
be havi
Pho tos</w>
:person_ gestur
:person_gestur ing_
su ffer
Li am</w>
Des ign</w>
vo tes</w>
m eal</w>
H om
n ation
f i</w>
T ING</w>
Sa ve</w>
gam e
T ou
TWEE T</w>
#n p</w>
Supp ort</w>
med ical</w>
bom b</w>
tr uck</w>
ed _
Lo s</w>
ON G</w>
ic ide</w>
ist ol:</w>
:p istol:</w>
int el
i ed</w>
Y our
s oooo</w>
responsi ble</w>
de st
off s</w>
par ties</w>
D eal</w>
inn ers</w>
M ary</w>
sy m
ta ining</w>
# coronavirus</w>
S HO
Democr ats</w>
Mo bile</w>
I I
y n</w>
w ich</w>
N C</w>
sha ke</w>
; -
Hist ory</w>
med ical_
L iter
La w</w>
:grinn ing_face:</w>
com plain</w>
fortun ately</w>
loc ation</w>
Pr inc
R on
P AR
w ash</w>
J our
boo k
al ysis</w>
umbl r</w>
mach ine</w>
v ous</w>
S on
Re tweet</w>
J am
con tract</w>
Ch ange</w>
ach es</w>
Follo w
tt on</w>
brea d</w>
wn s</w>
it y
F ra
th rowing</w>
brea th</w>
in come</w>
exc lu
z en</w>
ick y</w>
mom s</w>
TO DAY</w>
inn y</w>
Mon t
as k
ch em
: hu
D ou
br illiant</w>
kil ls</w>
p o</w>
cha in</w>
:gre en_heart:</w>
ii ii
Bo ys</w>
ad mini
Sl ee
l ers</w>
en ly</w>
en der</w>
enter ed</w>
comm unic
gi vea
hea ven</w>
wa ve</w>
MA KE</w>
har ry</w>
plan ned</w>
mask :</w>
:face_with_ medical_
:face_with_medical_ mask:</w>
B Y</w>
wa v
co ck</w>
st -
ri mac
shi ft</w>
enc ou
surv eys</w>
:g rimac
:grimac ing_face:</w>
tex ts</w>
spec ially</w>
mat es</w>
eff ect</w>
se es</w>
EA R</w>
imp act</w>
i k</w>
to p
right :</w>
Du de</w>
B REA
t ol
au di
sig nific
ro m
hang ing</w>
ff er</w>
M ee
D an
. com</w>
ma d
Tr ans
pr o</w>
des pite</w>
plan et</w>
jour ney</w>
en viron
: down
Tr an
un ion</w>
Cana dian</w>
tt ers</w>
id er</w>
mista kes</w>
sn ea
S ON</w>
pul led</w>
Se x</w>
w ell
bo wl</w>
G IR
grow th</w>
crit ic
ma ster</w>
m ic</w>
J im
OF F</w>
ath le
stu dio</w>
mo dern</w>
h u</w>
K evin</w>
Happ y
free dom</w>
pi eces</w>
clo ck</w>
multi ple</w>
A MA
co z</w>
To wn</w>
Bo x</w>
rem ind</w>
Cha ll
U r
cre w</w>
f g</w>
W oo
tea m
p al</w>
Fav or
m ut
tal kin</w>
F estival</w>
Blo g</w>
s ma
light ly</w>
E duc
be comes</w>
lea f
mar riage</w>
sh a</w>
brea ks</w>
T am
viol ence</w>
8 8
th rew</w>
intel lig
bea ts</w>
p ha
elec tr
th ing
tat too</w>
le e</w>
o therwise</w>
Hea d
#MTV Hottest</w>
tech nology</w>
Al though</w>
is s
dol lars</w>
C el
CO ME</w>
attemp t</w>
gener ation</w>
S ale</w>
Perf ect</w>
YO NE</w>
wom an_
5 2</w>
we b</w>
disappo inted</w>
up dates</w>
Cho ice</w>
Ed ition</w>
writ er</w>
La ke</w>
med ic
ani mal</w>
X box</w>
a di
continu es</w>
po s
I reland</w>
absol ute</w>
w ings</w>
oo th</w>
f our
Lo ts</w>
tel ev
#now playing</w>
whit e_
P a</w>
emp ty</w>
F RI
repor ted</w>
TT ER</w>
1 D</w>
R ac
TO O</w>
const antly</w>
Pro ject</w>
REA L</w>
: white_
inst agram</w>
W AY</w>
wn ing_face:</w>
h rs</w>
la ws</w>
sp ar
air port</w>
T e
P R</w>
an ch
B ig
safe ty</w>
DOC UM
de gree</w>
Willi ams</w>
squ ad</w>
C lar
co -
tur al</w>
di v
fing er</w>
attrac tive</w>
Un ion</w>
Dar k</w>
adv ant
immedi ately</w>
u fac
_ mouth:</w>
di strict</w>
G am
h itting</w>
heal th
k u
F em
se tting</w>
ri ver</w>
- up</w>
Niger ia</w>
assho le</w>
A Y
3 9
ma gic</w>
sk i</w>
hi o</w>
A sk</w>
om ing</w>
ve hic
OO L</w>
arti sts</w>
decis ions</w>
Pr ince</w>
C ard</w>
sh out</w>
st ant</w>
re fl
p it
w ha
re main</w>
Bo dy</w>
r um
R un</w>
e ma
b ear</w>
Vic tor
po t</w>
6 9</w>
on de</w>
ar eas</w>
increa se</w>
sin s</w>
S anta</w>
ta ined</w>
S B
se um</w>
fa ir
enn is</w>
smo king</w>
re v
am ond</w>
do in</w>
to -
Ep isode</w>
e ers</w>
ay e</w>
DOCUM ENT</w>
a ke</w>
tal ented</w>
F F</w>
inv ite</w>
HAHA HAHA
custom ers</w>
:an gr
;- )</w>
B OO
ad es</w>
wh er
si sters</w>
r ated</w>
K E
trea t
friend ly</w>
spir it</w>
OF .
END .
d or
The m</w>
to il
RI P</w>
p il
END. OF.
es h</w>
END.OF. DOCUMENT</w>
fl ying</w>
6 6</w>
Ma kes</w>
sig ns</w>
iso des</w>
ound ation</w>
Wat er</w>
F IR
as p
iz ing</w>
De f
Eng ine
ad orable</w>
su e</w>
essi ons</w>
Cla ss</w>
gg er</w>
Tr ust</w>
IC K</w>
manag ement</w>
il ities</w>
Ma c</w>
St ri
lea ds</w>
W est
S na
remin ds</w>
y e
MA R
A D</w>
mar ry</w>
tre e:</w>
en s
ey e
Per son
cla ssic</w>
Willi am</w>
thr oughout</w>
cri ed</w>
V P</w>
n ature</w>
dea ls</w>
menti oned</w>
At l
is land</w>
ar i</w>
stud ying</w>
Dra ke</w>
b illion</w>
lap top</w>
haha haha
un te
ON S</w>
3 /
k ni
v ation</w>
do ors</w>
smil ing</w>
re sid
ter ed</w>
la me</w>
cri sis</w>
ther e
#B B
ar rested</w>
ar gu
F ree
g i</w>
P ac
#C or
mo vement</w>
youn ger</w>
6 th</w>
li am
do pe</w>
S OME
l or
back ground</w>
pr ices</w>
gra b</w>
B ar</w>
St eph
n ite</w>
S ign</w>
fea tures</w>
S cho
D ID</w>
gi es</w>
crow d</w>
desig ned</w>
arg ument</w>
8 -
lea dership</w>
5 1</w>
G aga</w>
chall eng
l ec
K ee
pri son</w>
Ro se</w>
bur y</w>
g as
rea ction</w>
O O</w>
Fa shion</w>
de but</w>
hor se</w>
star :</w>
Sam sung</w>
D M
t up</w>
# sho
dang erous</w>
la unch</w>
on t
back up</w>
st eal</w>
BIR TH
Pol it
re ti
t iny</w>
p in
dr inks</w>
B TS</w>
THAN K</w>
. S
Min ister</w>
F AC
lon ely</w>
L ine</w>
Con f
R am
pret end</w>
Ac cording</w>
n ar
H IM</w>
Do g</w>
every time</w>
at i</w>
V A</w>
b ear
li pp
b ay</w>
dou ble
pr ene
K y
A F
pr int</w>
5 SO
g lobal</w>
orig in
is nt</w>
a do</w>
pu blic
some how</w>
NE WS</w>
o m</w>
cha ir</w>
grand ma</w>
t an
Ac t</w>
Spr ing</w>
var ious</w>
sol o</w>
hear ts</w>
11 :
lic ious</w>
gun s</w>
not es</w>
E a
p ure</w>
Th ought</w>
al ism</w>
= )</w>
En ter
claim s</w>
AN D
el le</w>
EE EE
Hou ston</w>
E d</w>
religi on</w>
lo g</w>
s witch</w>
fun d</w>
Bo wl</w>
Mic h
rol ling</w>
our ces</w>
Mus lim</w>
Ital ian</w>
arri ved</w>
g ery</w>
Ro yal</w>
f its</w>
C ry
li brary</w>
h ill</w>
Net work</w>
: heavy_
I rish</w>
ho ld
per sever
k er
requ est</w>
G lobal</w>
A ustin</w>
fore ign</w>
resp ond</w>
cam pus</w>
ins ane</w>
Fut ure</w>
ould nt</w>
s wa
cra sh</w>
8 5</w>
bo tt
is s</w>
S EL
oun ce</w>
c ement</w>
S ucc
U E</w>
_ mo
abu se</w>
Coun try</w>
200 4</w>
rac y</w>
Fu n</w>
st reets</w>
4 7
ther es</w>
S at
hon ey</w>
Com ing</w>
De fin
Dri ve</w>
re ports</w>
sh irts</w>
lim it</w>
b ble</w>
screa ming</w>
loo kin</w>
S pain</w>
and om
ach ed</w>
per form</w>
y l</w>
in sight</w>
n ings</w>
fea ture</w>
ho o</w>
sp ell</w>
go s</w>
Ho li
mat ure</w>
if y</w>
201 0</w>
th read</w>
H IS</w>
s .
ru in</w>
ud i</w>
t d</w>
af ford</w>
ust ed</w>
inspir ed</w>
ar i
wea l
k u</w>
us ers</w>
fin na</w>
s giving</w>
u se
ti p</w>
dig ital</w>
pre -
W tf</w>
uni que</w>
THE M</w>
bor der</w>
K i
I ran</w>
vac ation</w>
4 00</w>
M eet</w>
at ory</w>
P ack</w>
ep isodes</w>
des per
n ur
Sm all</w>
for ces</w>
in si
cont est</w>
con sum
# Vo
Austr alian</w>
Wa iting</w>
ner vous</w>
us s</w>
Cha mp
me an
consi dering</w>
ch ief</w>
previ ous</w>
p ag
A ca
S la
or ities</w>
Angel es</w>
p unch</w>
de t
P ls</w>
fl at</w>
S HA
pat h</w>
pas s
Sec urity</w>
pa thetic</w>
mon d</w>
fa ster</w>
Sen ate</w>
A C</w>
u l</w>
hon or</w>
Inv est
P as
sh y</w>
s ac
ch y</w>
ch in</w>
S ounds</w>
the me</w>
com par
r oute</w>
ex erc
relation ships</w>
m all</w>
Cra zy</w>
Mi x</w>
fun ni
fil ms</w>
sil ly</w>
N N
t ing_heart:</w>
:bea ting_heart:</w>
a id</w>
sy n
own ed</w>
ma ga
B IG</w>
S C</w>
obs essed</w>
ach ing</w>
ster ed</w>
R an
# 8
en _
hat es</w>
as sum
de m</w>
M L
Sk y
tar get</w>
# 1
:kis s
BIRTH DAY</w>
Publi c</w>
P ink</w>
CN N</w>
light ly_
:s lightly_
C ant</w>
dea d
sat is
su gar</w>
st al</w>
end a</w>
ac ted</w>
b and
A ward</w>
ba i</w>
im prove</w>
AT ION</w>
obvi ous</w>
bb ing</w>
Y a
Ad am</w>
ba sic</w>
loc k
givea way</w>
S av
gu ide</w>
Br ing</w>
p ter</w>
I V</w>
le y
ha sh
dra wing</w>
# j
lon g
fi el
c um
bat h</w>
im pro
ch est</w>
person ally</w>
J im</w>
Dea th</w>
as sa
bl ind</w>
Ab sol
Hol lywood</w>
is co</w>
b ands</w>
a j</w>
f b</w>
B ang
tran sl
K ED</w>
answ ers</w>
e er
manag ed</w>
D am
Or der</w>
les son</w>
mo de</w>
pre pared</w>
ee ding</w>
Sh er
happ iest</w>
D ep
pl ant</w>
de my</w>
Lat est</w>
b our
la bor
hi bit
st on
j o</w>
F all</w>
fal ls</w>
sci enti
spec ies</w>
C EO</w>
Y ea</w>
trea ted</w>
rep eat</w>
al tern
E P
T RA
id enti
app le</w>
# Happy
gre es</w>
For ce</w>
7 2</w>
Val ley</w>
5 6</w>
s ers</w>
year -
ca kes</w>
ev a</w>
un a</w>
re mo
guil ty</w>
acc ident</w>
Tun es</w>
fin ancial</w>
est yle</w>
Fa ther</w>
tim eline</w>
No t
Secre t</w>
# New
check _mark:</w>
D ata</w>
P op
F L
ort ers</w>
produc ed</w>
O hio</w>
ho c
7 th</w>
Char les</w>
cr ack</w>
lev els</w>
st ayed</w>
anc ing</w>
christ mas</w>
under standing</w>
sudd enly</w>
b ang
Gen er
ta x
pl ate</w>
ca used</w>
m c
d are</w>
tiv ity</w>
YO U
Coun cil</w>
el e</w>
tea ching</w>
T ony</w>
W AN
good night</w>
L an
K elly</w>
b ell</w>
d am</w>
perf ec
ty pes</w>
e o</w>
col li
mir ror</w>
K er
sa ving</w>
vern or</w>
th es
D allas</w>
t l</w>
oc racy</w>
R T
F M</w>
LM FA
in surance</w>
lar gest</w>
dol lar</w>
ph y</w>
( ;</w>
o -
Sy stem</w>
s now
high ly</w>
Po wer
con serv
# go
Cam era</w>
sle pt</w>
gu ard</w>
S outh
exc ellent</w>
Fr ank
confir med</w>
c andy</w>
: persever
:persever ing_face:</w>
A z
ght ers</w>
5 3</w>
p ons</w>
Con tro
G ro
R est
bo at</w>
best friend</w>
Chi ef</w>
th day
av i</w>
Asi an</w>
sh orts</w>
S ig
un follow</w>
ident ally</w>
v es
D rea
5 4</w>
LO V
ous es</w>
regi on</w>
sem ester</w>
Gu y</w>
so lid</w>
Bo b</w>
W OULD</w>
continu ed</w>
h anna</w>
W E
acc ur
ee ee</w>
O per
f low</w>
recomm end</w>
m illions</w>
ho mie</w>
or ders</w>
IT Y</w>
9 8</w>
is a</w>
S ter
I ll</w>
C I
k y
sig ning</w>
f ellow</w>
Sho p</w>
Wor k
ex pl
pl enty</w>
B an
pres ents</w>
deli ver
spec ific</w>
WA YS</w>
n ea
j i
pas sing</w>
gr ace</w>
:raised _
itt ee</w>
do g
Chil dren</w>
Ha ir</w>
PE O
Sci ence</w>
With out</w>
sh el
G un
se l</w>
#S u
Ma x</w>
D ER</w>
plat form</w>
stand ard</w>
own er</w>
C D
pro gress</w>
EE P</w>
La dies</w>
m ps</w>
gra phic</w>
si an</w>
T im</w>
ha w
kno ck</w>
St ea
E specially</w>
Arti st</w>
no pe</w>
Swee t</w>
Wor king</w>
de f</w>
BIT CH</w>
boo bs</w>
do e</w>
coun ting</w>
ST ILL</w>
ust om
F A</w>
Im ma</w>
Republi can</w>
_ _
lo s</w>
Al most</w>
smil es</w>
P N</w>
squ are</w>
#COVID 19</w>
ic ing</w>
dra ft</w>
alco hol</w>
ha ll</w>
fir ed</w>
I r
For d</w>
id den</w>
direc tly</w>
la y
B y
GA IN</w>
wal ks</w>
N ame</w>
8 8</w>
hy po
Micro soft</w>
m ings</w>
ne ither</w>
thro at</w>
app ears</w>
pre me</w>
par king</w>
em a</w>
6 2</w>
certain ly</w>
gg ing_face:</w>
:hu gging_face:</w>
recor ded</w>
t ary</w>
WOR LD</w>
d le
ch eer</w>
Th inking</w>
Tor onto</w>
tr ending</w>
fav or</w>
or ange</w>
dist ance</w>
S ad</w>
7 7</w>
loo se</w>
ac o
c ab
Fe eling</w>
:s now
T E
FOLLO W
sit ive</w>
soc ial
as sume</w>
vic tory</w>
y outube</w>
phys ical</w>
ea ts</w>
c loud</w>
sleep y</w>
le d
r are</w>
T S
D ance</w>
ra pe</w>
aa a
b bed</w>
Sp ace</w>
pi ps</w>
5 7</w>
Swi ft</w>
C ome
pre ssing</w>
:raised_ fist:</w>
Favor ite</w>
N ick</w>
treat ment</w>
an ge
high est</w>
cle an
V ia</w>
DV D</w>
ha vent</w>
i -
Bre xit</w>
sing er</w>
ing ham</w>
sha pe</w>
fi xed</w>
m r</w>
di et</w>
beg ins</w>
c c</w>
C o</w>
a ha</w>
in deed</w>
ver t</w>
c les</w>
Ori g
li ms</w>
good bye</w>
b b</w>
Un der</w>
coo king</w>
s even</w>
ser ving</w>
y ea
Gr an
Some body</w>
pa int</w>
struc ture</w>
h n</w>
Y ep</w>
plea sure</w>
ra ft</w>
out fit</w>
int e
any e</w>
L O</w>
Z ING</w>
descri be</w>
Awar ds
fin ds</w>
T C</w>
appro pri
ge t
ca p</w>
# Ma
C am</w>
pre sid
pur chase</w>
:fro wning_face:</w>
: di
y outh</w>
e o
hur ry</w>
str ange</w>
Fuc king</w>
qu otes</w>
Gu ide</w>
b ags</w>
who ever</w>
L ow</w>
8 th</w>
Lo st</w>
gre w</w>
#o omf</w>
um ber</w>
individ ual</w>
ex act</w>
at h</w>
IT 'S</w>
k es
No v</w>
ick ets</w>
danc ing:</w>
econom ic</w>
# l
de termin
att acks</w>
hal f
b ang</w>
M I</w>
guit ar</w>
com pared</w>
person ality</w>
#W e
crea tive</w>
m eat</w>
H it</w>
mi x
j ustin</w>
sub ject</w>
re vol
pp le</w>
requ ired</w>
# Re
Gi ft</w>
J an</w>
B and</w>
ri s
f are</w>
M et
/ 7</w>
A K
B ol
ar gue</w>
Tr ump
B eat</w>
B un
hea ded</w>
st an</w>
camer a:</w>
Ho tel</w>
F ace</w>
stron ger</w>
1 50</w>
T est</w>
ly n</w>
N G</w>
and ora</w>
6 3</w>
butt on:</w>
sur r
compla ining</w>
re ment</w>
5 00
ill in</w>
f a</w>
D J
6 7</w>
3 D</w>
sp r
cho se</w>
ing e</w>
di str
PEO PLE</w>
Comm unity</w>
d in</w>
d ney</w>
gg y</w>
char ged</w>
E ag
S hoo
fuc ks</w>
and ro
dr ed</w>
sto m</w>
advant age</w>
sm ent</w>
dem and</w>
9 -
Col um
s ear
ch or
OOOO OOOO
Liter ally</w>
k icked</w>
sel fie</w>
C HA
ch ances</w>
friend ship</w>
f ic</w>
pro jects</w>
tra iler</w>
ballo on:</w>
resta urant</w>
p in</w>
Won der</w>
sol di
v l</w>
n ick
proper ty</w>
b last</w>
ti me
was nt</w>
t ual</w>
fail ure</w>
and ed</w>
A ss</w>
p ts</w>
pre par
List ening</w>
con duc
w ishes</w>
conc ept</w>
consi st
Mich igan</w>
u me</w>
Brit ain</w>
s ev
hum ans</w>
hy pe</w>
A la
yel low</w>
ab or
ec tor</w>
T AL
inv ited</w>
ea ted</w>
t all</w>
presen ted</w>
Ser vices</w>
de grees</w>
O k
me tho
re turned</w>
us er</w>
pati ent</w>
m pics</w>
fal se</w>
p are</w>
cent ral</w>
bu ms</w>
Ric hard</w>
re moved</w>
la ying</w>
10 :
fa ve</w>
e ight</w>
F our</w>
t wit
_face_with_ sweat:</w>
cast _face_with_sweat:</w>
:down cast_face_with_sweat:</w>
le :</w>
2 ,
boo ty</w>
discus s</w>
eng ine
sea ts</w>
wh is
App arently</w>
5 9</w>
St at
inno cent</w>
M as
benef its</w>
thous and</w>
C AR
pan ic</w>
ri ding</w>
S W</w>
ome ter</w>
op tions</w>
St ore</w>
ea way</w>
ther ap
#Vo te
9 2</w>
we ir
aa a</w>
ans as</w>
P D
G alaxy</w>
pa in
mar t
D ress</w>
Po int</w>
r ough</w>
J ay</w>
cle aning</w>
uni verse</w>
strea ming</w>
C T</w>
wat er
dama ge</w>
v oc
h m</w>
ha ting</w>
ther ed</w>
h ire</w>
U L
shar ed</w>
Jer sey</w>
ma ss</w>
key s</w>
vi li
m f</w>
# my
cut est</w>
T op
laugh ed</w>
hoc key</w>
0. 00</w>
9 6</w>
g f</w>
anc er</w>
b its</w>
B I
ad verti
ed er
por ary</w>
Di strict</w>
i ght
telev ision</w>
h r</w>
:angr y_face:</w>
B ER</w>
Hen ry</w>
Fil m</w>
En ter</w>
plac ement</w>
5 8</w>
m s
pri de</w>
201 1</w>
list ened</w>
conf idence</w>
Sing le</w>
sho wn</w>
red uc
si gh</w>
ag e:</w>
it t</w>
F ound</w>
di o
#A sk
toil et</w>
wel ry</w>
b all:</w>
h mm</w>
ex ha
cu ts</w>
refu se</w>
J ason</w>
ti sh</w>
AN S</w>
i OS</w>
leg end</w>
#sho p
# Mo
Cla ssic</w>
P ay
G I
du des</w>
cor por
L am
ani me</w>
F ive</w>
gar den</w>
sur es</w>
ignor ant</w>
9 7</w>
min i</w>
Scot land</w>
: :</w>
b acks</w>
S ure</w>
S UP
oun ded
g ang</w>
y ay</w>
gen der</w>
Lea ve</w>
p ted</w>
fla g</w>
ys m</w>
inclu des</w>
H E
la ke</w>
conn ect</w>
la b</w>
ju ice</w>
reali se</w>
Air port</w>
coun t
' RE</w>
U r</w>
S em
oc ca
re sc
bur gh</w>
citiz ens</w>
fru str
Gu ar
ad dition</w>
9 /
Vir gin
12 :
remember ed</w>
#M y
enti ons</w>
quest ion
M TV</w>
ar ly</w>
z u
prof it</w>
je ans</w>
ac c</w>
T T</w>
sel y</w>
o k
W estern</w>
st ery</w>
Nick i</w>
z ero</w>
E P</w>
sh mark</w>
direc tor</w>
ing s
br on</w>
tr end</w>
say in</w>
g olf</w>
the ory</w>
gra ph</w>
tri al</w>
hea ding</w>
E asy</w>
ha lo
200 3</w>
ft :</w>
_ arrow:</w>
att oo
Dani el</w>
W N
C ANT</w>
in ch</w>
li ft</w>
W ayne</w>
E con
ath on</w>
v o</w>
EV EN</w>
T U
M US
fun ding</w>
#P ush
G al
conf ounded
Republi cans</w>
em an</w>
: confounded
:confounded _face:</w>
ou ght
Carol ina</w>
Oly mp
7 6</w>
Tra vel</w>
b age</w>
ir a</w>
M IS
en ting</w>
bud get</w>
congr ats</w>
on er</w>
W ent</w>
Win ter</w>
c ities</w>
t esting</w>
.S .</w>
N u
In du
candi date</w>
mid night</w>
Po shmark</w>
i dol</w>
dele ted</w>
_b all:</w>
Br and</w>
A ssi
Le ft</w>
sol ve</w>
th reat</w>
concer ned</w>
destro y</w>
conn ection</w>
man age</w>
: ro
AL WAYS</w>
cor n</w>
o p</w>
l ane</w>
IL Y</w>
for give</w>
s lightly</w>
ma p</w>
: woman_
:woman_ dancing:</w>
W is
Rem ix</w>
I l
hu n</w>
survi ve</w>
bloo dy</w>
F G</w>
year- old</w>
Sen ior</w>
EC T</w>
m u</w>
out out</w>
co vers</w>
foo t
cy cle</w>
oppo site</w>
ac le</w>
Mad rid</w>
G REA
k ins</w>
aw ards</w>
dis covered</w>
motiv ation</w>
z zy</w>
develo ped</w>
J un
D e</w>
w ra
th -
Just ice</w>
kem on</w>
ll a</w>
ant i</w>
eng lish</w>
# in
St yle</w>
6 1</w>
quar ter</w>
B LO
estab lished</w>
A th
m atic</w>
har dest</w>
w rest
em mings</w>
p rom</w>
D one</w>
fea tured</w>
deli very</w>
l un
u re
emo tions</w>
con struction</w>
Atl anta</w>
G S</w>
C ustom
sec ure</w>
Christ ma
bl onde</w>
I ce</w>
x i
L mfao</w>
Chall enge</w>
Li st</w>
cancel led</w>
ick er</w>
W AR
el ev
re place</w>
a partment</w>
ro om
partic ular</w>
AN Y
tr acks</w>
b in
car eful</w>
v s
conv inc
p lo
with out
Y et</w>
S ER
Sp ir
6 8</w>
F I
Res earch</w>
crea ting</w>
4 /
u g</w>
T X</w>
shoul der</w>
t le</w>
hh hh
appo int
S ab
Direc tor</w>
Win dows</w>
Ta king</w>
rec ru
B all</w>
ear n</w>
R un
un cle</w>
dit ion
O P
:thumbs_ down:</w>
Orig inal</w>
K it</w>
B T</w>
Fr ank</w>
Br o</w>
mater ial</w>
b at</w>
tr ick</w>
T han</w>
bea ting</w>
att end</w>
EA N</w>
b ite</w>
dec or
anno yed</w>
off ered</w>
lu v</w>
mom ma</w>
go vt</w>
our selves</w>
inj ury</w>
3 60</w>
to pic</w>
D an</w>
sea sons</w>
GO ING</w>
O '
m ile</w>
qu e
chec king</w>
v ey</w>
T ig
Hal f</w>
P ut
WO W</w>
R D</w>
who m</w>
j ack</w>
k it</w>
Manag ement</w>
stri ke</w>
il y
aw a</w>
en sion</w>
D or
j am</w>
E mer
gu est</w>
cast le</w>
mi xed</w>
M aga
ru ined</w>
r r</w>
A G
li king</w>
nu ts</w>
HO T</w>
S end</w>
it ty</w>
CA USE</w>
7 8</w>
up coming</w>
Educ ation</w>
Ha w
coo kies</w>
for d
pra yers</w>
oooo oo</w>
AT S</w>
L ink</w>
up dated</w>
9 1</w>
vol unte
my closet</w>
sy stems</w>
ene my</w>
US T
See ms</w>
#shop mycloset</w>
ch o</w>
st oc
double _
0 1
O s
some time</w>
KKKKKKKK KKKKKKKK
: double_
anx iety</w>
can c
S wed
loy al</w>
FU L</w>
auth or</w>
pe e</w>
bad ly</w>
Or gan
ec ast</w>
Ca tho
tech n
m ans</w>
ul es</w>
guar ant
st ics</w>
o z</w>
cap ital</w>
Co de</w>
sk y
de licious</w>
:double_ exclamation_mark:</w>
#vo te
ud es</w>
thous ands</w>
R ay</w>
E aster</w>
it ems</w>
E gy
creep y</w>
11 .
Bo ard</w>
sur gery</w>
ar m
clu e</w>
Mar i
N ur
d as</w>
12 .
B out</w>
cover ing</w>
ef s</w>
_ button:</w>
el led</w>
v irus</w>
it ment</w>
:smiling_face_with_ halo
:smiling_face_with_halo :</w>
con clu
King dom</w>
Roo m</w>
Com ple
f all
N AS
# Co
GU YS</w>
C C
el i</w>
religi ous</w>
S mo
G or
rec k
s or</w>
Ex actly</w>
gi ant</w>
Fa ir</w>
si e</w>
S H</w>
pi e</w>
ton gue</w>
col ors</w>
c lou
Cha mpionship</w>
benef it</w>
Sy ria</w>
cou ch</w>
proper ly</w>
L or
P lat
p itch</w>
AMA ZING</w>
th reat
tour nament</w>
w is</w>
Phi lipp
Tur n</w>
De partment</w>
Rec or
Geor gia</w>
c ell</w>
G H
il ysm</w>
flow ers</w>
S af
HA TE</w>
f as
N ING</w>
l ls</w>
:backhand_index_pointing_ right:</w>
ID E</w>
y ah</w>
5SO S</w>
bu ll</w>
A k
lo ver</w>
#Push Awards
z i
lo lol</w>
ta xes</w>
no vel</w>
m un
G H</w>
exp ecting</w>
: wav
I ra
mar ks</w>
agre ed</w>
D est
8 9</w>
R ound</w>
f ted</w>
fru it</w>
po dcast</w>
w estern</w>
A F</w>
d om
# game
10 1</w>
d in
n it
gre ssive</w>
I II</w>
EVER YONE</w>
ic on</w>
supp orters</w>
D ream</w>
t ful</w>
c y</w>
present ation</w>
UR E</w>
7 1</w>
M ach
:slightly_ smiling_face:</w>
Con ference</w>
es ia</w>
S leep</w>
mic ro
ff le</w>
W ere</w>
appro ach</w>
#F ollo
m b</w>
in dependent</w>
Ch ee
end ers</w>
rr rr
Li ving</w>
Mag ic</w>
menti ons</w>
Virgin ia</w>
bo ar
b on</w>
Gol den</w>
scre en
U .S.</w>
OU S</w>
cu m</w>
al o</w>
k k</w>
per haps</w>
LO T</w>
C ul
pic king</w>
princ ess</w>
K ha
C ab
Ar ch
9 3</w>
AN G
O re
F ea
A l</w>
Lea ther</w>
Sar ah</w>
scen es</w>
su g
ed ition</w>
9 4</w>
elec tions</w>
crimin al</w>
cu rious</w>
any time</w>
sk i
brea the</w>
p ages</w>
Pea ce</w>
app s</w>
ti fy</w>
For ever</w>
m me</w>
c entre</w>
Con n
ol d
in ely</w>
si x
ag :</w>
um in
psy cho
bi o
hun dred</w>
im pl
In to</w>
influ ence</w>
BO DY</w>
f at
6 0
Al bum</w>
O li
z y
no where</w>
perfec tly</w>
O pp
ev ol
appear ance</w>
200 1</w>
Fe b</w>
il ers</w>
F BI</w>
An drew</w>
sc ream</w>
Ch ang
un i</w>
7 3</w>
bir ds</w>
Wat er
min ds</w>
sc ale</w>
d aw
e se</w>
Re uters</w>
v ag
A li
fac tor</w>
ll ll
TH ERE</w>
p s
ech an
sa ke</w>
Col or
M illion</w>
S mart</w>
ma x</w>
maga zine</w>
R id
F ro
liam ent</w>
sm an</w>
on ing</w>
ed :</w>
go sh</w>
qu est</w>
gu es</w>
:wav ing_hand:</w>
man ufac
ra p
:di zz
mm mm</w>
at ically</w>
Bit ches</w>
Sa w</w>
Un til</w>
al arm</w>
ep ic</w>
list ed</w>
Gr and
perform ing</w>
ic h
Pl an</w>
C ir
t ation</w>
s no
Do ing</w>
M C</w>
Rea ding</w>
g oogle</w>
recor ding</w>
Fa st</w>
foo tb
ou l</w>
Sc re
Nav y</w>
Ear ly</w>
U M</w>
m id</w>
D y
PL S</w>
signific ant</w>
ur o</w>
W o</w>
r out
t umblr</w>
m essed</w>
NO :</w>
:person_gesturing_ NO:</w>
cro ss
gradu ate</w>
Ber nie</w>
ti s
pas sion</w>
sad _
acc identally</w>
Victor ia</w>
8 0
sli de</w>
les bian</w>
7 9</w>
trans fer</w>
l ear</w>
but _
# News</w>
o w
ex ams</w>
sad_ but_
: sad_but_
reli eved_face:</w>
:sad_but_ relieved_face:</w>
sh er</w>
our ce</w>
S ED</w>
or n</w>
al i</w>
#MTV Stars</w>
J P</w>
dro ps</w>
hur ting</w>
Asi a</w>
produc tive</w>
a z</w>
po ss
200 2</w>
l ang</w>
sil ver</w>
Med ical</w>
le f
O L</w>
R emo
c unt</w>
Ca st
H il
D AM
ha h
a ud
Ho t
gi fts</w>
dis ease</w>
L vl</w>
f ed</w>
- time</w>
re move</w>
bo x
t emp
Th ea
follow er</w>
C re
F an</w>
HAHA HA</w>
Nor th
v or</w>
con t</w>
eye bro
inj ured</w>
v is</w>
R ap
ff y</w>
f antasy</w>
il st</w>
co sts</w>
A A</w>
Hum an</w>
P et
Absol utely</w>
_b ag:</w>
for ts</w>
L ING</w>
id c</w>
ri er</w>
Wed ding</w>
cu tting</w>
bul ous</w>
ho pes</w>
l ds</w>
an niversary</w>
S w
Defin itely</w>
D on</w>
g on
W an
it ors</w>
:money _bag:</w>
E l</w>
pri se</w>
inte gr
AS AP</w>
embarra ssing</w>
h ouses</w>
T D</w>
l i</w>
N ope</w>
accep ted</w>
sp ort
What ever</w>
ee m</w>
AL E</w>
ac ity</w>
in der</w>
dro pping</w>
victi ms</w>
A ga
pri mary</w>
Oc t</w>
U FC</w>
De c</w>
d j
H L</w>
F EE
sk inny</w>
S imp
co ck
R en
H ay
P HO
conn ected</w>
C S</w>
sof tware</w>
o omf</w>
organ ization</w>
For mer</w>
pro bs</w>
an aly
bal ance</w>
ING S</w>
H I</w>
Z ayn</w>
Tra ining</w>
Dem i</w>
Ri hanna</w>
ir y</w>
au to
u x</w>
ad vis
compe tit
rea c
Mid dle</w>
D ems</w>
sto le</w>
Jo sh</w>
cover age</w>
audi ence</w>
l it
O il</w>
# AL
tiv ely</w>
i fied</w>
f estival</w>
Mex ican</w>
holi days</w>
L in
co p</w>
C red
f w</w>
comp lic
Oly mpics</w>
Vi ew</w>
B B</w>
promo te</w>
L U
uc lear</w>
sent ence</w>
po cket</w>
opin ions</w>
ann ual</w>
jo ining</w>
Star ting</w>
v ention</w>
A R</w>
rela x</w>
es say</w>
S car
yy yy</w>
Cur r
clim ate</w>
L ma
:- (</w>
con ven
per cent</w>
st ab
offic ials</w>
fun c
Or ange</w>
G ON
G rea
E E</w>
mus ical</w>
Po p</w>
funni est</w>
Maga zine</w>
discus sion</w>
dep ends</w>
7 4</w>
Bar ometer</w>
k en
spec tive</w>
Cam er
b ag
rema ins</w>
8 4</w>
as ha
cre di
8 6</w>
stor es</w>
Exc ited</w>
En ergy</w>
S ean</w>
wor e</w>
ha ted</w>
crit ical</w>
D R
Ad d</w>
8 7</w>
Da ve</w>
ch et</w>
z e
Valent ine</w>
E M</w>
spo ke</w>
a b</w>
H eat</w>
Y ay</w>
SH I
apologi ze</w>
5 /
t ally</w>
hat ers</w>
th ony</w>
Lab our</w>
# 9
t its</w>
ec raft</w>
p en</w>
lo be
s wit
S ony</w>
# r
RO W</w>
T ON
ri an</w>
sla p</w>
Franc isco</w>
ro oms</w>
oc cup
frea k</w>
V en
# Sh
Ma ster</w>
ex press</w>
Sex y</w>
# v
ro se</w>
- F
t ests</w>
I ll
Star bucks</w>
ec tions</w>
Beli eve</w>
um ents</w>
ri p</w>
al ists</w>
boo ts</w>
enc ies</w>
ri ots</w>
t end</w>
# re
K anye</w>
r ush</w>
en ger</w>
en try</w>
A GAIN</w>
an -
emer gency</w>
iv eaway</w>
# Job</w>
Lo t</w>
be e</w>
promis ed</w>
a o</w>
P L</w>
co ast</w>
Bri an</w>
L D
C OR
So on</w>
Co ach</w>
wor ker</w>
kl ace</w>
k ings</w>
d ale</w>
St and
dri vers</w>
Ju li
wor thy</w>
Con cer
un ts</w>
cop s</w>
J r</w>
R ing</w>
om fg</w>
D ru
kk kk
t ear</w>
S hel
i z</w>
b id</w>
come dy</w>
pas ses</w>
prec ious</w>
ter n</w>
g ross</w>
op ens</w>
M Y
r ice</w>
car ing</w>
bab y
recor ds</w>
ss a</w>
offic er</w>
vo ters</w>
b ts</w>
S ky</w>
ti er</w>
rea ds</w>
Maj or</w>
L ind
er s
appreci ated</w>
rac ism</w>
# Mar
def end</w>
m are</w>
Sh ort</w>
vil e
cudd le</w>
Ari ana</w>
A U
dem ocr
:face_with_ tongue:</w>
fli p</w>
Brea king</w>
Wor d</w>
regar ding</w>
V il
Pri me</w>
pe tition</w>
no ise</w>
mon y</w>
s om
me tal</w>
g all
n ut</w>
stre ssed</w>
ri ors</w>
Y all</w>
W all
Ba g</w>
E s
li qu
mat ches</w>
be sides</w>
e gg</w>
Fri end</w>
REA M</w>
#G et
su b</w>
M en
m ally</w>
8 2</w>
VO TE</w>
T US</w>
C at</w>
T ab
victi m</w>
a i
E ric</w>
ann er</w>
shar es</w>
T ha
stri bu
sug gest</w>
l ation</w>
fun ction</w>
H old</w>
t ool</w>
tra ding</w>
su icide</w>
a hh</w>
pur cha
M s</w>
s u</w>
Br on
K ey</w>
# 5
kne e</w>
Heal th
th ick</w>
B ak
b al</w>
bat tery</w>
S at</w>
B ay
D IS
Tru th</w>
ack er</w>
re placed</w>
na il</w>
#B est
fre qu
investig ation</w>
Sa id</w>
s ss</w>
N atural</w>
8 1</w>
T IC
y ep</w>
HH HH
# ma
8 3</w>
St y
Par t
employ ees</w>
W ays</w>
Loc al</w>
fig ured</w>
K end
Jo se
P I
gra des</w>
ate g
s ound
gr and</w>
soc ks</w>
M C
strate gy</w>
We b</w>
rea son
F ol
Republi c</w>
v ity</w>
Tech nology</w>
r us</w>
pra ying</w>
su rely</w>
sil ence</w>
a while</w>
Inst ead</w>
h iding</w>
activ ity</w>
claim ed</w>
play offs</w>
# Ch
con ditions</w>
jack et</w>
mod els</w>
H ind
eff ective</w>
dev il</w>
hom es</w>
Aca demy</w>
activ ities</w>
col our</w>
a se</w>
Photo set</w>
busin esses</w>
pu shing</w>
R unning</w>
the y
E ach</w>
ch eat</w>
M rs</w>
st ops</w>
An i
K han</w>
Res p
B ell</w>
H mm</w>
Tal king</w>
remin der</w>
W IN</w>
gre ssi
star ing</w>
C offee</w>
li ar</w>
coun ty</w>
foc used</w>
rea ching</w>
ang le</w>
bl essing</w>
pres ence</w>
appropri ate</w>
a e</w>
T une</w>
la id</w>
M S
C le
b ills</w>
cho ices</w>
F IF
No te</w>
um a</w>
Av ailable</w>
B is
es cape</w>
C li
come back</w>
Wal king</w>
J on
p ly</w>
GREA T</w>
See ing</w>
ma ker</w>
be th</w>
VER Y</w>
mo ther
and on</w>
Co ast</w>
K ir
W ood
An dy</w>
sun day</w>
exp ect
xx xx</w>
b att
act ors</w>
fan dom</w>
b u</w>
bee f</w>
U sing</w>
v et</w>
24 /7</w>
fir m</w>
li on</w>
Sea ttle</w>
etro it</w>
see k</w>
i Tunes</w>
so le</w>
B ut
deser ved</w>
sk a</w>
sh ee
ti ed</w>
Chil d</w>
# co
Wh e
IT ED</w>
Doc tor</w>
e ggs</w>
tt t</w>
dec lar
L em
u :</w>
:regional_indicator_symbol_letter_ u:</w>
ph ra
I ve</w>
l ing
h y</w>
St ories</w>
f ederal</w>
w ei
destro yed</w>
St one</w>
Tur key</w>
to x
provid ed</w>
shi pping</w>
Brea k
con nec
idi ots</w>
dis play</w>
F ur
UP D
t u</w>
bur ger</w>
t one</w>
pati ents</w>
grea ter</w>
S ea</w>
em br
oun der</w>
DO WN</w>
cat _face:</w>
en g</w>
ri bb
s j
oo ps</w>
F if
B est
tre es</w>
Mo del</w>
Cor por
m oun
f ounded</w>
ra ining</w>
W ol
Th ough</w>
An aly
announ ce</w>
cha mpionship</w>
Co lor</w>
t ack
U sed</w>
lo sop
Follo wers</w>
Je ff</w>
ir rit
Ac tion</w>
uni versity</w>
E vent</w>
l bs</w>
Gre y</w>
b one</w>
Week end</w>
Su preme</w>
et :</w>
Char lie</w>
OF F
A y
an al</w>
h Pa</w>
Wil d</w>
il ling</w>
t attoo
# 7
Aw w</w>
dedic ated</w>
T ak
hand some</w>
c ope</w>
wa sted</w>
W I
s ore</w>
BL ACK</w>
ar on</w>
Ro ss</w>
over all</w>
Brea k</w>
pu ppy</w>
un it</w>
th us</w>
s lo
L es
b ou
er r
um b</w>
and al</w>
Thr ough</w>
encou ra
GON NA</w>
environ ment</w>
l mfa
lin ks</w>
N IG
it ute</w>
hu gs</w>
qu o
bur ning</w>
St and</w>
k iller</w>
Bi ble</w>
P ay</w>
du ty</w>
d an</w>
W R
ha r</w>
Steph en</w>
re turns</w>
um ps</w>
ad ding</w>
sh or
il lu
chi ps</w>
wor ries</w>
B ad
HEL P</w>
separ ate</w>
g al</w>
od d</w>
Mic hel
b ic</w>
accep table</w>
b ling</w>
2 1st</w>
Mus lims</w>
ba st
Mor gan</w>
bar s</w>
F ight</w>
ro c
s_ tree:</w>
Min i</w>
less ons</w>
re ference</w>
de bt</w>
bo dies</w>
t ons</w>
OO O</w>
wn :</w>
Y A</w>
:regional_indicator_symbol_letter_ s:</w>
EVERY THING</w>
F ans</w>
C ut</w>
e k
WH ERE</w>
de pressed</w>
A ge</w>
rais ing</w>
admini stration</w>
liber al</w>
h iring</w>
sp lit</w>
gener ally</w>
re less</w>
S ide</w>
u es</w>
regar dless</w>
scho ol
D D</w>
al bums</w>
:cro wn:</w>
HA S</w>
r ates</w>
D ouble</w>
cat ching</w>
fol k</w>
ea land</w>
p t
R ick</w>
Des ig
conv o</w>
T oo
al -
g ee
exerc ise</w>
F t</w>
WA IT</w>
Soc iety</w>
# for
essi on
coun ter</w>
di stribu
dro plet
y land</w>
f ancy</w>
L ate</w>
fea turing</w>
id en</w>
fun ds</w>
Ph il
S on</w>
Pe op
AC K
mu g
scor es</w>
A H</w>
pack age</w>
M ine</w>
m ol
Di amond</w>
ss ss</w>
br an
spea ks</w>
end ant</w>
Ex peri
in :</w>
da shi
m r
2 50</w>
# MA
wh ilst</w>
Ann oun
B om
produc e</w>
sa uce</w>
M r
der son</w>
pre pare</w>
adv ance</w>
Vo ice</w>
achi eve</w>
Po or</w>
prof essor</w>
t ank</w>
M ad</w>
T rea
S J
po int
T re
pro b</w>
hel p
il ey</w>
lin e
X x</w>
vers al</w>
go ti
W EE
imag es</w>
leaf _
Jim my</w>
N D
S earch</w>
lu ke</w>
Pr oud</w>
accur ate</w>
oc ean</w>
h s</w>
se c</w>
9 th</w>
10 /
sugg est
Isla m</w>
W A</w>
Associ ation</w>
S ad
ES PN</w>
# not
clu bs</w>
c ling</w>
N IGHT</w>
exist ence</w>
I o
lev eland</w>
en ni
Har d
Le wis</w>
P un
M ol
ist ic</w>
colli si
d umb
believ ed</w>
: collisi
C hat</w>
:collisi on:</w>
C O</w>
mm ed</w>
des k</w>
roll er</w>
Holi day</w>
bu tter</w>
il es</w>
pre vent</w>
head ache</w>
origin ally</w>
bas is</w>
rol ls</w>
An thony</w>
C entre</w>
z o</w>
ro ads</w>
H our</w>
20 th</w>
kis ses</w>
c en
P U
S AY</w>
al leg
dun no</w>
Re li
Wor ds</w>
progra ms</w>
four th</w>
D ur
me ga</w>
s is
be g</w>
min im
H H</w>
3 2
X T</w>
on _face:</w>
no tific
Sto ck</w>
Al right</w>
suppor ted</w>
N ar
pro lly</w>
opport unities</w>
sil ent</w>
De li
f lower</w>
N at
bel ong</w>
Rel ease</w>
equ al</w>
re l</w>
dea ling</w>
fu ll
ch eating</w>
Contro l</w>
EVER Y</w>
contro l
w k
Sy dney</w>
lab ama</w>
celebr ating</w>
com fort</w>
Mu eller</w>
B EEN</w>
# team
lo l
ef forts</w>
r ar
b ol
clo sing</w>
pa inting</w>
supp ly</w>
sp am</w>
1 20</w>
Sim ple</w>
f ying</w>
swi mming</w>
K n
sk ip</w>
C AL
sp it
Tra iler</w>
( 8</w>
Sou thern</w>
v ine</w>
char ges</w>
hor ror</w>
autom atically</w>
Con serv
defin ition</w>
war ning</w>
Ex ec
ther ing</w>
p her</w>
P age</w>
Hear t
suffer ing</w>
Mul ti
jer sey</w>
B LE</w>
Di ego</w>
kee per</w>
off ense</w>
G reek</w>
p l</w>
C lear
mon day</w>
ru b</w>
Ty ler</w>
di vision</w>
Mc Donald</w>
Follo wing</w>
M IL
gar bage</w>
M ass
Pl ace</w>
c lic
ac ti
us eless</w>
lu m</w>
char ity</w>
stand ards</w>
Gar den</w>
th ly</w>
polit icians</w>
w ing
Inter esting</w>
Bey once</w>
behavi or</w>
Pre sid
C in
w rec
bl ed</w>
own ers</w>
Put in</w>
pro test</w>
H ome
ri sing</w>
happ ier</w>
C B
ch an
M O</w>
Mon th</w>
ra d
la d</w>
A way</w>
d n
cro ssed</w>
um n</w>
out a</w>
Mat the
A -
Buil ding</w>
c ig
D ES
n na</w>
fem in
bi as</w>
gen ius</w>
ack ers</w>
appo inted</w>
# love
doc tors</w>
Develo pment</w>
for gotten</w>
s ab
bu g</w>
M iller</w>
k :</w>
AB C</w>
blow ing</w>
ul ed</w>
D a</w>
G ets</w>
Di vision</w>
AN Y</w>
:g lobe
cli p</w>
O l
pic ks</w>
: head
:head phone:</w>
ban ned</w>
Prem ier</w>
AT I
ap ore</w>
v an
un ited</w>
child hood</w>
E ither</w>
Pla yer</w>
ag ent</w>
mon ster</w>
ar ent</w>
repor ting</w>
e .
cou ld
R us
off ering</w>
experi enced</w>
In don
dis agree</w>
pri ze</w>
unic ip
BAB Y</w>
C ross</w>
ff ed</w>
x ury</w>
as sign
pri vile
Bro ad
: 15</w>
Mo di</w>
e qui
T hat
IS IS</w>
sm ar
j e</w>
Catho lic</w>
FIR ST</w>
ar ily</w>
D ist
e try</w>
p ick
tex ted</w>
Un less</w>
ee ded</w>
A V
k ra
le tters</w>
pur ple</w>
perform ed</w>
199 9</w>
D etroit</w>
pa pers</w>
K ey
Ro y
pra yer</w>
n es</w>
lo an</w>
H it
Mo on</w>
ne ph
: black
O ne
O VER</w>
Fe els</w>
IN T</w>
ou ting</w>
s ni
good ness</w>
6 00</w>
Qu e
tra ditional</w>
St eel</w>
ic y</w>
ip ment</w>
J unior</w>
G one</w>
a to</w>
pul ling</w>
I O
re quest
load ing</w>
logi c</w>
ag ement</w>
se ttle</w>
] :</w>
B RO
j ected</w>
sol ved</w>
V an</w>
An gel</w>
Gre en
under stood</w>
Char lo
Z E</w>
Mil ey</w>
concer n</w>
REA DY</w>
o on</w>
new sp
Cu z</w>
res ources</w>
eed back</w>
win dows</w>
acc used</w>
IS T</w>
Are a</w>
sm ells</w>
Per ry</w>
l ength</w>
al ized</w>
K id</w>
M un
a im
dis respec
comp are</w>
# just
Ar gent
V ING</w>
Quest ion</w>
r andom
hou sing</w>
mo tion</w>
# ip
di ff</w>
B ush</w>
con dition</w>
Z ealand</w>
SB -</w>
D eep</w>
responsi bility</w>
Ha hahaha</w>
Any thing</w>
genu inely</w>
pea ce
Pr act
bon us</w>
ni all</w>
weal th</w>
# quote</w>
EX C
W IN
GIR L</w>
lo ser</w>
ed it</w>
comple x</w>
de pression</w>
A p
use ful</w>
Coll ection</w>
A I</w>
Sho es</w>
_ of_
: Christma
:Christma s_tree:</w>
Med ic
V ar
sy l
Tr y
f lies</w>
A labama</w>
Dav is</w>
com mer
: bab
Per form
ul arly</w>
desper ate</w>
o v
N ec
Cont in
medic ine</w>
H I
f est</w>
G ab
lan do</w>
dre ds</w>
ir o</w>
M inn
: hot
eff ects</w>
dem ocracy</w>
cha pter</w>
w ouldnt</w>
T ickets</w>
pu r</w>
ci vil</w>
some day</w>
Y E</w>
2. 0</w>
wa it
ES E</w>
Boo ks</w>
introduc ed</w>
on ey</w>
G M</w>
ema ils</w>
Ho p</w>
ta h</w>
l ack
Au g</w>
sho cked</w>
non sense</w>
uc tion</w>
T B
Sh out</w>
-- ></w>
hh hhh</w>
Gla ss</w>
haha hah</w>
po ses</w>
ut ch</w>
C K
depend ence</w>
Rea ch</w>
col labor
h eck</w>
al lows</w>
ma il
Kor ean</w>
Nor thern</w>
New s
z ar
ex change</w>
Br on</w>
oo m</w>
t es
H us
p ounds</w>
wis dom</w>
T our
to ward</w>
n ine</w>
AN CE</w>
F ederal</w>
ben ch</w>
Cap tain</w>
per man
an alysis</w>
Rom ney</w>
sm aller</w>
nu ll</w>
2. 5</w>
M D</w>
don ate</w>
R ising</w>
z om
fam ili
el et</w>
R A</w>
haha hahaha</w>
x ox
z ona</w>
ser ver</w>
Democr atic</w>
John ny</w>
: 45</w>
zz le</w>
par ent</w>
Ho spital</w>
there fore</w>
# im
_ show
allow ing</w>
t to</w>
m and
3 ,
w ood
ann e</w>
_show ing_
:globe _showing_
Ma in</w>
p lot</w>
Phi l</w>
D ER
su ffer</w>
comm itted</w>
spec if
r ant</w>
Lev el</w>
Ha wa
#game insight</w>
#Follo w
Ch er
I AL</w>
Fr ont</w>
appoint ment</w>
cap able</w>
w ee</w>
V S</w>
Clo sed</w>
e in</w>
Y up</w>
it ter</w>
up id</w>
S D</w>
list s</w>
c lin
All en</w>
sh its</w>
photo graphy</w>
inc ol
be er_
O x
Pat rick</w>
n am</w>
ac o</w>
on ym
_mo on_face:</w>
beer_ mug
may or</w>
w ind
Aga inst</w>
car to
Fal ling</w>
w ag
Je wish</w>
stu me</w>
le -
# 2
st an
ca sting</w>
In spir
An ton
convinc ed</w>
th at
th i
T ext</w>
ord in
M UST</w>
lic ense</w>
S now</w>
and _
Lear ning</w>
t z</w>
:smiling_ cat_face_with_
:smiling_cat_face_with_ heart-eyes:</w>
consi der
pla stic</w>
t v
high -
adv enture</w>
Cred it</w>
eng ine</w>
sand wich</w>
il way</w>
it ec
St ep</w>
Squ are</w>
laun ched</w>
s p</w>
n es
Fa ke</w>
inc or
vehic le</w>
4 6
Broo k
cou rage</w>
clo sed
al le
def eat</w>
un followed</w>
Sh irt</w>
deli ver</w>
Al ready</w>
7 /
def eated</w>
S om
bu te</w>
issu ed</w>
n in</w>
del ay</w>
St an
um ped</w>
ta r</w>
val ent
re views</w>
strugg ling</w>
hash tag</w>
Y esterday</w>
ur al</w>
Co w
im pressed</w>
IL E</w>
# For
L ET</w>
Br un
LMFA O</w>
bed room</w>
as ses</w>
att acked</w>
corru pt</w>
re me</w>
Vi ol
tu be</w>
o tic</w>
sweat _
: sweat_
droplet s:</w>
:sweat_ droplets:</w>
i alist</w>
Tra de</w>
G RE
Lar ge</w>
ol en</w>
ga ined</w>
Thr ones</w>
R ain
Wil son</w>
Recor ds</w>
W WE</w>
na w</w>
har i</w>
conf lic
18 th</w>
AN G</w>
I mp
E -
E W</w>
week ly</w>
Stu dy</w>
Q B</w>
J ay
conf ident</w>
Di ffer
wal ls</w>
w ishing</w>
n app
des ire</w>
see king</w>
an a
st ays</w>
bea n</w>
c ough</w>
comp li
_ fing
jo king</w>
g ear</w>
s aturday</w>
Ni ght
W HO
TH EN</w>
Des pite</w>
MA s</w>
c lar
un known</w>
st ain
plea d
T OM
pol l</w>
Sel ena</w>
ad el
k n</w>
dre sses</w>
pressi ve</w>
enter tainment</w>
Y ear
TO P</w>
cel ona</w>
: plead
:plead ing_face:</w>
A TT
lin k
Rom an</w>
J ar
Ar tic
wi d
: cat_face_with_
y up</w>
nor mally</w>
inten do</w>
Ar ts</w>
ess ings</w>
ab led</w>
10 th</w>
ea ble</w>
Pal est
sw ea
G iveaway</w>
Bra d
min ister</w>
H P</w>
IL Y
es a</w>
L on
10 -
Mal ay
gra m
G oo
: camera:</w>
Sa udi</w>
lem me</w>
EX O</w>
health care</w>
exper t</w>
b 4</w>
sudd en</w>
w inners</w>
const it
s lu
TH INK</w>
ho ttest</w>
sho e</w>
or i
b ies</w>
P T</w>
ty pical</w>
M L</w>
al u
Bri dge</w>
# Al
E ff
# so
ch i</w>
Wal k</w>
P IC
H and</w>
sl ut</w>
For get</w>
C ute</w>
c he</w>
Wa ke</w>
Pre ssure</w>
C lean</w>
B lood</w>
addic ted</w>
leg is
Ch ec
e_ of_
pas sen
P D</w>
15 .
ic ro
up load</w>
ST OR
l ement</w>
lon gest</w>
op ho
Th ing</w>
pati ence</w>
dem on
de partment</w>
g ang
applic ation</w>
T ook</w>
Curr ently</w>
J on</w>
Cru z</w>
fa b</w>
CAN 'T</w>
Color ado</w>
neigh bor
cou sins</w>
MUS IC</w>
Princ ess</w>
list ic</w>
stu dies</w>
sou thern</w>
Jud ge</w>
ve -
bour ne</w>
ag e
R C</w>
swi m</w>
th rea
Qu ality</w>
f ought</w>
vie wed</w>
Ko be</w>
F lo
w rap</w>
therap y</w>
cir cle</w>
L as</w>
: na
S CH
p acked</w>
gran ted</w>
Elec tr
C av
in str
argu ing</w>
G RA
ment ally</w>
I on</w>
Lou is
bu tter
hoo k</w>
in n</w>
m oo
provid es</w>
eat en</w>
wh el
dist ur
Po d</w>
est y</w>
u ts</w>
n arr
broad cast</w>
vis ible</w>
P ul
B et</w>
# 3
he els</w>
lma oo</w>
enc ing</w>
v ul
pain ful</w>
Gir l
# 6
Succ ess</w>
gradu ation</w>
pr ic
EN T
adi se</w>
vi c</w>
Wal es</w>
f ile</w>
a unt</w>
direc ted</w>
com ic</w>
pro mo</w>
L and</w>
convers ations</w>
s an
ag enda</w>
br ush</w>
life time</w>
# can
Ex per
Wh enever</w>
min d
hy un</w>
boo st</w>
ad ults</w>
sho ck</w>
# la
ER T</w>
FIF A</w>
bac on</w>
gra ss</w>
REA D</w>
E ll
ucc i</w>
P sy
go ver</w>
Lo ving</w>
dol l</w>
g t</w>
tw in</w>
oo h</w>
# new
artic les</w>
o hh</w>
sp ire</w>
k or
ro of</w>
be y</w>
_ and_
ST R
wit ter
b all
Olymp ic</w>
イ ケ
ome stic</w>
m ountain</w>
R d</w>
deliver ed</w>
K ur
S pe
fla ke:</w>
:snow flake:</w>
g host</w>
Good night</w>
AB LE</w>
t w</w>
1. 5</w>
# え
E at</w>
N a</w>
fer red</w>
M ill
sh ould
fa st
oooo oooo
Min aj</w>
#え ど
bra ve</w>
ro cks</w>
ul ty</w>
Pac ific</w>
por no</w>
# li
gr ind</w>
#えど が
イケ メ
see med</w>
C leveland</w>
ag ency</w>
y i
M and
lo go</w>
develo p</w>
Jo se</w>
Camer on</w>
ti fied</w>
AS H
Wo ke</w>
invest ment</w>
#えどが わ
fa bulous</w>
g ent</w>
イケメ ン</w>
te ens</w>
ent re
P OR
Pro gram</w>
v in
con struc
v i</w>
am ate
Tra in</w>
jud g
DAM N</w>
ang a</w>
inspir ing</w>
Co le</w>
ad ap
ho sting</w>
se t
d gers</w>
st fu</w>
F O</w>
ack now
mom my</w>
co w
wa ited</w>
dra g</w>
pr on
da ds</w>
intellig ence</w>
qu es</w>
iz on</w>
Ar ound</w>
#えどがわ イケメン</w>
Fi eld</w>
V ide
1 ,000</w>
G IVE</w>
ong side</w>
acc ent</w>
tol er
A h
sc ra
up loaded</w>
z ayn</w>
self ies</w>
c m</w>
An im
har dly</w>
O THER</w>
Mar s</w>
dev ice</w>
too ls</w>
al led</w>
di a
exper im
corru ption</w>
kno cked</w>
ent ures</w>
fac ing</w>
ho sts</w>
individ uals</w>
Fre sh</w>
end ar</w>
laugh ter</w>
war s</w>
assi st</w>
Emp ire</w>
ta st
aff ected</w>
G il
O wn</w>
N umber</w>
Stu dio</w>
F ine</w>
cap tain</w>
n ear
S B</w>
celebr ity</w>
li o</w>
G y
AC E</w>
I ES</w>
:backhand_index_pointing_ down:</w>
# be
o we</w>
en ix</w>
# ask
rel ate</w>
uti on
Thank sgiving</w>
P ear
laugh s</w>
ac elet</w>
Jose ph</w>
h ind
vis iting</w>
ho st
wor n</w>
Ari zona</w>
tw er
:heavy_ check_mark:</w>
m t</w>
sec ond
c and
enti ally</w>
believ es</w>
no v
I an</w>
T EA
13 .
sen sitive</w>
ga f</w>
Mu seum</w>
en gu
off ensive</w>
BREA KING</w>
writ ers</w>
N 'T</w>
ric ane</w>
posit ions</w>
po wers</w>
Al ert</w>
jo int</w>
asha med</w>
f m</w>
d ing
ad ed</w>
ation al
M ountain</w>
# ch
IS H</w>
em ony</w>
thro wn</w>
hom eless</w>
soc cer
# on
inst it
descri bed</w>
it i
F oundation</w>
In side</w>
Pri v
candi dates</w>
sour ces</w>
A aron</w>
Afr ic
S ound</w>
k -
C LO
S port</w>
14 .
sta dium</w>
d il
_ vol
Au to</w>
# Bo
self ish</w>
To gether</w>
AS S
as f</w>
gam ing</w>
D omin
end or
Bro ther</w>
revea led</w>
ribb on:</w>
inn ed</w>
incredi bly</w>
dre ssing</w>
Sand ers</w>
Or lando</w>
w el</w>
et a</w>
hand ed</w>
T ON</w>
sp ree</w>
cr icket</w>
i a
gra pher</w>
SO ME</w>
rac es</w>
exclu sive</w>
19 th</w>
Ma ke
Str ate
stri al</w>
Rev ol
reali sed</w>
ma kers</w>
ev en
ul timate</w>
fra ud</w>
spo ken</w>
x e</w>
ver ty</w>
ff in</w>
B ye</w>
ma s
prot ection</w>
D addy</w>
Mo ve</w>
mar kets</w>
un fortunately</w>
Mar io</w>
D ING</w>
R s</w>
k an</w>
z ard</w>
fac ed</w>
att ached</w>
resid ents</w>
T wi
J aco
F act
Ex clu
K id
down town</w>
Bas ketball</w>
; D</w>
vil la
random ly</w>
# 4
# Q
con sequ
ess ica</w>
ac ad
wh eel</w>
TA KE</w>
fa ils</w>
sor ed</w>
wea pons</w>
ing_face_with_ closed
:kiss ing_face_with_closed
:kissing_face_with_closed _eyes:</w>
Econ om
wi fi</w>
dis like</w>
Sha me</w>
ro man
C ash</w>
init i
ru g
partic ularly</w>
All -
eyebro ws</w>
# it
US B</w>
Dro p</w>
on gs</w>
sm all
Bit coin</w>
mo tor
al ities</w>
clo thing</w>
increa sed</w>
K ate</w>
enti rely</w>
a side</w>
educ ated</w>
SEL F</w>
id ers</w>
var iety</w>
regi ster</w>
answ ered</w>
to ps</w>
M EAN</w>
Po kemon</w>
la bel</w>
Y ellow</w>
wea k
ser t</w>
# Love
K ill</w>
E A</w>
j ay</w>
hun t</w>
fic ation</w>
f eedback</w>
ci vili
h w</w>
pen alty</w>
po ster</w>
sho ps</w>
R al
ord inary</w>
fi ghts</w>
fic tion</w>
W y
sou th
Sh ut</w>
L ana</w>
pu pp
ra pper</w>
daw g</w>
in struc
Lo ved</w>
aaaa aaaa
Go vernor</w>
cli ent</w>
amer ic
UM P</w>
# Z
en em
Kind a</w>
tra p</w>
199 8</w>
tern al</w>
B less</w>
andro id</w>
9. 99</w>
bi eber</w>
V an
pass word</w>
ignor ing</w>
bu st</w>
co at</w>
rac ing</w>
La kers</w>
bl in</w>
CU TE</w>
red uce</w>
Hu ge</w>
is er</w>
gg ers</w>
St ream</w>
R ey</w>
T el
d at
a x</w>
cont em
logi es</w>
i b
fra me</w>
Comple te</w>
h idden</w>
char ger</w>
bea st</w>
F ig
high _vol
T een</w>
tt in</w>
wa sting</w>
t ut
Brit ney</w>
be side</w>
cho sen</w>
t ested</w>
appro xim
Al i</w>
il e_of_
:p ile_of_
poo :</w>
:pile_of_ poo:</w>
fa ith
# World
Ex press</w>
Tra ffic</w>
:cro s
k icking</w>
pu shed</w>
emo ji</w>
oo p</w>
G ary</w>
D ID
Lim ited</w>
Ira q</w>
ti more</w>
7 7
ent it
believ able</w>
in et</w>
ul ation</w>
aff ect</w>
ra w</w>
J A
tou ched</w>
rep lied</w>
su its</w>
al do</w>
fil es</w>
Qu ote</w>
Cam p</w>
s ooooo</w>
fri es</w>
ag er</w>
ST AR
c ateg
T an
aw ww</w>
sun ny</w>
Con stit
H EY</w>
des ign
gh ted</w>
PS 4</w>
it z</w>
ju ana</w>
Fin ancial</w>
ent ation</w>
ve ter
kis sing</w>
confir m</w>
CA R</w>
G ay</w>
G ame
B ee
3 _hearts:</w>
:smiling_face_with_ 3_hearts:</w>
gro cer
f arm</w>
yel ling</w>
fil ling</w>
er ror</w>
E ye</w>
Bat tery</w>
D el</w>
F oc
H at
ic ation</w>
main ly</w>
t ings</w>
In ch</w>
entre prene
r ally</w>
Dra gon</w>
ing_ star:</w>
gre y</w>
tun ed</w>
st ated</w>
terror ist</w>
mo der
wh ore</w>
Du ke</w>
Bu ff
on e-
cra z
H B
Str ong</w>
#G ame
ignor ed</w>
sh ut
Gi ants</w>
fuc ker</w>
To tally</w>
LI ST
polic ies</w>
oun ge</w>
e my</w>
Stud ents</w>
th qu
an ie</w>
cli ents</w>
Si x</w>
susp ect</w>
it able</w>
k h
lin ed</w>
T old</w>
- to-
O L
v as</w>
L incol
n an
por tra
g al
Mi x
p unk</w>
di g</w>
ea ses</w>
go d
per spective</w>
UPD ATE</w>
const ant</w>
C P</w>
ffic ient</w>
Au dio</w>
Cont act</w>
th an
soldi ers</w>
Qu ick</w>
5 8
our ed</w>
Th oughts</w>
BA D</w>
Con si
est ate</w>
ster ed:</w>
:regi stered:</w>
presen ting</w>
al ds</w>
di c</w>
offic ers</w>
An sw
2 1
low key</w>
ang el
nee da</w>
R ich</w>
sal ad</w>
TON IGHT</w>
Le bron</w>
hor ny</w>
or es</w>
cry p
Att ack</w>
ank a</w>
phi losop
Sp urs</w>
fr on
t ask</w>
Y O</w>
reco gn
Cry stal</w>
ic ity</w>
# e
m igr
3 4
R av
ish ed_face:</w>
Ta x</w>
C RA
ag u
hard core</w>
bel ly</w>
_ be
#J ust
K ansas</w>
nor th
Stud ent</w>
# En
ic ul
valu es</w>
Mo ore</w>
Bar celona</w>
ach el</w>
no thin</w>
u el</w>
YOU 'RE</w>
# Jobs</w>
phi a</w>
ing_ head
ing_head :</w>
all er
E ve</w>
f ly
A w</w>
C RE
T N</w>
susp ended</w>
Isla mic</w>
R um
bl unt</w>
U g
st or</w>
F ort</w>
#B lack
as ap</w>
mis er
pri me</w>
Sing apore</w>
R ace</w>
peop les</w>
ati vely</w>
y es
BE CAUSE</w>
it i</w>
G olf</w>
Y u
Ster ling</w>
cont ext</w>
N am
fu el</w>
A utom
expla ins</w>
d ang</w>
bo xing</w>
sel ection</w>
cle :</w>
b anks</w>
pra ise</w>
assa ult</w>
mor al</w>
Mach ine</w>
Di e</w>
et t</w>
famili ar</w>
remin ded</w>
B JP</w>
car ried</w>
min es</w>
well -
in ar</w>
re present</w>
bo thered</w>
bla h</w>
ir man</w>
pe st</w>
act ress</w>
OU GH</w>
ap a</w>
al ls</w>
p ace</w>
D :</w>
P P</w>
Dr inking</w>
fl u</w>
b ber</w>
oc cur
pa thy</w>
kne es</w>
al ongside</w>
Ro ber
N D</w>
Bat man</w>
FRI END</w>
lo oo
th or
Inst itute</w>
head phones</w>
la p</w>
s ick
dea ths</w>
ili an</w>
z ation</w>
ar ts</w>
zz z
champ ion</w>
n at
19 .
i ff</w>
K ong</w>
n atur
Ho ward</w>
t _
C op
St upid</w>
di os</w>
L AST</w>
conc entr
L ess</w>
# Trump
6 /
ext reme</w>
tit les</w>
bri ght
ra pp
J ama
m ir</w>
Sou l</w>
LI E
Cur rent</w>
S mart
o ke</w>
att ended</w>
DA YS</w>
enem ies</w>
dis count</w>
d ish</w>
jum ping</w>
m echan
sol utions</w>
elec tric</w>
un its</w>
to e</w>
st unning</w>
S kin</w>
Movi es</w>
Kar dashi
Philipp ines</w>
VI P</w>
# You
on c
un comfortable</w>
hoo p</w>
r ing
tra de
mass age</w>
We ight</w>
la ho
ca uses</w>
bir thday
D L
HAR D</w>
la ds</w>
AC C
contro ver
j s</w>
G h
me me</w>
v ing
le ans</w>
n uclear</w>
Z Z
T ed</w>
ig s</w>
3 00
p -
O T</w>
Engine er</w>
s oup</w>
Scot tish</w>
sw eat</w>
:ro se:</w>
ww ww</w>
scor ing</w>
:dizz y:</w>
world wide</w>
ous ness</w>
ha ll
i phone</w>
it im
gol den</w>
Sho w
ti ves</w>
c able</w>
to y</w>
pre ss
Bru h</w>
C old</w>
tem perature</w>
OO N</w>
bro w
A ust
sear ching</w>
co t</w>
neph ew</w>
con sul
bu d</w>
il ton</w>
yo ga</w>
D ue</w>
wan a</w>
Buil d</w>
pro ven</w>
ab s</w>
us :</w>
EAR S</w>
Dan ny</w>
F ly
I ron</w>
F C
j es
h tt
P har
ip es</w>
C atch</w>
E state</w>
Lau ren</w>
EC K</w>
boo ked</w>
Mis sing</w>
st icks</w>
clo se
8 00</w>
de x</w>
us er
13 th</w>
: soccer
:soccer _ball:</w>
#I m
wa shed</w>
Niger ian</w>
Mo dern</w>
adv oc
F at</w>
5 6
b :</w>
t fu</w>
Br y
re g
t ical</w>
Li fe
MO ST</w>
C ancer</w>
den y</w>
ank et</w>
agre ement</w>
S ell</w>
AR Y</w>
za beth</w>
eb ers</w>
cop y
hum anity</w>
D ick</w>
P ad
sk et
recogni ze</w>
L ap
b elt</w>
at least</w>
con spir
hea der</w>
ra y
Com puter</w>
n ic</w>
ad ays</w>
y ung</w>
N intendo</w>
Ch eers</w>
Custom er</w>
Po tter</w>
e tic</w>
enti st</w>
mis sions</w>
var i
et to</w>
P ick</w>
m ill</w>
Sur vi
tem porary</w>
exc it
in formed</w>
i to</w>
199 7</w>
con ver
adel phia</w>
t ed
conv ince</w>
ch u</w>
De tails</w>
reco very</w>
Qu ar
P enn
E ss
Gran de</w>
eli min
B and
K ings</w>
cir cum
iz za
fin ishing</w>
e ty</w>
LO OK
stre ss
Charlo tte</w>
re tar
Sho ws</w>
clou ds</w>
min or</w>
ne goti
hold ing_hands:</w>
Be tween</w>
in a
rol led</w>
r at</w>
K ent
R ee
h mmm</w>
B ac
sing ly</w>
stri p</w>
# al
pro pag
Br uce</w>
night mare</w>
Assi stant</w>
E mail</w>
it em</w>
f loo
DEA LS</w>
ick ers</w>
p re</w>
St .</w>
T ired</w>
Ea stern</w>
Fri end
dumb ass</w>
Regi ster</w>
fresh man</w>
B ids</w>
w al</w>
pre h
curr ency</w>
S Y
sp reading</w>
cor d</w>
Tr ack</w>
pha se</w>
Jen ni
spo ts</w>
T at
hum ble</w>
# RT</w>
Ar m
t .
ste in</w>
con tra
Ro b</w>
Won der
g han</w>
M ama</w>
de ter
ir on</w>
K el
7 0
M ount</w>
scri pt</w>
:face_ without
:face_without _mouth:</w>
ou s_
H ELL</w>
un g
ST ER</w>
awar eness</w>
i Pod</w>
z o
ma sk</w>
di ans</w>
ca using</w>
itt s
st able</w>
oppo sition</w>
3 :
ar med</w>
y ards</w>
sto pping</w>
tech ni
pan el</w>
Wor st</w>
blo wn</w>
Rest a
go vern
um es</w>
stra w
NE T</w>
Wor th</w>
ab les</w>
t ent</w>
Ty pe</w>
Y EA
Mil itary</w>
x o</w>
ex posed</w>
Michel le</w>
st are</w>
loy d</w>
UC K</w>
ul u</w>
cou ples</w>
immigr ation</w>
Per haps</w>
Enter tainment</w>
ro ws</w>
199 6</w>
ag no
PL A
# Un
Mar ia</w>
car rying</w>
E qu
cri mes</w>
mar ch</w>
il le</w>
ol o</w>
sa dly</w>
altern ative</w>
ch est
Pol and</w>
fri ed</w>
Wal mart</w>
ley ball</w>
A gre
as ed</w>
eeee e</w>
chil ling</w>
reli ef</w>
rema ining</w>
ex ists</w>
t in
ta to</w>
sc are</w>
th ear
W ood</w>
S EA
po sing</w>
provid ing</w>
form ula</w>
Har ris</w>
Hist or
R is
u al
per c
A ve</w>
Be hind</w>
Champ ions</w>
tr ou
Spir it</w>
li ance</w>
promis es</w>
s ends</w>
S P</w>
ann on</w>
pro sp
RE C
Kat y</w>
oc k
dis aster</w>
Sa int</w>
str anger</w>
roo t</w>
to es</w>
Ba seball</w>
bi z</w>
Ch icken</w>
M M</w>
lu e</w>
Ex t
experi ences</w>
Th x</w>
con s</w>
z er
onym ous</w>
bit ter</w>
gr ac
tro ops</w>
Ken ne
el son</w>
Mess age</w>
p and
sw ing</w>
da sh
li am</w>
concer ns</w>
char t</w>
T enn
Pre s
a haha</w>
vol ume</w>
N J</w>
po d</w>
tab les</w>
Wr ong</w>
g lo
Del hi</w>
ser ves</w>
tattoo s</w>
Ore gon</w>
lea gues</w>
off ended</w>
thir sty</w>
C lim
roman tic</w>
Exec utive</w>
tw ins</w>
f lat
em entary</w>
int ense</w>
ad ditional</w>
J ane</w>
M ER
en sure</w>
dis ci
Fla sh</w>
ti st</w>
Re tweeted</w>
lar ger</w>
NO THING</w>
Le Bron</w>
D al
#C ho
fig ures</w>
Lat er</w>
SA ME</w>
kn w</w>
week ends</w>
HA D</w>
Ass em
M atch</w>
st olen</w>
Jenni fer</w>
A my</w>
P lea
help ful</w>
Fem ale</w>
Pr int</w>
Den ver</w>
gg le</w>
ma ster
S itting</w>
H emmings</w>
Gr ay</w>
pe tty</w>
:p engu
:pengu in:</w>
N one</w>
gh s</w>
In clu
ino is</w>
g igg
follow back</w>
pri son
# ho
refu ge
K al
St rea
Ver sion</w>
ly -
P ati
as y
D ean</w>
Inter view</w>
pen is</w>
Oc ean</w>
leg ally</w>
P C
ti re</w>
#D eals</w>
supp orts</w>
-- -></w>
enter taining</w>
O B
t am
comm unities</w>
is ation</w>
approxim ately</w>
phra se</w>
in ers</w>
Egy pt</w>
nor thern</w>
H Y
it e
EL Y</w>
ir relevant</w>
Experi ence</w>
lou is</w>
10 00
F igh
Comm ittee</w>
#AL DU
sel ected</w>
revea ls</w>
gg g</w>
ir ates</w>
fla sh</w>
Mar vel</w>
Pro c
ro g
dro ve</w>
To k
S F</w>
Matthe w</w>
ri son</w>
clo wn</w>
A po
4 :
ab ilities</w>
TW O</w>
Rol l</w>
g age</w>
ensi ons</w>
TR Y</w>
a z
S ick</w>
us age</w>
e on</w>
K ES</w>
int ended</w>
Exc ept</w>
link ing_
:c linking_
en ses</w>
try in</w>
Twee ts</w>
R est</w>
D utch</w>
Un fortunately</w>
determin ed</w>
f ting</w>
laho ma</w>
OUN D</w>
docum entary</w>
F ab
OM FG</w>
am o</w>
pro ved</w>
Par liament</w>
Go d
To tal</w>
cha sing</w>
v est
in ches</w>
ig e</w>
y t</w>
xi ous_
law yer</w>
canc el</w>
face_with_ sweat:</w>
:an xious_
:anxious_ face_with_sweat:</w>
NY T</w>
#C ar
vi bes</w>
B ed</w>
you u</w>
:cat_face_with_ tears_of_joy:</w>
Ad mini
neighbor hood</w>
happ y
it ar
amate ur</w>
organ iz
Ka th
t l
mis sion
Y outh</w>
out break</w>
Lincol n</w>
refer ring</w>
dec ades</w>
Indi ana</w>
un able</w>
or ney</w>
ta p</w>
sp y</w>
Vi et
genu ine</w>
boo t</w>
I E</w>
#h iring</w>
bas ket
re port
Je welry</w>
scre wed</w>
sp here</w>
wa shing</w>
X -
bo ts</w>
j in</w>
or al</w>
cir cle:</w>
Ath le
Ad vis
re tweets</w>
Indon esia</w>
stea ling</w>
t ennis</w>
ha a</w>
Argent ina</w>
Wor ks</w>
k icks</w>
Ca fe</w>
Eli zabeth</w>
qui z</w>
swa g</w>
jum ped</w>
mee ts</w>
X L</w>
au dio</w>
a wa
Tou ch</w>
T ELL</w>
N W
T ea</w>
K yle</w>
pl ants</w>
B M
i o
st ations</w>
p se</w>
drea ming</w>
ee z</w>
col lap
list en
Au to
RE E</w>
XX X</w>
gi g</w>
Direc tion
Mer ry</w>
m at</w>
S us
s an</w>
coll ect</w>
V ene
vie wing</w>
haw ks</w>
ay o</w>
w olf</w>
Sim on</w>
RE TWEET</w>
Bro thers</w>
arri ve</w>
s ang</w>
neighb ors</w>
FUC K
er ie</w>
ar rest</w>
subscri be</w>
vi be</w>
lan tic</w>
# Lo
# ro
Elec tric</w>
An na</w>
de pressing</w>
# Po
lish ment</w>
air craft</w>
n ative</w>
o bli
Ul timate</w>
adm ire</w>
P pl</w>
ident ity</w>
po l</w>
Sta dium</w>
d it</w>
: balloon:</w>
peop le
exist ing</w>
Car ter</w>
pil low</w>
sho ot
vi se</w>
Bor n</w>
V ES</w>
Par ents</w>
celebr ation</w>
conserv ative</w>
ch ick
cu tie</w>
D P</w>
w i</w>
Bo ss</w>
h en</w>
V ine</w>
p it</w>
Fi re
fri dge</w>
air plan
Ja ke</w>
# good
AS H</w>
Cl ear</w>
succ eed</w>
bear d</w>
si ble</w>
H R</w>
Met al</w>
ve ge
P s</w>
scar s</w>
li est</w>
en er
p ad</w>
Y EAR</w>
promo tion</w>
complic ated</w>
Be g
d eck</w>
Ci vil</w>
B ull
con sc
V s</w>
so oner</w>
Democr at</w>
re stric
itt le
11 /
F antasy</w>
it ual</w>
Em ma</w>
P ope</w>
ei ght
over whel
War riors</w>
: new
i ors</w>
16 .
ak o</w>
t xt</w>
D I</w>
F UN
comm un
equ ipment</w>
bab es</w>
Co lo
B loo
thro ws</w>
exper ts</w>
ap ol
dri ves</w>
phys ically</w>
all -
fun eral</w>
gu essing</w>
4 ,
del u
S HOW</w>
vis ited</w>
Wal ker</w>
H IG
r hy
def ending</w>
# to
f itness</w>
they re</w>
# you
La un
exha usted</w>
low ing_star:</w>
:g lowing_star:</w>
Cap ital</w>
tr ust
Auth or</w>
ILY SM</w>
ann els</w>
M EM
sp are</w>
ju ries</w>
k h</w>
part ner
bur ned</w>
Res pon
sma sh</w>
t est
TH ER
m fs</w>
Ash ley</w>
anc ou
Exclu sive</w>
S ign
ti al</w>
R S</w>
could nt</w>
#F a
# US
pea k</w>
hea l</w>
K im
L ucky</w>
#B e
opp on
Brook lyn</w>
plea sed</w>
con vic
Tar get</w>
g us
Crea te</w>
try nna</w>
fe t
App ly</w>
Fac ts</w>
enti c</w>
bo dy
requ ire</w>
fa irs</w>
mar i
challeng es</w>
ed ic
n ick</w>
va to</w>
Ham ilton</w>
mar athon</w>
reci pe</w>
hum or</w>
ER IC
# X
Pro d</w>
sk ill</w>
k ick
bo xes</w>
Ro bin</w>
oper ations</w>
L G
associ ated</w>
m unicip
tt ery</w>
l uc
W ishing</w>
he ight</w>
S cor
Prof essional</w>
P izza</w>
Jour nal</w>
B illy</w>
ner ves</w>
viol ent</w>
logi st</w>
te in</w>
Kind le</w>
# music</w>
princ i
situ ations</w>
brea thing</w>
fr ench</w>
illi ona
favor ites</w>
: tro
Sa fe</w>
Jer emy</w>
v ania</w>
Lo vely</w>
TOM OR
recei ving</w>
al ert</w>
20 .
J UST
H mmm</w>
buil dings</w>
S op
ali k</w>
tra ins</w>
Li brary</w>
war t</w>
sp in</w>
S li
p ti
K iss</w>
sh ore</w>
en dy</w>
at ar</w>
el a
bu mp
# fuck
it ive</w>
m ingham</w>
fl ex
GA ME</w>
pop s</w>
Je ws</w>
spec ial
Gu n</w>
trea ting</w>
Pro blems</w>
har m</w>
LO W</w>
inc ident</w>
po verty</w>
s anc
Every time</w>
# best
stri kes</w>
R N</w>
wit n
199 5</w>
Sof tware</w>
gu id
relea ses</w>
abor tion</w>
: zzz
:zzz :</w>
Ri ghts</w>
Bal timore</w>
Phil adelphia</w>
om en
lo e</w>
p ays</w>
ca ke:</w>
employ ment</w>
r ank</w>
Le o</w>
oul da</w>
scre w</w>
L e</w>
fall en</w>
sha king</w>
for th</w>
sm art
amp ire</w>
L and
J essica</w>
Go v</w>
Ph ys
in ho</w>
199 4</w>
c ure</w>
j unior</w>
j im
sm oo
do w
m itted</w>
ant ic
h es
ma id</w>
TT ING</w>
for est</w>
th x</w>
K in
Dri ving</w>
hun dreds</w>
re f</w>
com in</w>
bl essings</w>
play in</w>
tar io</w>
ie ws</w>
Exc ellent</w>
pi g</w>
C M</w>
p c</w>
B eng
L um
war d
ed -
vo ices</w>
: trade
:trade _mark:</w>
d ges</w>
C lose</w>
wor ship</w>
rev eal</w>
M ar</w>
ro me</w>
h en
a u</w>
G all
S F
ssi p</w>
Li ght
fa me</w>
7 6
mus ic
E bay</w>
ss y</w>
An niversary</w>
MA DE</w>
9 0
at oes</w>
re ll</w>
ed_ gi
:w rapp
ed_gi ft:</w>
:wrapp ed_gift:</w>
WAN NA</w>
kni fe</w>
lin ked</w>
WOR K</w>
Al an</w>
fa iling</w>
S UN
specif ically</w>
or ting</w>
sal t</w>
coo kie</w>
ona than</w>
coun cil</w>
ou tra
# le
cal cul
sli p</w>
LO NG</w>
bott les</w>
Rel ation
W ON
2 :
dra wn</w>
dec ides</w>
Christ ians</w>
Anton io</w>
14 0</w>
PO RT</w>
er ve</w>
free zing</w>
dis cover</w>
n ing:</w>
communic ation</w>
H um</w>
Io wa</w>
sh outout</w>
sty les</w>
metho d</w>
R y
f -
ha bit</w>
Jer ry</w>
OK AY</w>
S ain
ar ity</w>
pri or</w>
pos al</w>
inten ance</w>
Eag les</w>
Soc cer</w>
men u</w>
M um
Anti -
compe te</w>
2 9.
th ur</w>
mic hael</w>
SA ID</w>
Sy n
O ak
inv est</w>
R angers</w>
ter ri
ga p</w>
n v
El ection</w>
EN DS</w>
aa aa</w>
T I</w>
Any body</w>
Ri o</w>
ha bit
OO OO</w>
b h</w>
itt in</w>
kin ds</w>
B es
Cont ent</w>
U TI
co stume</w>
bo ards</w>
inc t</w>
ho les</w>
minim um</w>
h mu</w>
R U
in ter</w>
AL S</w>
B ed
ext ended</w>
secre ts</w>
# don
pret ending</w>
lo ses</w>
Bra dy</w>
ex plan
Kent ucky</w>
IC K
cap acity</w>
cig ar
li ghting</w>
# ra
g ary</w>
J U
pe an
Stra ight</w>
na u
BE TTER</w>
aw ay
Ph illi
tom s</w>
ma h</w>
tou ching</w>
K now
t il
ni ece</w>
re tired</w>
po or
I sa
sur face</w>
au to</w>
har as
sm ooth</w>
cri b</w>
F itness</w>
point less</w>
: exclamation_mark:</w>
R achel</w>
ke es</w>
o _
Star ted</w>
illiona ire</w>
e ign</w>
im pressive</w>
dra matic</w>
Spe ed</w>
foo ls</w>
j ap
M ens</w>
rac ial</w>
ex tra
R ad
O wn
ome z</w>
ea stern</w>
A venue</w>
new est</w>
Re g
it age</w>
pay ment</w>
H Q</w>
K ay
ran ked</w>
E yes</w>
desig ner</w>
C hoo
th ou</w>
#1 D
TOMOR ROW</w>
Wi fe</w>
eng aged</w>
Indu stry</w>
p y</w>
L ead</w>
thea tre</w>
O T
ber ship</w>
Lo vato</w>
' mon</w>
:new _moon_face:</w>
: open
ati e</w>
Hea ven</w>
ford able</w>
p ac
Ill inois</w>
R ise</w>
d u</w>
w y
T ree</w>
S IG
Car ds</w>
mo thers</w>
T es
An dre
leg itim
Ch ea
enti on
comm it</w>
k ish</w>
wor th
y ang
: |</w>
Wan ted</w>
ancou ver</w>
our ing</w>
FU LL</w>
lma ooo</w>
K is
bo b</w>
ec oming</w>
su es</w>
feel in</w>
Sna pchat</w>
T RI
d ah</w>
cont acts</w>
O mega</w>
in fin
:p izza
:pizza :</w>
C ore</w>
Gr ace</w>
Stor m</w>
cu stom</w>
present ative</w>
C able</w>
p acking</w>
bor ough</w>
S hot</w>
T L
polit ician</w>
6 4
s r
C LI
S in
mon t</w>
Os car</w>
ess ential</w>
st in
previ ously</w>
Offic er</w>
syl vania</w>
em en</w>
a sian</w>
claim ing</w>
S ONG</w>
An derson</w>
wit ness</w>
nomin ated</w>
Min ecraft</w>
Secre tary</w>
K am
P ort</w>
Rec ord</w>
h n
En ough</w>
_be ver
im o</w>
nit ure</w>
h em
corpor ate</w>
v ent
:hot _bever
:hot_bever age:</w>
es see</w>
att ending</w>
BU Y</w>
v ig
F act</w>
B eat
U ber</w>
hibit ion</w>
: z
pe ts</w>
presid ential</w>
#F ree
In c
re turning</w>
Minn es
B RA
dr ank</w>
stor y
199 0</w>
MA S</w>
R P</w>
# Wor
: basket
dra ke</w>
M a</w>
Me an
rar ely</w>
Free dom</w>
th a
P in
ter rit
v d</w>
rep lies</w>
n ing
E ating</w>
00 0
r ite</w>
TT LE</w>
S ON
ir i</w>
:basket ball:</w>
AM ERIC
G ur
Gi ving</w>
ch illin</w>
ou ch</w>
un like</w>
si zed</w>
intellig ent</w>
any _face:</w>
cra ving</w>
:z any_face:</w>
#T ru
pu b</w>
insul t</w>
wal let</w>
M ist
f oundation</w>
d uck</w>
exc uses</w>
N S</w>
dee ply</w>
compli ment</w>
17 .
Bo w
tion ally</w>
Who ever</w>
gre e
medium _
5 7
eb er
Ta i
n ut
0 1:
C on</w>
wil d
sha m
sk ins</w>
f ing</w>
user name</w>
sign al</w>
div or
TH AN</w>
10 ,000</w>
Ed ward</w>
sh ell</w>
im prov
# bu
beli ef</w>
ha cked</w>
gi an</w>
od ds</w>
ex it</w>
entit led</w>
Ma x
K rist
some thin</w>
to ys</w>
thqu ake</w>
fi ghter</w>
9 0s</w>
ru pt</w>
#ALDU B
G B
S aying</w>
mid -
wrest ling</w>
Lea der</w>
f le
ex -
#P er
ch icks</w>
A ff
rais es</w>
WH ITE</w>
B us</w>
M et</w>
W AL
Hop ing</w>
Pho enix</w>
hun ting</w>
child ish</w>
f ears</w>
tox ic</w>
# star
3. 5</w>
arr ang
Cho colate</w>
app lied</w>
L isa</w>
n g
ak u</w>
Emp loy
St ick</w>
X mas</w>
trea ts</w>
M EN
r ene
d ust</w>
Sp ears</w>
vi ously</w>
itts burgh</w>
Thea tre</w>
Mus ic
sp el</w>
plac ing</w>
AC T</w>
sched uled</w>
F eat</w>
# un
po o</w>
f ishing</w>
d anger</w>
# Ho
For est</w>
bu bble</w>
du m</w>
laun dry</w>
s go
HAHA HAHA</w>
gh ing</w>
f l</w>
in ity</w>
wa ves</w>
er to</w>
suc king</w>
Wi reless</w>
F E
ob j
D ONE</w>
Dea d
rema ined</w>
J onathan</w>
mid dle
# Wh
Per son</w>
At lantic</w>
chi p</w>
bo i</w>
b or</w>
expect ations</w>
oper ation</w>
dd d</w>
con trac
: man
#S oc
W ire</w>
199 2</w>
Ok lahoma</w>
On tario</w>
CA A</w>
twi st</w>
Ken ya</w>
t ell
I B
r ent
is ol
NE XT</w>
So x</w>
er ship</w>
mi ghty</w>
j ar
j an</w>
pa ig
fla sh
M B</w>
Rec ei
tt tt
cu it</w>
E UR
Gre ece</w>
Rus sell</w>
SOME ONE</w>
up grade</w>
ul ate</w>
Hun ter</w>
val ent</w>
H ong</w>
resc ue</w>
v it
ma c</w>
near by</w>
b ass</w>
chec ks</w>
comb ined</w>
as i</w>
Lat in</w>
ur ge</w>
Fa ir
gradu ated</w>
ignor ance</w>
: y
May or</w>
S OR
anc ient</w>
: dog
do t</w>
THE IR</w>
sur ed</w>
sh eet</w>
fin ale</w>
c r</w>
sec tor</w>
#K CA</w>
:white_ medium_
# Ro
p atch</w>
Hawa ii</w>
hang out</w>
B ear</w>
ut ation</w>
W ell
el ite</w>
P ain
M o</w>
s ant</w>
lov ers</w>
wor rying</w>
W ine</w>
# To
L en
Com mission</w>
crea tion</w>
A ye</w>
v om
ref used</w>
Mo tor
uu u</w>
lar ly</w>
P aper</w>
C au
18 .
Perform ance</w>
ree p</w>
wat ches</w>
T OR
ble w</w>
two -
Jam ie</w>
Pic ture</w>
str ong
surv ey</w>
cul tural</w>
awar ded</w>
Go vt</w>
pro sec
announ cement</w>
M ust
Po ssi
N ad
num erous</w>
mu st
EE T</w>
P y
D em</w>
k ill
C ream</w>
ast on
mess ing</w>
ra b
ist ers</w>
tri bute</w>
Gener ation</w>
post -
che ers</w>
# Pro
16 th</w>
R t</w>
ri des</w>
S een</w>
A men</w>
po etry</w>
a x
St ev
In tro
fla v
am ps</w>
mu te</w>
che me</w>
SE O</w>
down s</w>
miser able</w>
Concer t</w>
HU GE</w>
ID S</w>
E x</w>
b ones</w>
import ance</w>
hun g</w>
O C</w>
Ya hoo</w>
r ence</w>
P ack
DI E</w>
requ ires</w>
chem istry</w>
P G</w>
pe l</w>
iz z
kind ness</w>
V ac
re pl
Minnes ota</w>
Kardashi an</w>
produc er</w>
Mur ray</w>
#Su per
su stain
con sin</w>
l t</w>
S ud
T Y
quar ters</w>
nu n</w>
uni form</w>
Ri ver
Cam paign</w>
PER F
W ERE</w>
lif estyle</w>
ta il
xox o</w>
P andora</w>
b z</w>
Z o
polic e_
w k</w>
PO TUS</w>
man n</w>
Fan tastic</w>
#Cho ice
A ud
an kees</w>
Tea cher</w>
bl anket</w>
:white_medium_ star:</w>
e u</w>
b ank
pi ano</w>
organ ized</w>
Cy rus</w>
av a</w>
eng ers</w>
att acking</w>
fif th</w>
gl ory</w>
ot t</w>
Con nec
Sen ator</w>
wea pon</w>
consist ent</w>
regi stered</w>
tr ed</w>
kin i</w>
v í
pol i</w>
new s
F all
an n</w>
w ears</w>
HO ME</w>
app eal</w>
Res ults</w>
sc r
cli ps</w>
gg in</w>
inter views</w>
rout ine</w>
ss ss
5 :
ri o
P red
snea k</w>
st ur
S ac
# am
Ani mal</w>
star ter</w>
pp er
suc ked</w>
Leg end</w>
adverti sing</w>
bloc ks</w>
tre ss</w>
d irt</w>
hy ung</w>
d omestic</w>
dec ade</w>
P H</w>
r h
w ill
mpion ships</w>
Dri ver</w>
fac tory</w>
um bs</w>
th ang</w>
Sm ile</w>
G row
sp a
Colum bia</w>
Ann ual</w>
/ :</w>
refer red</w>
G row</w>
ac hu
Isra eli</w>
part ners</w>
co w</w>
sh ru
end ary</w>
embarra ssed</w>
G P</w>
ee k</w>
rem ix</w>
Ro y</w>
ill ness</w>
M ea
Lar ry</w>
s pl
disrespec tful</w>
ge o
12 th</w>
15 th</w>
tt i</w>
u pper</w>
inj a</w>
Person al</w>
# On
del ayed</w>
as sem
fin ance</w>
ough ly</w>
quali fied</w>
Hear d</w>
W ELL</w>
D inner</w>
ing u
chea ted</w>
#N Y
ec tively</w>
fli ghts</w>
199 3</w>
Blu es</w>
sna p
val id</w>
dev ices</w>
Every day</w>
# Real
App ro
foo ds</w>
swee test</w>
N BC</w>
Loc ation</w>
now adays</w>
travel ing</w>
Mem orial</w>
T en</w>
row back</w>
D ee
play off</w>
he he
conf using</w>
co very</w>
r ly</w>
11 th</w>
str ing</w>
bu cket</w>
Assem bly</w>
7 00</w>
thea ter</w>
d h
Lo ss</w>
c al</w>
LO U
S D
res ear
pr ince</w>
G L
EA T</w>
tur n
s its</w>
in_ yang
:y in_yang
:yin_yang :</w>
under stands</w>
Cal ling</w>
stu died</w>
house hold</w>
Ch em
re ven
b oun
TUR E</w>
Ma il</w>
U m</w>
fiel ds</w>
N HL</w>
#T een
SH OULD</w>
um m</w>
sy mp
Scre en</w>
FO RE
d al</w>
F T
Indi ans</w>
U h</w>
I g
mis s
stre tch</w>
Go es</w>
bloc king</w>
ol l
B lock</w>
a im</w>
fo x</w>
ch u
particip ate</w>
m ation</w>
ha tred</w>
fr anch
:m icro
:bab y_
mea sure</w>
F it</w>
swee tie</w>
O u
War ning</w>
bo l</w>
sha de</w>
C lou
spea ker</w>
ii i</w>
grea t
sor ted</w>
thear t</w>
TH ESE</w>
con tains</w>
wi e</w>
Pro v
198 9</w>
PL AY</w>
prof ession
Fa ith</w>
bas sad
Swed en</w>
ab and
Ve ter
reti rement</w>
por tion</w>
F ar</w>
Nec klace</w>
ess a</w>
be gging</w>
Rea sons</w>
ver :</w>
ar se</w>
high light</w>
pee ps</w>
s and</w>
high lights</w>
B -
Re gu
Har v
V E
#T ra
loy alty</w>
S L</w>
be c
pi lot</w>
pri ority</w>
Pe ter
ak i</w>
newsp aper</w>
car ed</w>
B ou
G TA</w>
faith ful</w>
P ass</w>
# bb
P il
peace ful</w>
om a</w>
ha v</w>
uti onal</w>
onc é</w>
Constit ution</w>
P O</w>
cu e</w>
journ alist</w>
commer ci
rat chet</w>
rais ing_hand:</w>
:person_ raising_hand:</w>
desig ns</w>
ha ck</w>
Resp ect</w>
re qui
ban ana</w>
mis ses</w>
es c
ach i</w>
Sh e
Ta kes</w>
S pre
B att
des h</w>
min al</w>
Li kes</w>
Em ily</w>
A www</w>
AT ED</w>
kra ine</w>
Any way</w>
et s
rea ct</w>
12 -
ta k
perman ent</w>
Mat ter</w>
AAAAAAAA AAAAAAAA
Her o</w>
guarant ee</w>
si m
bun n
ur ants</w>
tim ing</w>
congr atulations</w>
Shi pping</w>
Produc t</w>
:musical_not e:</w>
coun ter
ab i</w>
fir es</w>
go t
Z e
a hhh</w>
mix tape</w>
p y
B ER
u ri
e ing</w>
5 9
ord on</w>
c kets</w>
a sion</w>
17 th</w>
believ ing</w>
H ills</w>
com preh
conven i
d ka</w>
_of_ the_
b ic
t ags</w>
D au
an on</w>
S ound
si mul
excit ement</w>
Sel f</w>
perform ances</w>
f ab
lim its</w>
Web site</w>
Ja zz</w>
rif ice</w>
er ce</w>
bu l</w>
w age</w>
B tw</w>
her oes</w>
regi onal</w>
cer emony</w>
si onal</w>
cru ise</w>
at m</w>
boo m</w>
8 /</w>
exec utive</w>
S witch</w>
: airplan
# Jo
C B</w>
end ment</w>
Comm on</w>
: sign
_of_the_ horns:</w>
:sign _of_the_horns:</w>
evil le</w>
inter ests</w>
Bo t</w>
k at
main tain</w>
St even</w>
co aches</w>
Bas ed</w>
Du ty</w>
S ING</w>
D RA
Tenn essee</w>
Mess i</w>
Mee ting</w>
techn ical</w>
propag anda</w>
Fac e
rr r</w>
K night</w>
ro l</w>
def ensive</w>
# GO
s by</w>
C reek</w>
Op ening</w>
ama r</w>
tr ends</w>
int ell
s ings</w>
ach e
199 1</w>
Z Y</w>
g k
We ird</w>
ri ot</w>
so li
12 /
pr int
ama z
K itchen</w>
s nu
credi ble</w>
er e
hi e</w>
#M e
In surance</w>
D REAM</w>
purcha sed</w>
4 4
fortun ate</w>
ump kin</w>
ac e
mess y</w>
Or leans</w>
G MT</w>
nee z
Af ter
War ren</w>
pro posed</w>
notific ations</w>
achiev ement</w>
quar ter
la st
el ers</w>
Resta urant</w>
U K
6 6
pat tern</w>
TH O
tar ge
F AN
A int</w>
Port land</w>
Vene zu
differ ently</w>
DO ES</w>
H ud
S ept</w>
beer_mug s:</w>
:clinking_ beer_mugs:</w>
W hats</w>
thu si
admini str
di am
Ch an
w ty</w>
CH ECK</w>
C BS</w>
by n</w>
assi stance</w>
: police_
it ions</w>
h ust
u gh
for getting</w>
inst antly</w>
id eal</w>
Sho pping</w>
t is</w>
immigr ants</w>
Ti p</w>
An n</w>
peri or</w>
d ye</w>
L P</w>
1/ 4</w>
do o</w>
pre view</w>
bran ch</w>
sla ve</w>
# social
tal e</w>
d ur
Pur ple</w>
dar ling</w>
YEA H</w>
disci pl
EN CE</w>
dis respect</w>
j et</w>
ph en
D NA</w>
Th ird</w>
W D</w>
il and</w>
Jaco b</w>
auth ority</w>
Op en
L ong
vo id</w>
b ond</w>
ver sit
nn n</w>
Gra ham</w>
st ances</w>
Be er</w>
al ling</w>
ali e</w>
to ast</w>
re placement</w>
# Ar
el eph
#S o
: right
ide o
Ph illy</w>
neighb or</w>
progra mme</w>
AN A</w>
Ron aldo</w>
comm and</w>
:s neez
:sneez ing_face:</w>
y u
K Y</w>
Wr iting</w>
sc ope</w>
it ate</w>
LE G
b are</w>
ap ers</w>
g ation</w>
close st</w>
MIS S</w>
ch ur
Bo bby</w>
employ ed</w>
I v
rug by</w>
histor ic</w>
in juries</w>
bou qu
Tig er</w>
f ish
L B</w>
IN D</w>
id ents</w>
em o</w>
jes us</w>
Na sh
ar y
y ell</w>
Foc us</w>
gh an
6 :
Ly n
: high_vol
tag e:</w>
:high_vol tage:</w>
Z one</w>
f el
F Y
09 :
che er
ug al</w>
S R</w>
P RI
lea ther</w>
BEA UTI
rom ance</w>
To wer</w>
kind ly</w>
S nea
Roc k
# Star
ne y
tra dition</w>
J i
Malay sia</w>
assign ment</w>
amer ican</w>
l an</w>
Co vid</w>
f ounder</w>
S ALE</w>
AM O</w>
f ever</w>
w der</w>
thin kin</w>
room mate</w>
Con sul
SCH OOL</w>
Coun t</w>
woo ds</w>
f ers</w>
w u</w>
applic ations</w>
ol ds</w>
M um</w>
mr w</w>
K ra
S ource</w>
fe es</w>
amp ton</w>
ou stic</w>
ra h</w>
UG H</w>
re tweeted</w>
ing o</w>
D re
sc ul
W olf</w>
bur nt</w>
In tel
CH RI
Big gest</w>
co ins</w>
bea uti
histor ical</w>
# Ra
w oo</w>
tre prene
gent lem
z el</w>
G G</w>
E le
App reci
cour ses</w>
K EEP</w>
ed iting</w>
ph ins</w>
G lo
Produc ts</w>
athle tes</w>
s ly</w>
C rit
In formation</w>
T F
# lov
M V</w>
comm ittee</w>
Ni k
appro ved</w>
tra ined</w>
bri ef
7 8
me h</w>
Priv ate</w>
G and
Ch uck</w>
FIN ALLY</w>
achiev ed</w>
f eeding</w>
S -
En joy
Bla ke</w>
ea cho
08 :
Franc is</w>
N ash</w>
CR YING</w>
Drea ms</w>
z il</w>
pa irs</w>
To wn
p ha</w>
t ant</w>
Li z
hor ses</w>
V in
wr ites</w>
ch annels</w>
Prem ium</w>
f ag
p i</w>
n ab
gr ounds</w>
ea sed</w>
pul ls</w>
sa pp</w>
gr ant</w>
3 0.
loo l</w>
j ah</w>
es ca
Ric h
Saf ety</w>
Stand ard</w>
A hh</w>
R h
con dem
fil ter</w>
hom ies</w>
# ha
de tail</w>
3 50</w>
Pri de</w>
ro t</w>
k out</w>
bro s</w>
in spire</w>
lat ter</w>
G em
sea s</w>
h v</w>
comp lim
encou rage</w>
ter rif
HEA RT</w>
1 10</w>
d ms</w>
fro zen</w>
e c</w>
impro ved</w>
N ER</w>
pi erc
cha ts</w>
Intro duc
se ed</w>
ML B</w>
So vi
v ids</w>
cal l
Ex pl
d r</w>
R ab
j an
col on
med al</w>
Lo w
:airplan e:</w>
reali zing</w>
be ans</w>
br on
dy nam
Z ero</w>
#B u
natur ally</w>
demon str
Mo tiv
ver sions</w>
Bey ond</w>
A bu
roo ts</w>
Ro ger</w>
cel ls</w>
H is
R e</w>
Po lic
Heal thy</w>
retar ded</w>
coo ked</w>
7 pm</w>
po s</w>
N eeds</w>
# jo
x on</w>
dri ven</w>
F ru
inst a</w>
Han nah</w>
form at</w>
Gol d
per sons</w>
ff ing</w>
re ward</w>
min ded</w>
G omez</w>
14 th</w>
tri ps</w>
Ma h
stress ful</w>
Sp ee
An ne</w>
ali ke</w>
short ly</w>
In si
sal ty</w>
gra d</w>
ish ment</w>
:dog _face:</w>
ho sted</w>
W hole</w>
dis crimin
i an
footb all:</w>
jud ging</w>
t act
La ura</w>
nee d
chee k</w>
# sh
mor on</w>
l ll</w>
07 :
shee ts</w>
itec ture</w>
g :</w>
st ati
sett led</w>
monkey s</w>
Son gs</w>
#t ech</w>
ess ories</w>
Pro mo
N ature</w>
i ana</w>
UT C</w>
Do gs</w>
inn ings</w>
B uck
R on</w>
C ALL</w>
n udes</w>
T able</w>
m es
7 5
W ER</w>
employ ee</w>
wh ip</w>
const itu
gl or
R at
H oc
po tato</w>
N elson</w>
# 10
some what</w>
Lap top</w>
en na</w>
con dition
Pa ul
um ble</w>
H ood</w>
#E MA
I mm
perf ection</w>
prot ected</w>
bea ten</w>
Br andon</w>
ri or</w>
06 :
Mel bourne</w>
:black _heart:</w>
Penn sylvania</w>
bil ities</w>
hol der</w>
sp it</w>
Tok yo</w>
B ang</w>
N B</w>
wh i
V R</w>
TH ATS</w>
re stor
j ury</w>
R ou
D R</w>
c ups</w>
pas sion
mean ing
R ules</w>
j u</w>
8 p</w>
ic tion</w>
enc er</w>
Spo tify</w>
promo ting</w>
St ep
Ar thur</w>
gu m</w>
H O</w>
D aw
h l</w>
Wis consin</w>
Wa ve</w>
rela xing</w>
Mon ster</w>
tro ll</w>
#No t
grocer y</w>
Du bai</w>
tag ged</w>
fr m</w>
ad ore</w>
per mission</w>
C ook</w>
comb at</w>
Cast le</w>
the -
m ex
Tr uck</w>
adv anced</w>
st im
Mad ison</w>
G as</w>
d ens</w>
F ear</w>
BB Q</w>
mur dered</w>
8 0s</w>
mail .com</w>
Pl z</w>
categ ory</w>
re fer</w>
ge dy</w>
St age</w>
dest ination</w>
suggest ions</w>
at o
dark ness</w>
C P
R ay
sm ith</w>
#G ood
back wards</w>
form ing</w>
M ale</w>
b outa</w>
L INE</w>
kis sed</w>
pis ses</w>
co aching</w>
c ed
t ney</w>
long -
sha dow</w>
b ber
cer eal</w>
Pi ece</w>
remo te</w>
L ane</w>
:sun _with_
:sun_with_ face:</w>
Qu otes</w>
HO PE</w>
dep th</w>
fli r
b n</w>
BEAUTI FUL</w>
Sec onds</w>
sna ke</w>
Vil lage</w>
o be
Alex ander</w>
po le</w>
sound track</w>
tra v
No w
charac ter
Vide os</w>
langu ages</w>
am id</w>
v als</w>
BO Y</w>
av an
p ound</w>
ja b</w>
p tions</w>
k el
ol dest</w>
Y u</w>
hon ey
Pa in</w>
05 :
K O</w>
cr uc
N W</w>
Sha wn</w>
ett es</w>
C ame</w>
ma kin</w>
pl ug</w>
C row
so ber</w>
S par
st ep
ell i</w>
I d</w>
# An
s ink</w>
Pro blem</w>
ing -
# car
st ic
B ill
G -
M all</w>
chea per</w>
em i
en o</w>
TR UMP</w>
2/ 2</w>
us a</w>
Fin als</w>
g if</w>
wra pped</w>
ter ror</w>
Re p</w>
heav y
conflic t</w>
# u
S wit
comb ination</w>
nomin ee</w>
Bey oncé</w>
ra di
t nite</w>
IN A</w>
Rec ru
success fully</w>
M U
st eel</w>
Polit ics</w>
it is</w>
Ad ams</w>
New castle</w>
pa inted</w>
# La
expressi on</w>
su spec
L eeds</w>
Me tro</w>
Cam p
N ation
s essions</w>
co ke</w>
th ursday</w>
M ENT</w>
anc e
Fr i</w>
C lin
7 :30</w>
mag ical</w>
S I</w>
R ome</w>
gra ve</w>
cal endar</w>
la m
Prof essor</w>
T LY</w>
bad ass</w>
prepar ing</w>
F ul
addic tion</w>
at omy</w>
cur se</w>
Comm unic
Ben ef
AC TU
mus cle</w>
Break fast</w>
acti vi
ne x
Bu hari</w>
k ha
C E
sp anish</w>
S cri
valu able</w>
tast es</w>
illi on
for cing</w>
Ste wart</w>
Des cri
ad ds</w>
In fin
Sain ts</w>
198 4</w>
H ands</w>
lab or</w>
T ory</w>
CH AN
thank you</w>
wor lds</w>
Pu erto</w>
:speak ing_head:</w>
boo th</w>
vul ner
aff ili
Pat riots</w>
il ation</w>
k ay
f old</w>
j is</w>
develo ping</w>
Wil d
K h
S EN
AR D</w>
BE LIE
: ali
Ke ith</w>
Cla ss
W ants</w>
W rit
terror ists</w>
sor ry
#Th ank
ma xim
#B ig
K ind</w>
lig ence</w>
rem ents</w>
Bir mingham</w>
I dea
mem es</w>
ir l</w>
di p</w>
Tem ple</w>
re tail</w>
de e</w>
k ar</w>
04 :
ei ghts</w>
W ed</w>
ic ial</w>
di agno
re t
Palest in
G C</w>
ro cking</w>
K D</w>
M ass</w>
resi st</w>
ve gan</w>
Im port
Ac count</w>
D -
min ent</w>
regu larly</w>
FEE L</w>
bu mp</w>
stra ight
th is
co tt</w>
Scho ols</w>
N ever
HH H</w>
ado pted</w>
N ative</w>
Sp on
lec ture</w>
#V MA</w>
T ol
AF TER</w>
G EN
, 9
hum idity</w>
stor age</w>
Cu stom</w>
Fin na</w>
consc ious</w>
Happ iness</w>
mee tings</w>
Bea ts</w>
line up</w>
dra gon</w>
serv ation</w>
stor ms</w>
I -
conspir acy</w>
ec o
ev alu
reason able</w>
:micro phone:</w>
goo ds</w>
Pr ay</w>
W ill
sc al
answ ering</w>
y cle</w>
ST U
to wn
LI TER
In crea
An alysis</w>
phys ics</w>
P et</w>
e i</w>
C -
ho st:</w>
:g host:</w>
stea k</w>
re presented</w>
IN TER
M VP</w>
sgo w</w>
dic t
comm itment</w>
our _
P ittsburgh</w>
W ind
pol ls</w>
sc andal</w>
ut umn</w>
H ear</w>
Fal ls</w>
Ne il</w>
hair cut</w>
my stery</w>
E m</w>
is her</w>
impl em
Spre e</w>
F LO
Try na</w>
mo squ
H its</w>
L ol
kk i</w>
op tim
Ch ance</w>
e ut
el ines</w>
Ber ry</w>
Ch ill</w>
assho les</w>
8 00
S ma
en h
N CAA</w>
gu s</w>
to wer</w>
O ME</w>
Deb ate</w>
E vil</w>
guit ar
kk k</w>
G OO
foot age</w>
rec all</w>
vol leyball</w>
Dra ft</w>
S ET</w>
D s</w>
ur ban</w>
FO RE</w>
commerci als</w>
def ine</w>
L Y
man ip
H ang
G ordon</w>
tra il</w>
yy yy
36 5</w>
satis fied</w>
Li ke
land ed</w>
e uro
pl u
Fin ding</w>
tit led</w>
citiz en</w>
gu ests</w>
f it
n d
BOO K</w>
open _mouth:</w>
di plo
W as
H ours</w>
Sum mit</w>
w y</w>
ch uck
3. 0</w>
po sure</w>
Whit e
_with_ wing
:money _with_wing
:money_with_wing s:</w>
TR UE</w>
inno v
possi bility</w>
197 5</w>
haha h
B ird</w>
re lat
u ality</w>
spo tted</w>
pic ally</w>
:f our_
# happy
Ber lin</w>
co al</w>
vir gin</w>
# business</w>
bir th
champ ions</w>
# Par
critic ism</w>
mem bership</w>
#R ed
h ired</w>
sol ar</w>
cap tured</w>
f oul</w>
tou ch
bast ard</w>
U kraine</w>
class y</w>
198 0</w>
g ment</w>
Gu il
Tech n
Mo ving</w>
b acked</w>
n ations</w>
ã o</w>
pri mar
ed itor</w>
LO RD</w>
UR S</w>
mad ness</w>
PAR TY</w>
CON T
MON EY</w>
squ ee
or e
par ade</w>
L ex
light :</w>
sp elling</w>
mu seum</w>
t r</w>
: index_pointing_
:index_pointing_ up:</w>
F ly</w>
RR RR
declar ed</w>
bi ased</w>
merc y</w>
after wards</w>
M F</w>
glass :</w>
Sy m
Ob viously</w>
#O ne
Du blin</w>
Li ghts</w>
Ob am
Le on
str eng
control led</w>
V ancouver</w>
nam an</w>
sp ray</w>
R ide</w>
do se</w>
frustr ating</w>
consequ ences</w>
at t</w>
swea ter</w>
eacho ther</w>
tun es</w>
b orrow</w>
pis sing</w>
Pre -
com fy</w>
fore head</w>
go v</w>
# Peop
ea ch
h ers</w>
war ming</w>
Lea dership</w>
ffic i
correc tly</w>
D id
cin ema</w>
_ balloon:</w>
assi stant</w>
F S</w>
ANY THING</w>
sp ider</w>
ven ess</w>
es -
bl em
F i</w>
alo gue</w>
sev ere</w>
T bh</w>
1. 0</w>
fil ming</w>
anno y</w>
sel s</w>
Quest ions</w>
S K</w>
J o</w>
Smart phone</w>
bull ying</w>
pro ves</w>
narr ative</w>
H o</w>
amer ica</w>
Uni versal</w>
Mean while</w>
Hea vy</w>
Def ense</w>
sub sequ
c c
inst ream</w>
inv ented</w>
power ed</w>
choo sing</w>
v acc
S AT
explan ation</w>
QU E</w>
ip al</w>
inst ein</w>
f ford</w>
fac ial</w>
con tr
#t cot</w>
G ul
E dge</w>
mea sures</w>
DI O</w>
Na zi</w>
should ers</w>
motiv ated</w>
PERF ECT</w>
Liz Qu
u ted</w>
Cow boys</w>
Braz ilian</w>
flow er:</w>
high way</w>
B all
Do or</w>
ge on</w>
consi sts</w>
S ite</w>
Pri ze</w>
go ds</w>
ne tt</w>
bloc k
recomm end
Bra in</w>
priv acy</w>
clo ver:</w>
leaf_ clover:</w>
:four_ leaf_clover:</w>
assum ing</w>
A d</w>
ta k</w>
laun ches</w>
COM ING</w>
Fin ance</w>
Pop ular</w>
Clar k</w>
m ber</w>
Ch ev
dash ing_
wi ves</w>
: dashing_
away :</w>
:dashing_ away:</w>
re publi
Corpor ation</w>
concer ts</w>
fi ghters</w>
ache lor</w>
Week ly</w>
surr ounded</w>
#f b</w>
sp i
der ly</w>
bro ok</w>
IN S</w>
TW I
bu ff
TI M
ho spit
recogni zed</w>
and -
as a</w>
1 20
at mo
it er</w>
tr ans</w>
cl ever</w>
m ou
C HO
Tom my</w>
25 th</w>
K K</w>
C itiz
ro les</w>
Val ue</w>
Gra b</w>
em e
announ ces</w>
privile ge</w>
str angers</w>
ation _
Mar yland</w>
tran sport</w>
Al bert</w>
:police_ car
s have</w>
k pop</w>
Br yan</w>
#W hat
Clim ate</w>
Id c</w>
sport ation</w>
O tt
Z im
Br illiant</w>
h int</w>
it ar</w>
Ex tra</w>
descri ption</w>
en thusi
S ING
: tongue:</w>
Hon ey</w>
de a</w>
9 8
Sy stems</w>
D om
a j
S ul
net works</w>
Pe te</w>
di m
#C am
sac rifice</w>
A dri
Th or
# mo
n ever
03 :
re form</w>
reg ard</w>
Pic tures</w>
tran sm
cam paig
A Z</w>
cas m</w>
bu lly</w>
Mis sion</w>
Ter ry</w>
Th an
FAC E</w>
Gre g</w>
N Z</w>
So lid</w>
bl ings</w>
Sp id
OU GHT</w>
coun ted</w>
D irty</w>
as well</w>
stoc ks</w>
1- 0</w>
blo ws</w>
7 :
Lo se</w>
of -
CA P
#C ol
S ister</w>
sa m</w>
# br
OU D</w>
ru bb
sto l</w>
no o
R are</w>
ti est</w>
em _
Sub scri
wat ch
cap ture</w>
BE FORE</w>
lo cal
s cheme</w>
W iz
M ill</w>
reduc ed</w>
s nee
attemp ts</w>
JO B</w>
@ g
go vernor</w>
h r
frea kin</w>
Frank lin</w>
ick ey</w>
introduc e</w>
carto on</w>
Tur kish</w>
cla ssi
chee ks</w>
bi ble</w>
Pear l</w>
k s
O d
198 8</w>
sh ite</w>
UT Y</w>
g ely</w>
est ers</w>
fa shi
yl an</w>
Real ity</w>
ghan istan</w>
Sha k
K a</w>
THAN KS</w>
Prem i
HO USE</w>
des c
Car s</w>
son g
Por n</w>
ass up</w>
for mal</w>
S R
In no
FA V
b ound
cru el</w>
et ooth</w>
acad emic</w>
and er
Sof t</w>
is y</w>
K ay</w>
a un
sen s
Ro bin
o h
Com pan
engine ering</w>
Viet nam</w>
Ha i</w>
loc ker</w>
#MA GA</w>
S ay
E C</w>
incor por
_ light:</w>
M ean</w>
Sty les</w>
F light</w>
In dependent</w>
Tal ks</w>
increa sing</w>
Jo y</w>
discus sing</w>
ner ve</w>
Po lish</w>
ston e:</w>
Har mony</w>
K atie</w>
mar ked</w>
fas c
def ence</w>
scr atch</w>
mon key</w>
loc ks</w>
Cro ss
dep ending</w>
exp an
C lif
N C
Ca in</w>
vie wers</w>
out come</w>
lif ting</w>
6 5
F rea
Ca pe</w>
Liber al</w>
v on</w>
av e
sn app
Plan ning</w>
re solution</w>
s sm
respon ding</w>
divid ed</w>
:g em_
:gem_ stone:</w>
ri sm</w>
p umped</w>
ra ped</w>
Mar t
ron ic
so ap</w>
w ol
Off ers</w>
pr inted</w>
C and
dau ghters</w>
sugg ested</w>
Y oun
N y
in dia</w>
clo sure</w>
z ers</w>
survi ved</w>
Pal ace</w>
F arm</w>
C RI
F our
S oo</w>
NAS A</w>
Cha se</w>
S ooo</w>
Acc ess</w>
L o</w>
in ding</w>
T B</w>
S now
bel ongs</w>
ri x</w>
americ an_
G host</w>
i x
am bit
L F</w>
tu b</w>
el ed</w>
o s
6 :30</w>
50 s</w>
C OULD</w>
de v</w>
ther lands</w>
00 00</w>
#C an
H ip</w>
uc ker</w>
ta ke
sw ag
recogn ition</w>
con tain</w>
defin ed</w>
A B</w>
d g
# tr
w o</w>
bit coin</w>
ad i</w>
vehic les</w>
fair ly</w>
PHO TO
AW ES
supp lies</w>
ki k</w>
: american_
:american_ football:</w>
do or
Health care</w>
SM H</w>
un real</w>
: r
accomp lished</w>
on ia</w>
on es
02 :
new ly</w>
b -
pro mp
in less</w>
B iden</w>
S n
N er
me tr
Gen u
h it
zz zz
heavy_ check_mark:</w>
:white_ heavy_check_mark:</w>
p ills</w>
terror ism</w>
be half</w>
Kend rick</w>
be ta</w>
str o</w>
DI Y</w>
w oulda</w>
Ara bia</w>
si al</w>
Cra ig</w>
J am</w>
re p</w>
direc tion
leg acy</w>
- based</w>
ty ping</w>
Engine ering</w>
suppor ter</w>
com ics</w>
DO WN
# IC
LIST EN</w>
Sovi et</w>
F est</w>
repl ying</w>
t ane
le ft:</w>
L G</w>
Fe el
conclu sion</w>
a vi
# follow
spo iled</w>
U tah</w>
Nur se</w>
H ab
M ention</w>
# real
ri pped</w>
ur self</w>
birthday _
en n</w>
P oc
au gh</w>
pp i</w>
tack le</w>
#vote 5sos</w>
fuc kers</w>
t down</w>
s cape</w>
sour i</w>
less ly</w>
coo lest</w>
: birthday_
:birthday_ cake:</w>
Your self</w>
di amond</w>
Di et</w>
K -
L unch</w>
po em</w>
B c</w>
Revol ution</w>
DO ING</w>
pa r</w>
on ics</w>
la sh</w>
Re tro</w>
S ever
re ver
de par
shi p
Ex it</w>
an ic</w>
T ried</w>
HO LY</w>
pa th
Y ea
Sci enti
Cal i</w>
at er</w>
mut ual</w>
oooo ooo</w>
Con sum
spea kers</w>
R OO
A le
N et</w>
16 GB</w>
ha l</w>
B ap
mir acle</w>
shar p</w>
swee theart</w>
im s</w>
bad ge</w>
Y EARS</w>
stre t
ac les</w>
Ar k
Euro pe
gh etto</w>
ü r
end less</w>
Ph ones</w>
boo king</w>
enter ing</w>
r lly</w>
gi on</w>
suffer ed</w>
ch ic</w>
competit ive</w>
oper ating</w>
Nic ole</w>
xxxx xxxx
appro val</w>
hun ger</w>
rea listic</w>
sm ack</w>
Bir thday
R ico</w>
k r</w>
M assi
S IL
cap ital
Rea son</w>
wa h</w>
La unch</w>
s ounded</w>
Law rence</w>
ank le</w>
fun dra
S even</w>
C ell</w>
gre en
BO X</w>
S cal
vi br
Guar dian</w>
accep ting</w>
t mrw</w>
init ial</w>
L uck</w>
ic ious</w>
A bra
de -
stro ke</w>
du h</w>
fire works</w>
Ox ford</w>
gall ery</w>
T aco</w>
u ll</w>
tw enty</w>
G if
JUST IN</w>
mon thly</w>
bur st</w>
9 11</w>
G T</w>
Ur ban</w>
re pair</w>
G ucci</w>
spon sored</w>
ha tt
Opp ort
N on
ti sm</w>
b lea
Ara b</w>
fun ded</w>
or ation</w>
Su sp
BE ING</w>
#M u
wal k
eng agement</w>
sing les</w>
iz es</w>
por n
LO AD</w>
R ice</w>
N HS</w>
' n</w>
S ni
key board</w>
tro phy</w>
x box</w>
MAN Y</w>
wa g</w>
Par ker</w>
e h
_po lish
il _polish
:na il_polish
:nail_polish :</w>
stup id
dee per</w>
:right _arrow:</w>
S wear</w>
OFF IC
Mem ories</w>
Per i
Re turn</w>
grea tly</w>
198 7</w>
G ear</w>
p im
H unt</w>
cro ssing</w>
O LD</w>
@g mail.com</w>
gar age</w>
30 th</w>
B UR
st ones</w>
OK :</w>
:person_gesturing_ OK:</w>
pro tein</w>
ca ps</w>
loo p</w>
ad ing</w>
spo il</w>
E p</w>
Bar ry</w>
# 0
m it
strea k</w>
Ba be</w>
dis appear</w>
s burg</w>
R oute</w>
bu gs</w>
mor nings</w>
Sy rian</w>
au gur
PR OUD</w>
Man ila</w>
D et
cop ies</w>
l on</w>
eb s</w>
expla ined</w>
w d</w>
graph ics</w>
lo ans</w>
Fact ory</w>
hum an
me e</w>
thu g</w>
C AS
Mom ent</w>
F eder
ati o</w>
dis hes</w>
vag ina</w>
iv ity</w>
F ed</w>
Me dium</w>
un fair</w>
dem o
AA A</w>
eer an</w>
Sta ff</w>
y or
Yor k
Hit ler</w>
secre tly</w>
M ember</w>
G et
App lic
Gr ant</w>
Ly rics</w>
Uni verse</w>
peri o
Differ ent</w>
o x</w>
cu r</w>
F AM
frustr ated</w>
el ements</w>
necess arily</w>
if ication</w>
24 .
Kenne dy</w>
L mfa
cro wn</w>
vir tual</w>
A qu
:open _hands:</w>
re jected</w>
P lu
TT Y</w>
spir itual</w>
Pla yers</w>
IS S</w>
dead line</w>
liber als</w>
je welry</w>
6 pm</w>
Am ber</w>
# love</w>
adm itted</w>
pro j
dro me</w>
M ING</w>
gus on</w>
lu xury</w>
tt en
a il</w>
Con c
LITER ALLY</w>
ham mad</w>
Agre ed</w>
re b
no ted</w>
Co tton</w>
s cam</w>
symp toms</w>
threa ts</w>
rea d
k itty</w>
in ds</w>
Buff alo</w>
Gra du
F it
F red
an te</w>
wher ever</w>
ll ll</w>
U td</w>
Wom ens</w>
tur key</w>
#Th ings
For eign</w>
happ ily</w>
b ree
wom an
sub mit</w>
s ane</w>
hoo die</w>
in tim
Con test</w>
Ther ap
ob session</w>
tor ture</w>
W rest
Y ALL</w>
Sel ling</w>
198 6</w>
: people
y g</w>
#S ha
Gra m
m ill
rep utation</w>
O _
oppo sed</w>
work shop</w>
Har vey</w>
ag ents</w>
promo ted</w>
dro ol
exc ep
deter mine</w>
# Do
er ra</w>
Pro per
Li on</w>
gram mar</w>
be c</w>
H C</w>
pp les</w>
11 -
medi um</w>
surr ounding</w>
E ast
wrec k</w>
F el
k t</w>
expl ore</w>
Al one</w>
str uck</w>
ed a</w>
fa de</w>
ca fe</w>
D T</w>
attrac ted</w>
emo tion</w>
thank sgiving</w>
FRI ENDS</w>
na do</w>
ja zz</w>
Whe ther</w>
inst all</w>
# sp
jer k</w>
Dol lar</w>
Mont ana</w>
Ter ror
Can not</w>
W I</w>
Jo ey</w>
#m tv
po inted</w>
Crea tive</w>
S ri</w>
IN D
p ile</w>
bassad or</w>
Lab or</w>
MA G
dis grace</w>
Br acelet</w>
cri es</w>
Cha in</w>
Nash ville</w>
kar ma</w>
BT W</w>
AWES OME</w>
:police_car _light:</w>
rec t</w>
char ts</w>
Plan et</w>
EN G
Pre view</w>
g ates</w>
ro bot</w>
prov ince</w>
hea ling</w>
p our</w>
wh ist
Coo per</w>
ra d</w>
sc ru
P ure</w>
Invest ig
S ev
F ish</w>
Cul ture</w>
La gos</w>
m ales</w>
5 ,
for ecast</w>
ag gressive</w>
resta urants</w>
u de</w>
a we</w>
tion ary</w>
Port ugal</w>
ff les</w>
: bouqu
:bouqu et:</w>
sav ings</w>
co inc
In fo</w>
ta iled</w>
ca sts</w>
emp his</w>
low est</w>
BO YS</w>
Bra d</w>
Ag ency</w>
reven ge</w>
bunn y_
Gr ou
stur b
b ears</w>
Sol ar</w>
EXC ITED</w>
D i</w>
ear s:</w>
_with_ bunny_
:people _with_bunny_
:people_with_bunny_ ears:</w>
W inner</w>
t ee</w>
man e</w>
ech nology</w>
E 'S</w>
al lies</w>
198 5</w>
M am
your selves</w>
Ang els</w>
To y</w>
B IG
brea st</w>
C rew</w>
ti x</w>
Coll ins</w>
p ump</w>
D at
BL UE</w>
on i</w>
ma g</w>
-F i</w>
scienti fic</w>
s al</w>
premi ere</w>
gro ws</w>
2 k</w>
be in</w>
#th at
PH ONE</w>
Bl essed</w>
gg ings</w>
dd ess</w>
For ecast</w>
S OU
ar d
in um</w>
kni fe
bla ming</w>
B our
SP EC
Na i
7 9
ur i</w>
#Soc ial
Li ons</w>
d al
lic op
hon esty</w>
far mers</w>
char ging</w>
the irs</w>
po sit</w>
bu ried</w>
go ver
pean ut</w>
Re gar
B ears</w>
# Trump</w>
t n</w>
class room</w>
TI L</w>
po pped</w>
sha des</w>
g ons</w>
B AS
cer tific
Rac ing</w>
den ied</w>
N ations</w>
gi um</w>
cha n</w>
r ating</w>
ino sa
un necessary</w>
the e</w>
grand pa</w>
Grea test</w>
tri ple</w>
S wis
s b
fac ilities</w>
ee zy</w>
in her
ant ine</w>
sho cking</w>
s Of
er ial</w>
P on
W R</w>
coo per
Ga in</w>
sea son
su ff
her o
k top</w>
inter n
car pet</w>
A di
pro -
auth orities</w>
Ul tra</w>
part ments</w>
C OUN
Ed die</w>
pract ices</w>
stre ssing</w>
ree -
El li
Le ic
jud ges</w>
Sto ck
Tit le</w>
compar ison</w>
s ack</w>
xx xxx</w>
San ta
EE E</w>
under wear</w>
b old</w>
Sing h</w>
S ep</w>
BT C</w>
sk irt</w>
house holds</w>
tar ian</w>
Direc t</w>
cy c
tem ple</w>
#N FL</w>
Artic le</w>
W ant
Pract ice</w>
Comm un
FO X</w>
sha ped</w>
loc ations</w>
rel ations</w>
M oun
ter ing</w>
o hhh</w>
Cas ino</w>
Christ op
the mat
bra ins</w>
M TV
A G</w>
sa f
Answ er</w>
ac are</w>
Good bye</w>
E X</w>
f h</w>
po inting</w>
pl ess</w>
AT L</w>
ar io</w>
for real</w>
auth or
Emer gency</w>
rel ation</w>
S UR
# ed
A lice</w>
clim b</w>
Pl aces</w>
ext ension</w>
AM A</w>
poo p</w>
c ker</w>
bu m
mea ls</w>
antic ip
Ev ans</w>
Ab out
STA R</w>
M our
tu esday</w>
M IC
H ON
cal y
Hoc key</w>
ab road</w>
S tru
H ER
mut uals</w>
Na z
tes y</w>
Ba se</w>
jo ins</w>
AL ERT</w>
squ ar
Gra de</w>
M on</w>
di ary</w>
T M</w>
m acy</w>
stea dy</w>
sn acks</w>
p acks</w>
K en</w>
hypo cr
Grow th</w>
Announ ces</w>
N ancy</w>
com pl
in di
n s
de er</w>
la m</w>
# fin
im pression</w>
ner d</w>
b en</w>
wi g</w>
f ate</w>
heav ily</w>
M entions</w>
ban an
Car eer</w>
ma m</w>
refuge es</w>
EN S</w>
Mar ine</w>
low -
#B rea
dev o
swit ched</w>
fir st
fin est</w>
:backhand_index_pointing_ left:</w>
re fs</w>
sel ect</w>
D B
atur es</w>
k ia</w>
Re tail</w>
relea sing</w>
tax i</w>
th ri
FR ID
br ick</w>
identi fy</w>
angel :</w>
:baby_ angel:</w>
rist s</w>
pr ou
teen age</w>
P sal
ati vity</w>
Mil an</w>
25 .
li ke
ga ins</w>
ur us</w>
C ARE</w>
tr usted</w>
qu er
th i</w>
Mid night</w>
um ber
di versity</w>
w ire</w>
R ush</w>
J E
el p</w>
pl ant
Mis souri</w>
WEE K</w>
AR I
sn ack</w>
hon ored</w>
ma intenance</w>
Bo o</w>
Mis sis
th under</w>
WR ONG</w>
w ling</w>
prot ecting</w>
equi valent</w>
star ving</w>
he hehe</w>
Ju an</w>
exist ed</w>
ay y</w>
re fre
Mar ie</w>
Chea p</w>
threat ened</w>
tor al</w>
m ere</w>
Br an
F ame</w>
cr acking</w>
Ne therlands</w>
ar rog
D RE
Sh outout</w>
ha y</w>
ang els</w>
Ral ph</w>
Mis sed</w>
et ly</w>
W H</w>
attemp ted</w>
K I
cred its</w>
nau ghty</w>
hy ped</w>
coo ler</w>
gi ble</w>
ver sus</w>
L td</w>
G ate</w>
c reep</w>
Swed ish</w>
ma ths</w>
clo ses</w>
un ted</w>
inst alled</w>
sh eep</w>
tac o</w>
th am</w>
jo e</w>
re vi
WHO LE</w>
T ut
rum ors</w>
# sorry
V irus</w>
:th ought
:thought _balloon:</w>
squ ir
Un cle</w>
p enc
TAL K</w>
circum stances</w>
T f</w>
H AN
Z om
Cour se</w>
# RI
Ap r</w>
boar ding</w>
N ig
pop corn</w>
smil ed</w>
L un
Ash ton</w>
sou ls</w>
i que</w>
Yo ga</w>
ex o</w>
J ES
DI A</w>
ac ing</w>
Dr ink</w>
Tig ers</w>
S low</w>
I ran
mari juana</w>
pot le</w>
conveni ence</w>
bro ad</w>
Am anda</w>
for cement</w>
tro l
vis ual</w>
B an</w>
emo tionally</w>
V MA</w>
Ra j
w ick</w>
x 2</w>
list ing</w>
X X</w>
ru ining</w>
dem on</w>
low ing</w>
est one</w>
ear thquake</w>
Choo se</w>
fav our</w>
IL L
# wh
E t
conduc t</w>
inter nal</w>
_ circle:</w>
arg uments</w>
yel led</w>
tr icks</w>
SOR RY</w>
fac ility</w>
:0 5</w>
P ussy</w>
ch up</w>
UU UU
Photo graphy</w>
boy friends</w>
Pro ver
per or</w>
sal ary</w>
sun set</w>
L ink
Gu ard</w>
S wan
#M an
embr ace</w>
fi x
identi fied</w>
is ha</w>
Fun d</w>
regi me</w>
sam ple</w>
ا ل
po ckets</w>
Al ber
bri ef</w>
Can on</w>
RA W</w>
T RE
inf ra
pand emic</w>
Tha iland</w>
O hh</w>
ac u
J as
V el
leaf :</w>
cre te</w>
rat ings</w>
t us</w>
liqu or</w>
Fin ished</w>
Leg al</w>
B AR
Ad ap
dr un
ha s
volunte er</w>
Idea s</w>
gra ded</w>
Oli ver</w>
in dependence</w>
w x</w>
aa h</w>
Ly ft</w>
celebr ities</w>
re cover</w>
vis ions</w>
SE C</w>
bl ank</w>
D ak
#S y
NIG GA</w>
dis abled</w>
apo logy</w>
me l</w>
bu ys</w>
TI C</w>
B AN
wor ri
bul let</w>
Y i
Sad ly</w>
K O
co tt
investig ate</w>
b ounce</w>
ution ary</w>
Polit ical</w>
vo dka</w>
lon don</w>
ca ster</w>
dea dly</w>
cha os</w>
t aylor</w>
w th</w>
197 0</w>
Ad vice</w>
# USA</w>
equ ally</w>
Blu etooth</w>
: aston
:aston ished_face:</w>
T reat</w>
a ve</w>
B anks</w>
Bi o
expla ining</w>
disappo inting</w>
DEA D</w>
Arti sts</w>
NA ME</w>
Pro vid
E mo
Champ ion</w>
l ining</w>
be tes</w>
col leagues</w>
aband oned</w>
revol ution</w>
am ong
D ang</w>
d '
c d</w>
ro yal</w>
hom ecoming</w>
n ig
__ _
Bec ome</w>
Wor d
f ies</w>
C IA</w>
Gla sgow</w>
b d</w>
Ear rings</w>
Off er</w>
G en</w>
shoul da</w>
franch ise</w>
Ex am
ro ad
V inc
frequ ently</w>
dr um
lo lolol</w>
Tra ding</w>
surpri sing</w>
le t
de o</w>
ak ar
stup idity</w>
emo jis</w>
z oo</w>
el se
Cou ple</w>
mil k
re venue</w>
nur se</w>
blu es</w>
E pic</w>
_mo on:</w>
po pping</w>
C OU
ste pped</w>
F U</w>
tt tt</w>
scienti sts</w>
sh o</w>
# ge
B it</w>
AW AY</w>
fle w</w>
OO K</w>
v est</w>
L as
e th</w>
Venezu ela</w>
ra ilway</w>
Dis cover</w>
o '
Gy m</w>
A RE
T R</w>
anx ious</w>
moun tains</w>
SOME THING</w>
vis its</w>
Gam ing</w>
4 00
stri es</w>
C HAR
coll ected</w>
6 9
ty pically</w>
H OR
pe dia</w>
sh ining</w>
Ran dom</w>
mouth _face:</w>
Af ghanistan</w>
ri dge</w>
Kath Ni
ic i
che z</w>
too th</w>
Y ankees</w>
L ES</w>
C .</w>
YY YY
Char ger</w>
Ta g</w>
Par adise</w>
beli efs</w>
reli able</w>
ne ts</w>
n ug
ge e</w>
re tweeting</w>
Play Station</w>
st icking</w>
_ Cla
un ve
ri val</w>
Min istry</w>
stal k</w>
D ylan</w>
Brun o</w>
K A</w>
con gress</w>
High way</w>
mi ke</w>
Bri ght
L T</w>
photo graph
t ing
_Cla us:</w>
lo y</w>
col or
second ary</w>
hoo ked</w>
M U</w>
fas cin
O G</w>
C up
2- 0</w>
ED T</w>
techn ically</w>
journ alism</w>
J ean</w>
lo ool</w>
d ick
Ha hah</w>
:cros sed
valent ines</w>
L ad
ten sion</w>
Fin ish</w>
land ing</w>
d entist</w>
Tri p</w>
Pe lo
V C</w>
dev ast
crimin als</w>
oul der</w>
su perior</w>
ric h
v intage</w>
NO R
Pro gra
Co dy</w>
#T hat
wag on</w>
passion ate</w>
alo g</w>
inno vation</w>
Jen ner</w>
En treprene
weak ness</w>
mor e
Figh ting</w>
Co sta</w>
W ear</w>
tr um</w>
dru m</w>
Bis hop</w>
O ps</w>
sa ves</w>
A GE</w>
you uu</w>
scho lar
stri ker</w>
UG H
:sun flower:</w>
Follow Spree</w>
B igg
organiz ations</w>
own s</w>
Shoo ting</w>
br ands</w>
Mar cus</w>
ear ning</w>
Spea ker</w>
pro cra
Su gar</w>
cr ack
18 0</w>
sp elled</w>
l b</w>
TO R</w>
ma instream</w>
Y outube</w>
S ID
ON AL</w>
j unk</w>
Gu itar</w>
ist a</w>
in secure</w>
star ring</w>
inst ant</w>
H D
ell as</w>
Conserv ative</w>
# fre
Rec o
Shar es</w>
su bs</w>
K ick
Ru le</w>
Ca st</w>
BEA UTY</w>
any a</w>
PP ING</w>
pre scri
af fordable</w>
Slee ve</w>
journ alists</w>
Jack et</w>
travel ed</w>
Ag ree</w>
Woo ds</w>
ro ck
do c</w>
philosop hy</w>
TWI TTER</w>
estim ated</w>
P ed
l er
ru ption</w>
TH AT
AN E</w>
Th ous
j st</w>
middle _fing
: middle_fing
:middle_fing er:</w>
: star
inf o
Too ls</w>
ra ppers</w>
k el</w>
Cal ls</w>
c tfu</w>
om i</w>
swi ft</w>
destro ying</w>
down loaded</w>
P ast</w>
S lim</w>
K NO
h d</w>
s ence</w>
dre ss
multi -
#a us
Car l</w>
LE TS</w>
: Santa
:Santa _Claus:</w>
er n
wo ah</w>
mach ines</w>
Rea li
en :</w>
Sc ore</w>
Ca ke</w>
pol is</w>
set ts</w>
rain bow</w>
-R SB-</w>
sh r
Pa per
m ouse</w>
B uc
ri sh
S wea
lic a</w>
C L</w>
x 3</w>
w est
T en
nick name</w>
Mo stly</w>
sc rat
ten der</w>
eng age</w>
Ro ad
Ju n</w>
#N ational
wea ve</w>
tur er</w>
Con struction</w>
del ays</w>
pol ar</w>
or i</w>
it ion
Mem bers</w>
zom bie</w>
o va</w>
a kes</w>
r ural</w>
pu n</w>
youn g
G ang</w>
atmo sphere</w>
essi ve</w>
g ently</w>
pur se</w>
ing ers</w>
t ups</w>
or g</w>
fo lio</w>
G ER</w>
D ark
Gall ery</w>
si l</w>
w ack</w>
Y MI</w>
ev es</w>
net flix</w>
bar a</w>
pa int
Adv enture</w>
For um</w>
in z</w>
Po st
st icker</w>
Desig ner</w>
in dian</w>
Tam pa</w>
Robin son</w>
tri ppin</w>
O D</w>
tro pical</w>
9 :
H UR
198 3</w>
-L SB-</w>
ph y
sad ness</w>
clo sely</w>
go at</w>
STOR Y</w>
exam ples</w>
ne st</w>
M itch
su bur
sub mitted</w>
flu tter
Clear ly</w>
:c loud
d f
Spo t</w>
ca b</w>
hu hu</w>
k le</w>
MO M</w>
comm entary</w>
stal king</w>
sha l
wi pe</w>
V IN
bun ny</w>
ali en</w>
Of The
RT s</w>
my ster
crea tes</w>
Cor byn</w>
ric ul
rain bow
e g
cre sc
smar ter</w>
achu setts</w>
among st</w>
Wa king</w>
R et
ra il</w>
or y
che f</w>
C ry</w>
198 2</w>
mater ials</w>
B R</w>
5 :30</w>
Mc Don
li ars</w>
k g</w>
fu me</w>
re presenting</w>
trac king</w>
P at</w>
ea led</w>
#P ho
K il
0 ,
ele b</w>
G at
pa sta</w>
r ounds</w>
Ro ses</w>
lic s</w>
pregn ancy</w>
S ant
prof its</w>
si blings</w>
am on</w>
p an</w>
v able</w>
bal d</w>
be loved</w>
over night</w>
App s</w>
# mu
Bon us</w>
temp ted</w>
He he</w>
el f</w>
oo k
Colo m
val ley</w>
ag ne</w>
E b
N an
F ew</w>
war ned</w>
g ay
Y es
Li es</w>
TH R
J i</w>
leg endary</w>
w ished</w>
pun ishment</w>
# quotes</w>
wonder ed</w>
#Teen Choice</w>
Follow Back</w>
rubb ish</w>
Kno wing</w>
ul tim
repor ter</w>
en dum</w>
S port
Ka sh
bas ement</w>
sub si
territ ory</w>
j ay
00 00
tri pping</w>
Dev il</w>
Colum bus</w>
gur l</w>
e u
art work</w>
bor o</w>
ob ject</w>
out standing</w>
dd ler</w>
8 6
a oke</w>
sub way</w>
br it
stan bul</w>
Ho es</w>
197 9</w>
stat ements</w>
Sta inless</w>
My stery</w>
a v</w>
slee ve</w>
Cam bridge</w>
sen iors</w>
min ority</w>
di d
Cent ury</w>
#Peop les
c ents</w>
sugg ests</w>
pan ties</w>
K on
f lood</w>
Mir ror</w>
ti ght
Bul ls</w>
p ir
arch y</w>
wal a</w>
El ite</w>
out fits</w>
pa c</w>
si ppi</w>
ch ris</w>
clu tch</w>
Ev ening</w>
2 day</w>
es is</w>
w all
Sky pe</w>
LI TTLE</w>
fa x</w>
Si x
ee p
s oo
8 9
ar ez</w>
spon sor</w>
min em</w>
D ancing</w>
Sur pri
J K
3 000</w>
ber ries</w>
pro posal</w>
Sh u
bu sh</w>
d l
pa k
ch inese</w>
photo grapher</w>
in qu
im press</w>
continu ing</w>
B ond</w>
Brad ley</w>
gg gg
Po dcast</w>
fu r</w>
NW T</w>
Regi onal</w>
behavi our</w>
re sume</w>
re union</w>
bi ans</w>
offic es</w>
d j</w>
A IR</w>
medi an</w>
Ad ult</w>
VI EW</w>
OP EN</w>
re verse</w>
et on</w>
el ds</w>
Exc use</w>
soldi er</w>
pri zes</w>
J us</w>
hal low
ac re</w>
# ar
metho ds</w>
occur red</w>
# what
iz er</w>
Lan gu
Wonder ful</w>
Fif th</w>
ro cket</w>
cha mp</w>
SS SS
stea m</w>
sum mer
Tur ns</w>
mo di
T ele
C inc
al d
mat ching</w>
enti onal</w>
Pra ying</w>
Slee ping</w>
F actor</w>
camer as</w>
bit es</w>
As king</w>
pol y
m il</w>
T umblr</w>
IC S</w>
h emmings</w>
D rew</w>
sp er
#B re
Pl ans</w>
H at</w>
Op in
opp re
cha tting</w>
F lu
L ay
chem ical</w>
li ghter</w>
r ang
har sh</w>
reti re</w>
Luc y</w>
eat ers</w>
Sun ny</w>
in os</w>
Cro wn</w>
12 5</w>
docum ents</w>
To y
GIR LS</w>
S J</w>
HA IR</w>
t :</w>
adm in</w>
comm ent
Spr ing
tra gic</w>
p ad
Com mercial</w>
Hor se</w>
ear ful
S ending</w>
st op
Massi ve</w>
CR Y</w>
Boo k
Spea king</w>
#Follow Me
lo v</w>
Li ves</w>
Mom ents</w>
pan cakes</w>
Pak ist
# sa
um ental</w>
down stairs</w>
S G</w>
gen e</w>
G on
Dau ghter</w>
Obam acare</w>
:f earful
:fearful _face:</w>
E dit
NO T
m ons</w>
o se</w>
be gun</w>
Ser ious</w>
Tho mp
Qu een
Del u
Ad verti
Squ ad</w>
I mage</w>
Ex -
igh s</w>
in tro</w>
mat e
sc he</w>
ba ke</w>
knife :</w>
cancel ed</w>
_heart _
im mature</w>
# big
o v</w>
SUP ER</w>
CHRI ST
Import ant</w>
: heavy
exclamation :</w>
_heart_ exclamation:</w>
:heavy _heart_exclamation:</w>
: ribbon:</w>
vulner able</w>
thes is</w>
Cur ry</w>
s se</w>
p ity</w>
C andy</w>
estim ate</w>
2- 1</w>
rul ed</w>
expan sion</w>
Econom ic</w>
don ated</w>
B C
mur der
clean ed</w>
G rowing</w>
UN G</w>
s son</w>
en -
strong ly</w>
ve g
dra ws</w>
K an
V a
P ick
ro y
o dy</w>
Gand hi</w>
Dra ma</w>
un believable</w>
Tra vel
chest ra</w>
Th under</w>
j ail
st in</w>
ho p
agre es</w>
Su rely</w>
pol lu
H as
g ru
respon ded</w>
:5 5</w>
F red</w>
wid ely</w>
tal s</w>
A chi
cr acked</w>
5 ,000</w>
V illa</w>
L amar</w>
tou gh
c ult</w>
Ma ine</w>
# free</w>
nv m</w>
organ ic</w>
lo sses</w>
hy dr
pi er
m ing
f ml</w>
M R</w>
recomm ended</w>
bu zz</w>
A U</w>
BELIE VE</w>
holi c</w>
S ki
com p</w>
D ele
sho ok</w>
#F ri
#Cor onavirus</w>
Liber ty</w>
s ch</w>
init ially</w>
har mony</w>
sc oo
B il
Lem me</w>
EN ING</w>
bit ch
Lea ving</w>
bor ders</w>
Pro mo</w>
9 pm</w>
public ly</w>
Bi ke</w>
d ump</w>
CO L
h ey
w ear
fa thers</w>
sof tly</w>
B O</w>
progra mming</w>
re sign</w>
C ats</w>
# Tr
FU N</w>
Vo l</w>
v v
athle te</w>
HAHA HA
Bat h</w>
le ge
Go al</w>
shi eld</w>
di e
c tic</w>
sem i-
differ ences</w>
si zes</w>
direc tions</w>
# x
6 7
su pre
m ud
reck on</w>
I gn
Clou dy</w>
Hou se
ig a</w>
Re tweets</w>
Ca p</w>
de struction</w>
O WN</w>
AL READY</w>
tr action</w>
smo ked</w>
dest iny</w>
Boy friend</w>
dro p
avan augh</w>
I dol</w>
ba se
ur an</w>
D im
AR T
Regi on</w>
CH ING</w>
E uro</w>
do d
p cs</w>
refl ect</w>
Clif ford</w>
M i</w>
D ry</w>
1 30</w>
Cri sis</w>
es el</w>
g le
dis pu
autom ob
Sol utions</w>
Develo per</w>
ha vin</w>
rul ing</w>
ack et</w>
D ame</w>
L ESS</w>
l ac
For got</w>
Cal led</w>
tw at</w>
stit ute</w>
passen ger</w>
su shi</w>
gett ing_
PR OM
OK E</w>
W W</w>
Ev ents</w>
e g</w>
re fund</w>
:person_ getting_
Go t
Hear ts</w>
ad just
W ings</w>
che ering</w>
C en
pract ical</w>
be ers</w>
N ED</w>
opp a</w>
Mc Car
Un it</w>
5 pm</w>
si es</w>
u gu
prec ed
fic ial</w>
y eh</w>
D AR
ter ns</w>
tra gedy</w>
In f
leg es</w>
tter ed</w>
k at</w>
J ets</w>
er n</w>
TR U
A do
municip ality</w>
ong i</w>
r ina</w>
tain er</w>
#T a
teen ager</w>
S en</w>
sou l
clear ed</w>
Li e</w>
mar ine</w>
5. 0</w>
whe el
S Y</w>
Tour nament</w>
Make up</w>
co /
R app
x y
multi p
gg ling</w>
ha ble</w>
don ation</w>
w rist</w>
wa kes</w>
et or
ser vers</w>
dec rea
#Cor ona
me ters</w>
id gaf</w>
H am</w>
Po sted</w>
Boo st</w>
lou sy</w>
C UR
Sp ent</w>
ph ar
ro ster</w>
IM O</w>
Kn icks</w>
H ip
A hhh</w>
itt ers</w>
Na than</w>
un expected</w>
col ours</w>
tra ded</w>
FY I</w>
sc ow</w>
pi pe</w>
cal ories</w>
win ds</w>
Ar ena</w>
w u
Wa de</w>
Come dy</w>
Compan ies</w>
198 0s</w>
Deli very</w>
4. 5</w>
#ip ad
T hai</w>
PO P</w>
acknow ledge</w>
: rainbow
:rainbow :</w>
indu strial</w>
mer ch</w>
Lea ders</w>
bow ling</w>
Swis s</w>
web sites</w>
fi xing</w>
n x</w>
B ear
tac os</w>
Wat son</w>
electr icity</w>
z ie</w>
no logies</w>
partner ship</w>
le m</w>
run ning:</w>
:person_ running:</w>
pl ates</w>
ther ine</w>
B US
F lower</w>
screen shot</w>
K i</w>
pri orities</w>
pp a</w>
comb o</w>
Vir gin</w>
co des</w>
wel fare</w>
V IS
ha bits</w>
Leic ester</w>
an tic</w>
HEA D</w>
g li
Cha pter</w>
ho mo
Eag le</w>
twi sted</w>
dic ks</w>
improv ement</w>
sha kes</w>
ra iny</w>
ch ant</w>
wee t
E T
shar k</w>
fli rt</w>
S ong
# win</w>
C ut
equ ality</w>
9/ 11</w>
Cra sh</w>
A E</w>
me ds</w>
HIG H</w>
V ice</w>
R ug
SI ZE</w>
yy yyy</w>
bor ne</w>
Ken ny</w>
B ET</w>
Mass achusetts</w>
pro ving</w>
Co sm
Thomp son</w>
be ings</w>
di ve</w>
GO LD</w>
H earing</w>
er man</w>
TEA M</w>
pot atoes</w>
vir al</w>
ster dam</w>
# travel</w>
MP s</w>
ne ys</w>
:5 9</w>
In tel</w>
ren der</w>
pu sh
Hind u</w>
ic als</w>
e gg
T ill</w>
ing_ cat_face:</w>
over come</w>
Ra p</w>
for tune</w>
ff ff
Un known</w>
9 00</w>
com mission</w>
C R</w>
TT A</w>
Jes se</w>
ed ited</w>
#F i
be ds</w>
t. co/
gr at
S atur
P it
Gra phic</w>
mm mm
4 3
A PP
bom bs</w>
min t</w>
es p</w>
P ence</w>
cou pon</w>
id al</w>
wa ist</w>
M etro
w icked</w>
fac tion</w>
p ec
Pelo si</w>
Christop her</w>
: worri
:worri ed_face:</w>
D EL
Spea k</w>
10 am</w>
Ra ther</w>
man i</w>
ac id</w>
Stan ley</w>
democr atic</w>
jo hn</w>
ri m</w>
Am ong</w>
Li b
IT ION</w>
illu str
P is
alleg ed</w>
M emphis</w>
MA Y
in box</w>
Fi x</w>
D L</w>
3/ 4</w>
h our
volunte ers</w>
b acking</w>
y ummy</w>
: dark_skin_tone:</w>
D at</w>
:p al
sp aces</w>
bur gers</w>
: leaf_
ing_in_ wind
flutter ing_in_wind
:leaf_ fluttering_in_wind
:leaf_fluttering_in_wind :</w>
so da</w>
ussi a</w>
Cau ght</w>
a sted</w>
C anc
Cor n
197 2</w>
L ens</w>
pa per
see ks</w>
Air lines</w>
T ool</w>
Ju lia</w>
U su
AM ES</w>
#G re
Ever ton</w>
vo ter</w>
P UT</w>
n in
whe els</w>
LOV ES</w>
break down</w>
pro to
M ig
con qu
tol l</w>
PHO TO</w>
t ang
7. 5</w>
Th under
D j</w>
SH IP</w>
sof tball</w>
Ve hic
C z
S IN
MO VI
fir ms</w>
em ma</w>
hu bby</w>
w less</w>
Blo om
AC A</w>
cas ual</w>
ha ter</w>
B illion</w>
Mem ory</w>
proc ed
Ju l</w>
a de
hh hhhh</w>
half way</w>
versit ies</w>
Car ib
V EN
id ly</w>
shru gs</w>
Th row</w>
best ie</w>
Bes ides</w>
Louis iana</w>
Har t</w>
PHOTO S</w>
gk ook</w>
lic king</w>
tom or
Intel ligence</w>
R ever
th umbs</w>
ACTU ALLY</w>
G IF</w>
i :</w>
exc eption</w>
#F F</w>
f ound
En viron
sid ers</w>
c ia</w>
V ED</w>
tex t
fla vor</w>
M oo
in es
Sp ending</w>
Mar shall</w>
Da wn</w>
ce iling</w>
guarant eed</w>
P AN
: mo
198 1</w>
er ts</w>
x 4</w>
Strate gy</w>
W ha
ch -
Bo t
an them</w>
il t</w>
imag ination</w>
han gover</w>
produc ing</w>
g lu
# sc
FRID AY</w>
St ats</w>
dic t</w>
Invest ment</w>
rea ders</w>
re solved</w>
spo on</w>
O omf</w>
S id
W ide</w>
ea u</w>
Isl ands</w>
#B us
ell ite</w>
F AST</w>
W EL
dep end</w>
k an
R B</w>
nec klace</w>
mer ce</w>
DOWN LOAD</w>
Peri od</w>
#R un
Cu bs</w>
regi stration</w>
# All
else where</w>
Out side</w>
man ner</w>
Shoo t</w>
sp ice</w>
c low
DID NT</w>
W C
Bri stol</w>
Po k
con ut</w>
Bel gium</w>
Ch rome</w>
Out door</w>
Dest iny</w>
dem o</w>
fir st-
mar es</w>
eeee eeee
Succ ess
Rol ling</w>
ha b</w>
to pics</w>
ro e</w>
n ya</w>
wn ed</w>
end ous</w>
hand ling</w>
9. 5</w>
10 :30</w>
Su ite</w>
om m
B AL
exp and</w>
Mont real</w>
voc als</w>
Mum bai</w>
18 -
Rep orts</w>
P er</w>
resi stance</w>
fun dam
entr ance</w>
Tr ends</w>
#PushAwards LizQu
passen gers</w>
lan es</w>
G PS</w>
nu tr
s ca
wi d</w>
disappoint ment</w>
S amu
ett i</w>
Ac tor</w>
d der</w>
invest ors</w>
dem ands</w>
CH ES</w>
k as</w>
HAR RY</w>
St al
D ual</w>
Cle an
Hur ricane</w>
ID K</w>
Ver izon</w>
ic al
L ounge</w>
Con nor</w>
Missis sippi</w>
Kind ly</w>
Ra w</w>
X O</w>
In deed</w>
bri d</w>
lo o</w>
hi a</w>
um ping</w>
re play</w>
mu g</w>
pr ick</w>
Fe ed</w>
m ies</w>
S ti
Lo gan</w>
just ify</w>
Ch ur
Ed in
# ad</w>
qu ant
10 5</w>
f lex</w>
oun ts</w>
bu n</w>
ca stic</w>
- struc
al ition</w>
IN TO</w>
Car los</w>
out door</w>
oper ated</w>
conven ient</w>
el ementary</w>
SH UT</w>
FORE VER</w>
Analy st</w>
tran sition</w>
infra structure</w>
scar es</w>
Wi -Fi</w>
po is
II II
wed nesday</w>
Com petition</w>
cour ts</w>
D '
DM s</w>
k al
th m</w>
cresc ent
Chee se</w>
fa ves</w>
mind set</w>
#PushAwardsLizQu ens</w>
sna ps</w>
A J</w>
Roc ky</w>
or dering</w>
sh outing</w>
Nor way</w>
hi ps</w>
divor ce</w>
cy ber
tb t</w>
head line</w>
S no
196 9</w>
er s:</w>
phen omen
ri d
et ics</w>
th ood</w>
197 6</w>
nee ding</w>
w assup</w>
mem or
H ES</w>
S essions</w>
a stro
fur niture</w>
y i</w>
is e
sex uality</w>
i ka</w>
sp am
Ala ska</w>
Gi ant</w>
Aw k
:star -struc
:star-struc k:</w>
P rec
f ck</w>
ev ed</w>
N P</w>
sem i</w>
Sol o</w>
#A ma
tem p</w>
H em
F REA
essi e</w>
immedi ate</w>
Wr ite</w>
e hyung</w>
_fing ers:</w>
:crossed _fingers:</w>
DI REC
- in-
s nor
cho col
N on-
pr ints</w>
lar gely</w>
go al
celebr ated</w>
New Video</w>
ph ony</w>
tor n</w>
Li ve
inter pre
Spr ings</w>
cus sion</w>
Cel tic</w>
foc using</w>
tra pped</w>
Del ta</w>
B ella</w>
present atives</w>
comp ens
enc e
up stairs</w>
Ne igh
re hear
NI ALL</w>
Bu ll</w>
Hon da</w>
#S un
ga ining</w>
acqu ired</w>
T ough</w>
home made</w>
TR YING</w>
Res ist
lay out</w>
S andy</w>
7 ,
9 25</w>
#ipad games</w>
Indi an
six th</w>
M ort
H ey
cab inet</w>
is sion</w>
M N</w>
man if
UN I
report edly</w>
Imm igr
un es</w>
Secre ts</w>
descri bes</w>
lea ked</w>
D C
sel ls</w>
Av engers</w>
i or
Up dated</w>
Ex change</w>
s word</w>
co ordin
ect ual</w>
Sch ed
Auth entic</w>
strugg les</w>
hi p
Kee ping</w>
N ev
O thers</w>
n an</w>
co c
Der by</w>
e house</w>
D run
P ool</w>
D RI
Me gan</w>
educ ational</w>
Me tho
J al
W right</w>
Cry p
threat ening</w>
rea ches</w>
d h</w>
PA RT</w>
Pr es</w>
Tim e
L ou</w>
br aces</w>
s lick</w>
so m</w>
vi an</w>
pro gressive</w>
cha p
per cent
jo sh</w>
im pea
J V</w>
W endy</w>
fet ti
Str ange</w>
primar ily</w>
don ations</w>
B ought</w>
Ch ef</w>
th on</w>
C oc
igg y</w>
Jar ed</w>
s as
ex pose</w>
Ra ilway</w>
pe tit
c roo
Pa id</w>
Pa k</w>
In credible</w>
m elt</w>
Simp ly</w>
j j
Col d
#V ideo
D K
par a</w>
ca ine</w>
h t</w>
Tab let</w>
gu t</w>
N L</w>
Pu tting</w>
gen re</w>
P ER</w>
gre et</w>
emp ha
US ED</w>
appreci ation</w>
H ii</w>
ton ite</w>
sett lement</w>
Bak er</w>
op o
Ba e</w>
197 8</w>
O z</w>
Mar ket
#Get G
B et
; (</w>
N N</w>
em bers</w>
con fetti
197 0s</w>
#Happy Birthday
10 k</w>
l as</w>
a qu
u to</w>
23 rd</w>
E F
EUR USD</w>
tem per
Ma sters</w>
n t
#D em
ul ated</w>
hold ers</w>
# Di
p ture</w>
La b</w>
war m
occa sion</w>
Direction ers</w>
x 1</w>
Dru g</w>
sta kes</w>
request s</w>
A me
sky pe</w>
v ors</w>
:two _
king dom</w>
#D is
H T
Pol y
196 8</w>
i eld</w>
liter ature</w>
9 am</w>
: confetti
:confetti _ball:</w>
la sted</w>
integr ity</w>
T ank</w>
Oak land</w>
O ops</w>
Gor geous</w>
F rom
M J</w>
ar ena</w>
In The
2 1.
for um</w>
A 1</w>
Je ffer
guid ance</w>
sor ts</w>
lo ttery</w>
S onic</w>
E h</w>
Sh ort
In te
#P ak
print s:</w>
j elly</w>
YO URE</w>
ac ey</w>
Jour n
estab lishment</w>
com pu
2 k
C hair</w>
h ence</w>
dama ged</w>
uck ily</w>
197 4</w>
mark et
I di
conv ention</w>
A K</w>
:0 2</w>
Ad ele</w>
E minem</w>
em y
Bro s</w>
:snow man
IL D</w>
Ta x
g inger</w>
batt les</w>
8. 5</w>
197 7</w>
half -
B YE</w>
W C</w>
FO UR</w>
Americ as
ví a</w>
att end
Gre g
N early</w>
vi ous</w>
ut ral</w>
Leg ends</w>
T y</w>
D EM
om ed</w>
low ers</w>
tten ham</w>
am in</w>
ma sturb
wat ers</w>
anc est
T win</w>
ab ad</w>
A H
hon our</w>
#don t
e b</w>
def ender</w>
PL AY
hi i</w>
inspir ational</w>
:person_ bow
:person_bow ing:</w>
Cal um</w>
n it</w>
es sment</w>
Gh ana</w>
k im</w>
En ds</w>
con sec
No ah</w>
br un
go ts</w>
t less</w>
sh ri
Tra vis</w>
ref uses</w>
i ah</w>
mo s</w>
Go ds</w>
kid napp
spec tac
por ted</w>
# marketing</w>
Mo scow</w>
Admini stration</w>
d k
hi bis
M B
Pa stor</w>
Com es</w>
mo b</w>
t age</w>
S UM
BM W</w>
l ington</w>
e de</w>
vis itors</w>
ess ss</w>
fil ed</w>
plea see
rel atively</w>
Ro b
5 000</w>
Psy cho
pun ched</w>
li k</w>
ic onic</w>
d ul
Stu ff</w>
a g</w>
Bud d
Relation ship</w>
p ut
po lish</w>
up side</w>
p ig
Gab ri
:r ing:</w>
wor d
6 ,
H iring</w>
Pla yed</w>
inf ection</w>
R ate</w>
acknow led
st un
Att ention</w>
PD T</w>
Der ek</w>
sex ually</w>
St eps</w>
cas ino</w>
Wat ched</w>
pp s</w>
hur ricane</w>
be tra
favor ited</w>
19 45</w>
est a</w>
appro ve</w>
ec ti
dd dd</w>
w ic
pron oun
res em
ac com
Camp bell</w>
regu l
S OON</w>
Adi das</w>
du n</w>
M IT</w>
Bar ack</w>
10 2</w>
ag ers</w>
collabor ation</w>
2 2.
' am</w>
deser t</w>
p umpkin</w>
mor t
hah ha</w>
cher ry</w>
ag on</w>
Bas ically</w>
fi st</w>
bu ses</w>
th re
# po
ri fic
Sh ane</w>
lo sers</w>
N AT
shel ter</w>
arch itecture</w>
f art</w>
6 8
sh er
intim id
X I</w>
ter ies</w>
mist ak
dum best</w>
Lo wer</w>
assum ed</w>
invol ving</w>
adv entures</w>
ex hibition</w>
tar gets</w>
bru tal</w>
arri val</w>
sp ark
fing er
de posit</w>
3 am</w>
in ev
re presents</w>
# rea
fla gs</w>
ey ed</w>
net working</w>
un ite</w>
manag ers</w>
Kar en</w>
197 3</w>
ro ses</w>
min ing</w>
Plat form</w>
ad or</w>
P om
un limited</w>
rec ipes</w>
saf ely</w>
L av
re tt</w>
M SM</w>
lea k</w>
hy per
prot ests</w>
profession als</w>
# Pre
ad vise</w>
den sity</w>
lem on</w>
f ence</w>
K ILL</w>
P ic</w>
gri p</w>
poss ession</w>
Go als</w>
AN YONE</w>
tab let</w>
ham mer</w>
Rev iews</w>
Ni ghts</w>
in compe
M G</w>
ar do</w>
Rec i
tr ay</w>
ra m
itar ian</w>
D B</w>
mo del
O -
god damn</w>
C ad
la sts</w>
cou ra
con sole</w>
cla ssm
Win ning</w>
R ho
administr ative</w>
C ant
er ies</w>
sho wers</w>
m_ tree:</w>
:pal m_tree:</w>
H im
AT ES</w>
plea sant</w>
refl ection</w>
THAT 'S</w>
b ff</w>
af r
Spee ch</w>
pa st
din als</w>
K ent</w>
ne e</w>
S igh</w>
M ind
b s
travel ling</w>
onav ir
# 10</w>
gu d</w>
d an
F OO
pi o</w>
oc cur</w>
legis lation</w>
IT ING</w>
su ed</w>
ex posure</w>
SL EEP</w>
S oooo</w>
#B eli
cam ping</w>
cho ke</w>
sh ers</w>
to wns</w>
Mur phy</w>
danc er</w>
un happy</w>
Se th</w>
< -
weal thy</w>
j ar</w>
Fl at</w>
Super man</w>
SA D</w>
gu in</w>
am el</w>
tax pay
cus s</w>
Har per</w>
di er</w>
shoo ts</w>
F loyd</w>
pe t
coun table</w>
web cam</w>
Dr .</w>
s our</w>
T reat
St an</w>
<- --</w>
rec y
attemp ting</w>
rea u</w>
Mc Cain</w>
confu sion</w>
X xx</w>
ph y:</w>
:tro phy:</w>
M ER</w>
challeng ing</w>
Mar athon</w>
Imp act</w>
app earing</w>
sar castic</w>
ri ses</w>
#C a
ru ins</w>
i y
Ber n
p ill</w>
KE TS</w>
a sts</w>
r ou
a hah</w>
Lo v
pre p</w>
Po t
controver sial</w>
B ag
: drool
:drool ing_face:</w>
: her
:her b:</w>
R S
# bo
war ns</w>
Broad way</w>
Mitch ell</w>
Celebr ity</w>
distribu tion</w>
# thank
re lla</w>
nic ely</w>
gradu ating</w>
Cha mpionships</w>
compla int</w>
sha wty</w>
hatt an</w>
le tt</w>
sla m</w>
oo z
ha v
fast est</w>
#N P</w>
na k</w>
dd le</w>
hibis cus
m ums</w>
Bur ger</w>
Ther e
hom opho
A id</w>
ri ers</w>
Ar t
i ano</w>
BU M</w>
S ucks</w>
voc al</w>
Y Y</w>
AL SO</w>
D RO
Sever al</w>
K avanaugh</w>
se -
The ory</w>
el o</w>
AN C
L ess
197 1</w>
Tal ent</w>
V ision</w>
mom ent
co tton</w>
ir l
cen sus</w>
L ic
N ICE</w>
constit ution</w>
dedic ation</w>
m n</w>
per ial</w>
20 -
as c
9 :30</w>
j ames</w>
Adv anced</w>
ca de</w>
ho w
S CO
l en
ol es</w>
collap se</w>
Genu ine</w>
g -
Sh eeran</w>
Sum mer
UN DER
zer land</w>
hallow een</w>
oppon ent</w>
co st
Valent ines</w>
l ur
:- D</w>
in as</w>
rep eat
nic est</w>
Au gu
at tract</w>
Al -
H IT</w>
IC YMI</w>
ussi e</w>
regar ds</w>
LI AM</w>
LI GHT</w>
pa ste</w>
Tru ly</w>
Haw ks</w>
Al tern
: hibiscus
:hibiscus :</w>
196 0s</w>
Mur der</w>
B li
gi o</w>
Her oes</w>
ag ricul
v or
r ors</w>
wa k
M in</w>
# mar
Ag ent</w>
J B</w>
th ree-
j ing</w>
dor m</w>
g t
ro y</w>
ind a</w>
R R</w>
un d
ag encies</w>
of the
e ous</w>
fair y</w>
IR E</w>
Mar c</w>
2- 3</w>
v ampire</w>
quali fy</w>
R icky</w>
sp ac
re a</w>
Ris k</w>
ar senal</w>
lou der</w>
2 pm</w>
ba ked</w>
or ted</w>
Polic y</w>
comp on
SA W</w>
go ssip</w>
ar ia</w>
OFFIC IAL</w>
min us</w>
ama zed</w>
ff e
15 -
8 am</w>
hu b</w>
cra ppy</w>
F at
cy cling</w>
int entions</w>
al e
com posed</w>
ed In</w>
Spec ialist</w>
ful ness</w>
Luc as</w>
5 4
b bles</w>
C al</w>
Supp ly</w>
ey eb
tal ler</w>
Fr an
P ep
el derly</w>
#N BA</w>
: love
Bea st</w>
Ma ster
24 th</w>
# tru
is cope</w>
Edin burgh</w>
bur ns</w>
ei ved</w>
: copy
:copy right:</w>
d ding</w>
rel ative</w>
s ement</w>
connec tions</w>
ev e
tran spar
on going</w>
Con vention</w>
ss sss</w>
Dou g</w>
distur bing</w>
Qu it</w>
# shoes</w>
st ans</w>
Motiv ation</w>
on el</w>
Ther es</w>
shoo ter</w>
Bro wns</w>
communic ate</w>
D m</w>
Cu ba</w>
tw el
d ats</w>
dead ass</w>
FIR E</w>
stu ffed</w>
pro ph
I SE</w>
inn amon</w>
Alex and
lip stick</w>
M alik</w>
L eb
Stu dies</w>
ssi on</w>
Al b
Fra me</w>
orig in</w>
zz z</w>
girl friends</w>
oooo oo
par liament</w>
Lu xury</w>
o tive</w>
b hi</w>
Cr icket</w>
p ouring</w>
shor ter</w>
Mar gar
D umb</w>
inf ected</w>
emp t</w>
T ee
Jour ney</w>
compar ing</w>
DO M</w>
n -
Ky lie</w>
fla ws</w>
ch el
qu id</w>
crea tor</w>
Mo de</w>
cla p</w>
lu sion</w>
K ane</w>
ru p
inst all
#Peoples Choice</w>
IR S</w>
To dd</w>
bas ket</w>
Harv ard</w>
jam in</w>
proper ties</w>
comp uters</w>
discus sed</w>
lab our</w>
crescent _moon:</w>
Le tter</w>
her d</w>
on y
popul arity</w>
re presentation</w>
tur nt</w>
inv esting</w>
K illing</w>
:ali en:</w>
ma sters</w>
# giveaway</w>
Sel f-
4. 0</w>
refer endum</w>
:globe_showing_ Americas
:globe_showing_Americas :</w>
#o h
Egy pti
dele ting</w>
KK K</w>
i as</w>
ed i</w>
pro minent</w>
ent al
Celebr ate</w>
cu lar</w>
kno t
tri gger</w>
GE TTING</w>
explo de</w>
who s</w>
ino y
fiel der</w>
occup ied</w>
ado pt</w>
bl acks</w>
electr onic</w>
LI E</w>
over rated</w>
si vely</w>
2 2nd</w>
#B TS
W enger</w>
crea tivity</w>
pro blem
gl as</w>
sh yt</w>
Bu tter
Ell en</w>
Lma oo</w>
Fig ure</w>
Sig ns</w>
ir onic</w>
do ph
comm only</w>
sar casm</w>
Tra il</w>
shu a</w>
it or
Carib bean</w>
ris ks</w>
Sha dow</w>
Christ i
H amp
dec line</w>
ussi ons</w>
res ort</w>
cra shed</w>
cour tesy</w>
V I</w>
Co hen</w>
Presid ential</w>
Medic ine</w>
10 6</w>
K ill
Smo ke</w>
o ven</w>
20 s</w>
ma k
KathNi els</w>
g om
he licop
Wel p</w>
uk ee</w>
remember ing</w>
PO ST</w>
appear ances</w>
DES ER
K illed</w>
C ann
K IL
T een
N eed
#N ever
D EC
gh tw
Rev eals</w>
ti a</w>
M itch</w>
as signed</w>
Mar riage</w>
#t oo
196 7</w>
sion ally</w>
ump y</w>
Cir cle</w>
19 60</w>
THE Y
Qu ite</w>
id ols</w>
JES US</w>
30 s</w>
1/ 5</w>
Gi ves</w>
ey ou
re serve</w>
n ag
ing redi
TH OUGHT</w>
Ch and
US H</w>
w ud</w>
arri ves</w>
witn essed</w>
umb ling</w>
U -
Bud get</w>
Com ment</w>
G I</w>
W EA
# AS
T M
sla very</w>
#aus pol</w>
po ppin</w>
du o</w>
sh ouldnt</w>
wat chin</w>
Sus an</w>
Mol ly</w>
A vi
char m</w>
trea sure</w>
E u
uuuu uuuu
# get
RE S</w>
in ations</w>
Mil es</w>
Bab y
star ds</w>
S ION</w>
Exp ect</w>
premi um</w>
Tes la</w>
wat er_
tt y
akar ta</w>
: dol
tell in</w>
om o</w>
la desh</w>
per o</w>
min a</w>
Mad ness</w>
d les</w>
Stea dy</w>
Que ens</w>
Is sue</w>
youn gest</w>
_ without
an or
mm ys</w>
Hun ger</w>
twer k</w>
ro ast</w>
Cap it
EN G</w>
Na il</w>
Rug by</w>
P -
: water_
stron gest</w>
regre ts</w>
Res erve</w>
maxim um</w>
L AND</w>
H ang</w>
Hu h</w>
# is
F 1</w>
Cha irman</w>
r ound
rel la
th ouse</w>
t- shirt</w>
blow job</w>
an do</w>
L IN
engine er</w>
CL U
sla pped</w>
run ner</w>
ext end</w>
# su
fer ences</w>
CRA ZY</w>
D ang
# health</w>
ar k</w>
hor rif
1. 6</w>
lic it</w>
hi bit</w>
un to</w>
Batt le
O w
ST UP
K C</w>
li ssa</w>
1. 2</w>
16 0</w>
FA KE</w>
P and
lear nt</w>
cho p</w>
u tter</w>
apologi es</w>
pract ically</w>
bro wn
Pro mise</w>
par ks</w>
entreprene ur</w>
increa ses</w>
Techn ical</w>
ki ye</w>
PS A</w>
R K</w>
N ear</w>
po sters</w>
st ating</w>
ol ine</w>
Oli via</w>
row ning</w>
wa ukee</w>
: cry
Whit ney</w>
distr acted</w>
P endant</w>
Hea ding</w>
ste pping</w>
W V
Sha h</w>
Mour inho</w>
A .</w>
il la
ca ve</w>
al ties</w>
instit utions</w>
survi val</w>
S AL
16 :
8 7
W at</w>
Fa v</w>
M ouse</w>
h ills</w>
Up on</w>
And re</w>
49 ers</w>
W earing</w>
MA D</w>
cor n
Re fu
uti li
mo ck</w>
cur ry</w>
#N ash
in form</w>
R ING</w>
Pen n</w>
t rem
on ies</w>
construc ted</w>
af t</w>
Cor p</w>
5. 00</w>
K ick</w>
z ens</w>
ST RE
Cal vin</w>
ma ps</w>
X Y</w>
Pro of</w>
# ni
# bi
P Y</w>
jun ction</w>
o id</w>
Rain bow</w>
Th ings
Mo vement</w>
m v</w>
dist inc
sub st
d ar</w>
Sha ke</w>
#N or
27 th</w>
lif ted</w>
hospit als</w>
car bon</w>
BO TH</w>
pe pper</w>
col ored</w>
ra m</w>
fl or
sma shed</w>
ha y
LI ON</w>
ab ase</w>
ff any</w>
h ee</w>
foo d
Soc ial
Port able</w>
f itting</w>
R ama
connec ting</w>
# Har
FUN NY</w>
Pet ition</w>
impro ving</w>
ultim ately</w>
no oo</w>
4 pm</w>
G ang
Ac tress</w>
M att
T e</w>
multip lic
P IC</w>
T ür
caly pse</w>
B order</w>
accomp lish</w>
28 th</w>
Fl ying</w>
ST AY</w>
ell ence</w>
Y e</w>
Boo ts</w>
ind uc
ster eo
auth ors</w>
W ard</w>
bu zz
d oms</w>
High lights</w>
be ts</w>
ar e
un usual</w>
w ould
In t
I AN</w>
premi er</w>
en te</w>
htt p</w>
s play</w>
tact ics</w>
so -
ty -
so ever</w>
Min utes</w>
as sets</w>
#ip ad</w>
in visible</w>
st at</w>
ab sence</w>
strea ms</w>
s sment</w>
sub tweet</w>
T ee</w>
Hol der</w>
15 00</w>
Al pha</w>
IC H</w>
cha irman</w>
Bro ken</w>
mu d</w>
experi encing</w>
ri to</w>
Ex erc
L ace</w>
free ze</w>
sin cer
deli ber
# Android</w>
S ak
Ug ly</w>
poor ly</w>
gu ts</w>
mo v
terri fied</w>
Eng ine</w>
fin ed</w>
ta kin</w>
ext ent</w>
enter tain</w>
gu ards</w>
pay ments</w>
o' clock</w>
#PushAwards KathNiels</w>
flir ting</w>
u um</w>
k ah</w>
contribu te</w>
mer ly</w>
Jo y
#D ol
B F</w>
asp ect</w>
Cor ps</w>
Ste elers</w>
ㅋ ㅋ
3 33</w>
j k
15 0
Girl friend</w>
2 6.
remin ding</w>
A W</w>
Bill board</w>
Scho ol
cal i
fr ank
Un locked</w>
bl eeding</w>
techni que</w>
menti oning</w>
_b an
v ile</w>
fi er</w>
lic ia</w>
OK C</w>
H ad
k am
de bu
Jo el</w>
I' ma</w>
J et</w>
light ning</w>
u ries</w>
gg les</w>
W ay
E ri
sw allow</w>
contrac ts</w>
requi rements</w>
Tur ner</w>
re wards</w>
hust le</w>
sym bol</w>
by -
request ed</w>
Ge o
To ttenham</w>
Om fg</w>
B ei
shi fts</w>
th umb</w>
; p</w>
Mer ced
P EN
D UC
knot e:</w>
_ban knote:</w>
sp ra
qu is
Ori gin
Ro dgers</w>
ー 19</w>
Po ints</w>
i ke</w>
29 th</w>
Hur ry</w>
tel ep
ed ges</w>
C U</w>
r in</w>
T EX
enti als</w>
Ro gers</w>
ea th</w>
consist ently</w>
I' LL</w>
Gi ven</w>
Po sitive</w>
perio ds</w>
SU B
it ect</w>
e fficient</w>
S IDE</w>
9 7
shut down</w>
#D ont
fil med</w>
Cal m</w>
st ages</w>
:heart_with_ ribbon:</w>
Bry ant</w>
Jon as</w>
O oh</w>
D Y
gy m
Austr ali
bl ur
comp as
V EA
10 pm</w>
Foo ds</w>
#S top
N U
Bi o</w>
evol ution</w>
uc king</w>
rea r</w>
re sting</w>
too th
ner d
jo on</w>
M OM
#can t
anno ys</w>
pract icing</w>
G T
sta b</w>
see ds</w>
th ighs</w>
fac tors</w>
K as
deb ating</w>
bi ology</w>
#COVID ー19</w>
ni val</w>
w els</w>
plan es</w>
F am</w>
ta i</w>
ta sty</w>
grand mother</w>
pr inting</w>
Da vi
:w ooz
:wooz y_face:</w>
z zing</w>
:face_with_ open_mouth:</w>
col umn</w>
OOOO O</w>
ga de</w>
oper ate</w>
n and
Con st
conduc ted</w>
9 6
En d
ser ial</w>
mer ely</w>
por k</w>
B ha
W ins</w>
gr ay</w>
Nor man</w>
u a</w>
wav e:</w>
:water_ wave:</w>
1. 3</w>
in put</w>
J ur
confir ms</w>
Stor age</w>
pro be</w>
Li f
illi e</w>
an ian</w>
Cri me</w>
Boo m</w>
rea der</w>
rad ical</w>
legitim ate</w>
Fla g</w>
ST AND</w>
ood le</w>
x 10</w>
lun gs</w>
Col in</w>
associ ation</w>
Tak en</w>
Sal t</w>
ox y
bla sting</w>
YO LO</w>
it ations</w>
AN OTHER</w>
P INK</w>
:0 3</w>
r in
ali ens</w>
# ri
repeat edly</w>
y uh</w>
tr ucks</w>
twee ps</w>
i bility</w>
pier ced</w>
MA X</w>
7 0s</w>
Sho wer</w>
bl an
umb rella
S URE</w>
journ al</w>
s light</w>
: crescent_moon:</w>
gener ous</w>
ro b</w>
Y ours</w>
Possi ble</w>
acc o</w>
car efully</w>
Vic tor</w>
D ell</w>
TWEE TS</w>
fav s</w>
spec ts</w>
smart phone</w>
Rich mond</w>
law yers</w>
ment ality</w>
B ass</w>
ir ony</w>
no od
x :</w>
m our
small _
dro be</w>
clo ck
ess ors</w>
over seas</w>
leg ends</w>
Stat us</w>
My self</w>
he im</w>
bloo d
Premi ere</w>
par tis
anim ation</w>
Th is
po wder</w>
dic tion</w>
Langu age</w>
Mu hammad</w>
mus cles</w>
veter ans</w>
what sapp</w>
L INK</w>
Go spel</w>
ar o</w>
la sting</w>
ka i</w>
In dependence</w>
g alaxy</w>
Par k
Thea ter</w>
L ER</w>
# tbt</w>
int ention</w>
tic a</w>
S EE
h ec
Att orney</w>
tra iner</w>
ne gl
e ter</w>
bo ws</w>
ms g</w>
acc essi
dro wn</w>
lea f</w>
F X</w>
Sur prise</w>
b ay
e ti
Dak ota</w>
k een</w>
Si lic
sc um</w>
J ump</w>
Gu est</w>
tea ser</w>
s lice</w>
Acc ident</w>
u ed</w>
st ack</w>
The me</w>
sta ke</w>
t ummy</w>
Su arez</w>
cra wl</w>
id games</w>
sta in</w>
j in
q i</w>
ra ins</w>
autom atic</w>
C run
#social media</w>
L es</w>
Bu ying</w>
13 :
bu sted</w>
bu mps</w>
d f</w>
ba it</w>
199 0s</w>
techni ques</w>
V it
g b</w>
Russi ans</w>
Strea ming</w>
trans ferred</w>
Th i
par adise</w>
Fam ous</w>
Benef its</w>
princ ipal</w>
Delu xe</w>
hea ted</w>
PLA YING</w>
J K</w>
t estim
T 'S</w>
es h
W OM
be tting</w>
inv asion</w>
uu u
Inter ested</w>
me lo
crit ics</w>
sla ves</w>
tal ity</w>
Bigg est
T ories</w>
pa use</w>
Grea ter</w>
S PO
Sp a</w>
g ona</w>
Car diff</w>
r ats</w>
recru iting</w>
worth less</w>
Beat les</w>
# black
#I f
M EN</w>
- of-
don uts</w>
mil it
B LI
mon itor</w>
P ants</w>
FOLLOW ERS</w>
vis or</w>
slee ps</w>
no o</w>
Hor ror</w>
Ro oney</w>
Sat an</w>
consider ation</w>
For ces</w>
promis ing</w>
TH INGS</w>
N apol
o li
hot els</w>
Th ir
Descri ption</w>
2 ,000</w>
12 3</w>
Car son</w>
# tra
ama zon</w>
ab lo</w>
Bus in
KKKKKKKKKKKKKKKK KKKKKKKKKKKKKKKK
Toy ota</w>
M ental</w>
Pre gn
be es</w>
publi shing</w>
ch ess</w>
Fer r
P ush</w>
under ground</w>
Ark ansas</w>
g loves</w>
Lo ves</w>
se gment</w>
mon sters</w>
Tri ple</w>
ga thering</w>
in augur
TUR N</w>
26 th</w>
TIM ES</w>
To ys</w>
cli ff</w>
MA Y</w>
cruc ial</w>
ob jects</w>
é mon</w>
2 B</w>
mus icians</w>
soci alist</w>
Cl em
scre ening</w>
hear ted</w>
M ack
l are</w>
shi pped</w>
al ize</w>
Ser ver</w>
l ins</w>
bra g</w>
al em</w>
as sin
v ou
LEA VE</w>
transl ation</w>
ea ling</w>
consum er</w>
sur ing</w>
Face Time</w>
me ta
bas h</w>
#M UFC</w>
K ni
T ul
Ch ronic
cha l
Dou glas</w>
Tür kiye</w>
Mo tion</w>
to wel</w>
B ever
ter ia</w>
comm ented</w>
Wi ki
ea st
s oooooo</w>
Ch ile</w>
per si
Co in</w>
to currency</w>
L AR
2 3.
ro s</w>
re placing</w>
4 G</w>
weir dest</w>
LL LL
gu tted</w>
Mor e
Not ice</w>
ad ul
CON C
don alds</w>
func tion
L op
great ness</w>
environ mental</w>
A void</w>
10 3</w>
sh ir
gra v
Ro s
Al ong</w>
Ben jamin</w>
ec tors</w>
mm mmm</w>
sor ship</w>
refre shing</w>
i me</w>
wor kin</w>
Samu el</w>
ugu ese</w>
G F</w>
tu re
jo hn
sh e
#E uro
U gh
c nt</w>
A LO
27 .
H all
Associ ate</w>
l -
pur poses</w>
R M
Prot ect</w>
# lo
#St ay
k ok</w>
gra bs</w>
not able</w>
#Th is
sk ies</w>
Usu ally</w>
S z</w>
w hoop</w>
# Ha
B ank
O ur
Tea chers</w>
di ving</w>
2 am</w>
#T op
Flo or</w>
Qu i
func tions</w>
C ITY</w>
Fre sh
pot entially</w>
G IF
contem porary</w>
val ry</w>
gi veness</w>
at us</w>
el ess
bo s</w>
S N</w>
haras sment</w>
rh etor
fag got</w>
not sorry</w>
any e
Proper ty</w>
eff ectively</w>
Hol land</w>
196 4</w>
100 ,000</w>
gen ous</w>
Am sterdam</w>
or gas
de pic
inn ati</w>
ac countable</w>
grand parents</w>
B lock
st ickers</w>
s NewVideo</w>
kno cking</w>
suggest ion</w>
doc ument</w>
ac a
neg ativity</w>
Pri son</w>
sett ings</w>
c unts</w>
P ST</w>
#H iring</w>
5. 5</w>
o i</w>
C 'mon</w>
suppor tive</w>
he h</w>
. com
li x</w>
Jack ie</w>
con vo
Dis play</w>
York shire</w>
re war
J J</w>
att ribu
eff ield</w>
m -
bang ing</w>
g low</w>
mb o</w>
LE Y</w>
am ounts</w>
Pr ices</w>
constit utional</w>
Ba sic</w>
L is
#i Heart
PO WER</w>
NE SS</w>
wh ites</w>
fir ing</w>
U pper</w>
re vis
= D</w>
bra in
su ing</w>
Lo sing</w>
Eng agement</w>
Wal ter</w>
lma oooo</w>
r ts</w>
sha w</w>
sp inning</w>
plat forms</w>
g at
cri sy</w>
sp urs</w>
3 pm</w>
an or</w>
ro t
CO LO
m anga</w>
sum mit</w>
P ics</w>
stu b
valent ine</w>
#L FC</w>
Pra yer</w>
cur y</w>
gran ny</w>
196 5</w>
Wh is
R AC
jap anese</w>
V ie
P M
4 :30</w>
# music
per pe
en a
ó n</w>
B ust
Pro ph
Can di
sac rific
Cel tics</w>
ari ana</w>
W B</w>
glor ious</w>
y n
Rep air</w>
irrit ating</w>
ar ch</w>
leg als</w>
mu sh
I ggy</w>
rem embers</w>
gener ations</w>
dr ums</w>
Sh or
v ital</w>
prov inc
pa w
EM ENT</w>
MEM BER</w>
Fer guson</w>
11 :30</w>
3- 0</w>
invol ve</w>
Gi b
na e</w>
p sy</w>
a ks</w>
cu its</w>
c entr
ref ers</w>
F ans
S UC
un locked</w>
Gr ound</w>
t mr</w>
manufac turing</w>
k itten</w>
Ear n</w>
le ggings</w>
particip ated</w>
def o</w>
dis on</w>
respec ted</w>
#F in
Pi x
Je ff
S ara</w>
DO ES
tri gg
W T
inv ent
par ano
democr ats</w>
activ ely</w>
hy dro
flo p</w>
G as
McDon alds</w>
AN I
nood les</w>
R I</w>
D ama
la bel
W ing</w>
d ge
Swit zerland</w>
ra il
exha ust
P AT
PER SON</w>
Y AY</w>
# Con
experim ent</w>
abu sed</w>
1. 1</w>
si m</w>
asp ects</w>
mus ician</w>
Bor ed</w>
T ed
Ju lie</w>
instruc tions</w>
gg gg</w>
AR MY</w>
Sun days</w>
ne tic</w>
th ought
question ing</w>
l ee
A live</w>
Ma p</w>
congr atul
pi st</w>
e tta</w>
K ER</w>
ear e</w>
b id
c age</w>
1 D
Vol ume</w>
D ating</w>
woman_ holding_hands:</w>
_and_ woman_holding_hands:</w>
:man _and_woman_holding_hands:</w>
s es
hi d</w>
blo ggers</w>
est ive</w>
# work
ge m</w>
da wn</w>
Ear l</w>
di gging</w>
way s
war n</w>
et ary</w>
Produc tion</w>
g ement</w>
associ ate</w>
haha hahahaha</w>
initi ative</w>
AS K</w>
Stu dios</w>
d ad
jim in</w>
p up
inv itation</w>
swit ching</w>
dist ingu
am an</w>
am ed</w>
tre me</w>
Sma sh</w>
haha a</w>
sub jects</w>
fra g
Stea m</w>
Ru by</w>
# mis
Conn ect</w>
Res ources</w>
196 6</w>
ac oustic</w>
n eva</w>
ck et:</w>
:ro cket:</w>
th y
Ma in
sel ler</w>
#Li ve
b end</w>
Rep ly</w>
b atch</w>
#RI P
6 am</w>
Gr ill</w>
de tailed</w>
veter an</w>
PO LI
trav els</w>
# col
sed ly</w>
S ES</w>
G ates</w>
15 :
Veter ans</w>
Tre k</w>
sha dy</w>
Sun shine</w>
lu e
r er
Hoo die</w>
OR DER</w>
J F
Corpor ate</w>
8 5
t ooo</w>
won ders</w>
pur sue</w>
targe ted</w>
Cle aning</w>
B G</w>
re sident</w>
N eck</w>
U mm</w>
z on
00 1</w>
ep ts</w>
Fem ales</w>
18 :
cla sh</w>
a es
chur ches</w>
loc king</w>
pre ven
notific ation</w>
mis si
Pri mary</w>
WI TH
P unk</w>
ing y</w>
Bor is</w>
s ounding</w>
Pi er
pierc ing</w>
Vi kings</w>
post p
own ership</w>
ul k</w>
Cra ft</w>
imm une</w>
is ms</w>
re vision</w>
cru shed</w>
air ed</w>
ab sor
ag on
st ig
jum ps</w>
anim ated</w>
um ni</w>
confir mation</w>
GA S</w>
# cam
ge bob</w>
J ess</w>
se tup</w>
Ga ve</w>
STUP ID</w>
CLI CK</w>
An onymous</w>
P ir
I Q</w>
A sh</w>
influ enced</w>
roo kie</w>
na i</w>
Opin ion</w>
g ays</w>
C lip</w>
Hon or</w>
Res ort</w>
Sp end</w>
R hy
Pu ll</w>
NE W
compe ting</w>
under rated</w>
percent age</w>
Bus y</w>
uu uu</w>
14 :
es cal
War ner</w>
C rist
ON ES</w>
us eat
uni versal</w>
cur ve</w>
Lu is</w>
PR O</w>
et ings</w>
fla wless</w>
O therwise</w>
A ce</w>
1 11</w>
P ist
um mm</w>
sp icy</w>
i v</w>
Beli ebers</w>
His panic</w>
10 :00</w>
Broo ks</w>
Sp read</w>
W it</w>
Mat h</w>
k ak
Re id</w>
R ARE</w>
sm al
Re placement</w>
pen ny</w>
bud dies</w>
Man ning</w>
#F uck
nn nn
way ne</w>
snow :</w>
e z
S ession</w>
High er</w>
si p</w>
Nic hol
6. 5</w>
ab le
Europe -
w ish
di al</w>
EM A</w>
With in</w>
produc ers</w>
hu l</w>
Mee k</w>
:cloud :</w>
st unt</w>
y un</w>
Power ful</w>
b k</w>
Ker ry</w>
rr rr</w>
Man hattan</w>
N ine</w>
bi kini</w>
#S an
Palestin ian</w>
gu l
#GetG lue</w>
invol ves</w>
B right</w>
MP 3</w>
Co -
meaning ful</w>
Char ac
Game play</w>
LE FT</w>
E B
D F
SL R</w>
sli m</w>
FIN D</w>
:0 4</w>
en forcement</w>
A I
Tr ending</w>
_ in_
D UM
cal um</w>
pa pa</w>
P interest</w>
is sa</w>
4 am</w>
AL BUM</w>
G ent
19 50</w>
Histor ic</w>
ti ger</w>
ATI ONS</w>
N ol
Sc en
ussi an</w>
dis covery</w>
:5 3</w>
rec rea
Christ ina</w>
k ir
Link edIn</w>
Sp encer</w>
M ia</w>
#B it
There fore</w>
:na useat
:nauseat ed_face:</w>
ev al</w>
ga ther</w>
_ suit:</w>
What s
bil e_
# android</w>
Bro ke</w>
sof a</w>
NE S</w>
Wi Fi</w>
Fin ale</w>
ho tter</w>
dis appeared</w>
desper ately</w>
pric eless</w>
P EA
N -
clu eless</w>
qui etly</w>
h -
ST ER
u tter
sa usage</w>
LOOK S</w>
rab bit</w>
nur sing</w>
Hus band</w>
symbol :</w>
Anti que</w>
cur ly</w>
hand y</w>
Inte gr
con crete</w>
att orney</w>
wi f
dep loy
cry stal</w>
For bes</w>
T ennis</w>
ac count
Me ans</w>
:dizz y_face:</w>
14 -
alleg ations</w>
ill o</w>
SC REA
po ison</w>
la wn</w>
#I ts
presid ency</w>
Mid dle
K iller</w>
19 :
Pakist ani</w>
# ca
si o</w>
LA UGH
m ig
W ING</w>
d inosa
Cr ush</w>
po kemon</w>
Hel en</w>
app lying</w>
terrif ying</w>
Z AY
high school</w>
do zen</w>
#S ave
Fri days</w>
Dy nam
ea lousy</w>
N H</w>
some ones</w>
M ED</w>
Econ omy</w>
no ld</w>
Th o</w>
St ef
MOVI E</w>
YO UR
dr ink
stric ts</w>
C OOL</w>
nomin ation</w>
E OS</w>
J A</w>
Pal m</w>
it oring</w>
count down</w>
straw berry</w>
Win ds</w>
Ku ala</w>
on ade</w>
Dav id
D NC</w>
cro p</w>
B am
Phi lip</w>
t les</w>
Pred ic
Ne ither</w>
# me
f ella</w>
liqu id</w>
Ra iders</w>
dec iding</w>
attend ance</w>
ept ance</w>
ch ic
us alem</w>
n _face:</w>
1- 1</w>
F r</w>
dou che</w>
twee t
#T weet
:globe_showing_ Europe-
Afric a:</w>
:globe_showing_Europe- Africa:</w>
D ennis</w>
cr inge</w>
oc ks</w>
sym pathy</w>
hel or
oo ks</w>
car t</w>
V -
Wor thy</w>
H UN
P in</w>
Go sh</w>
dition ally</w>
intell ectual</w>
Pla stic</w>
#f ree
night mares</w>
NO BODY</w>
star tup</w>
In fo
screa med</w>
que ue</w>
Success ful</w>
ho lla</w>
ve lo
9 5
Mo tor</w>
re in
An g</w>
ic ans</w>
li l
R educ
en sed</w>
fr ed</w>
W P</w>
w ages</w>
Ch en
MA s
sh ud</w>
sal on</w>
Christi anity</w>
pl ed</w>
Chi efs</w>
tea se</w>
a uction</w>
ik r</w>
g ba</w>
#M us
Pol l</w>
el u
Exper t</w>
Alex is</w>
Ga za</w>
#D ra
fr ont
d ys</w>
Step h</w>
en u
Min ute</w>
sav age</w>
gent le</w>
f estiv
prepar ation</w>
encoura ging</w>
E vol
I ly
lem ents</w>
Rober ts</w>
H IV</w>
gr inding</w>
Poc ket</w>
re presentative</w>
M ickey</w>
ST S</w>
bre ed</w>
wom en_
wr ong
tri als</w>
gh etti</w>
S G
en ship</w>
go v
Ja D
Down town</w>
econom ics</w>
sequ el</w>
lic ate</w>
C RO
# par
weir do</w>
Treat ment</w>
10 80
ank ings</w>
em in
Har rison</w>
spo ilers</w>
Un like</w>
si ded</w>
Rel eases</w>
:two_ women_
:two_women_ holding_hands:</w>
roo ting</w>
sc o</w>
v ast</w>
tou ches</w>
THO SE</w>
St anding</w>
Ar ri
Insi der</w>
th al</w>
En try</w>
cir cles</w>
el y
er i</w>
hor n</w>
Me tal
clou dy</w>
B ell
Tur n
M ut
6 00
Pok émon</w>
Mus ical</w>
att a</w>
Oper ation</w>
50 ,000</w>
Vic tory</w>
list ens</w>
Em peror</w>
smoo th
dem ons</w>
H TC</w>
Tim ber
R and
or m
#Team FollowBack</w>
h ee
Liber als</w>
Sh ir
st ate
to on</w>
Drun k</w>
#H ol
cha ins</w>
L AT
dit ch</w>
R M</w>
blo gs</w>
But ler</w>
# Inter
onavir us
N ex
# wa
in spec
Bar bara</w>
ge dly</w>
Hud son</w>
ro bbed</w>
#V ir
sal ute</w>
esp eare</w>
A RT</w>
mo on
gener ate</w>
K ris</w>
25 0
g ad
occa sionally</w>
cigar ettes</w>
L anka</w>
t at</w>
educ ate</w>
# red
e ffici
#B E
sign ature</w>
Ex pla
les bians</w>
af fairs</w>
#C all
A x
zz a</w>
stati stics</w>
ch ill
sk ating</w>
Iran ian</w>
SING LE</w>
sket ch</w>
Car l
u pp
B D
Elec tion
Bright on</w>
contro ls</w>
N eeded</w>
j un</w>
ban king</w>
Mo d
O mar</w>
San chez</w>
L ock</w>
PS 3</w>
Paper back</w>
princi ples</w>
law suit</w>
HH HH</w>
assem bly</w>
jud ged</w>
dra fted</w>
Her ald</w>
wh t</w>
oc ide</w>
C s</w>
Pra ise</w>
, 7
Gul f</w>
K eys</w>
t end
Louis ville</w>
gree dy</w>
R ey
W ISH</w>
Wi z</w>
res ource</w>
t as</w>
ver ified</w>
sun glasses</w>
Cla ire</w>
multiplic ation_
:heavy_ multiplication_
:heavy_multiplication_ x:</w>
Lu v</w>
metr es</w>
goo fy</w>
adm its</w>
# Ac
Gl ory</w>
#L ets
war riors</w>
Cher ry</w>
IB M</w>
di st</w>
Br itt
Enjoy ing</w>
Wis dom</w>
ba k</w>
p es
for merly</w>
d ash</w>
Col ors</w>
princ es
ear rings</w>
foo lish</w>
part ying</w>
S ear
ide k</w>
ii i
ble ed</w>
ma themat
re sts</w>
j ection</w>
eb ay</w>
ag ger
t um
iiii iiii
ba king</w>
N ate</w>
Sing er</w>
T _
inter act</w>
28 .
el ement</w>
home town</w>
appro aching</w>
tun nel</w>
e ans</w>
conserv atives</w>
S eat</w>
sto ked</w>
pat ri
TR A</w>
penc il</w>
P irates</w>
Quar ter</w>
embarra ssment</w>
#t v
govern ments</w>
q q
:mo bile_
am i
cap tion</w>
enni al</w>
ma m
3- 1</w>
C EL
Bron cos</w>
Therap y</w>
who op
ran king</w>
Ra dio
the med</w>
ne utral</w>
bal lot</w>
Lind a</w>
resp ond
fl eet</w>
lin er</w>
ch ina</w>
mission er</w>
open er</w>
K new</w>
M -
:0 6</w>
p ist
r ational</w>
shel f</w>
Mon ica</w>
pre ferred</w>
aa ay</w>
Wi i</w>
L ag
OR S</w>
b re</w>
predic t</w>
tr as</w>
Mo ha
in form
Sho e</w>
Ed it</w>
Li z</w>
gra bbed</w>
Opport unity</w>
# 20
J k</w>
Man ufac
SA VE</w>
M ason</w>
Po sition</w>
Ma k
hi ke</w>
P ING</w>
Wor kers</w>
:5 1</w>
K ol
Bu tton</w>
twit ter
Juli an</w>
bec ca</w>
Sh ee
D ick
:- /</w>
complim ents</w>
b cs</w>
dom ain</w>
ay yy</w>
ll lll</w>
LG BT</w>
Bo ttle</w>
st em
secre tary</w>
Mor ris</w>
un ting</w>
it os</w>
Simp son</w>
, 6
S ing</w>
AC C</w>
co sm
FAM ILY</w>
bel ong
vi e</w>
da e</w>
A bor
super b</w>
ja w</w>
reac tions</w>
the ories</w>
Ba iley</w>
TA GE</w>
cat ches</w>
al ization</w>
Mil k</w>
ei gh
per su
Mar co</w>
10 4</w>
sto wn</w>
mul a</w>
delu sional</w>
the or
hand led</w>
#F oo
Psal m</w>
Ther esa</w>
E n</w>
so a
# fashion</w>
Hol ding</w>
recommend ations</w>
respon ses</w>
af fair</w>
en vy</w>
g les</w>
posit ivity</w>
lob by</w>
j en
def ic
ta b</w>
ra pping</w>
alle gedly</w>
avo iding</w>
sho wer
B ee</w>
x 5</w>
me ter</w>
bri ghter</w>
An no
Mil waukee</w>
gor ith
Bar ca</w>
:5 8</w>
be have</w>
Appreci ate</w>
en ne</w>
Ri vers</w>
S it</w>
n k</w>
K om
K le
s lic
e do</w>
s ors</w>
Prov ince</w>
M EET</w>
# do
I dea</w>
sk ate</w>
broad casting</w>
Cav s</w>
# andro
nic ian</w>
S wa
tit ties</w>
challeng ed</w>
Anim als</w>
Shi p</w>
in ee</w>
la yer</w>
dd en</w>
Th em
fascin ating</w>
C EN
ch ed
ba il</w>
M int</w>
hun ter</w>
P ha
di verse</w>
M ES
num ber
ho bby</w>
mun d</w>
pupp ies</w>
Com ics</w>
# Ad
vin yl</w>
D uck</w>
IN T
#n ever
am ent</w>
no ises</w>
C KED</w>
uc ked</w>
eeee ee</w>
compla ints</w>
Cru ise</w>
Re presentative</w>
Mic ha
#M on
Bun dle</w>
br acelet</w>
ba k
IG N</w>
at ics</w>
Spid er-
Ne bra
ab sur
Prof ile</w>
ent ity</w>
30 -
bu ck</w>
cam ps</w>
stat ue</w>
#Co vid
Organ ic</w>
Me Cam</w>
tem por
L ines</w>
bo thering</w>
Com merce</w>
1. 4</w>
Y G</w>
s ought</w>
Re -
ST Y</w>
swa p</w>
# cryp
T OUR</w>
r atio</w>
s ville</w>
Ch e
gen us</w>
Sig ned</w>
#K ind
o :</w>
U V</w>
be tta</w>
aw es
Co st
Cam pus</w>
#Re post</w>
convic ted</w>
acc us
mus lim</w>
tur tle</w>
k r
n w</w>
Pre par
alle l</w>
Stat ement</w>
K o</w>
me ful</w>
17 :
zz p</w>
B P</w>
easi est</w>
12 :00</w>
c tiv
Ra il
Sh ell</w>
Chang ing</w>
judg ement</w>
nigg az</w>
5 am</w>
per ed</w>
Am endment</w>
S e</w>
Mand ela</w>
li an</w>
athle tic</w>
di alogue</w>
Su icide</w>
:5 6</w>
Con gre
op era</w>
off -
str ings</w>
Wel sh</w>
a is
TIC KETS</w>
sp orting</w>
dis c
femin ist</w>
ST FU</w>
Pan thers</w>
h is
Is sues</w>
scen ario</w>
squee ze</w>
#sorry notsorry</w>
f c
irrit ated</w>
concer ning</w>
car ries</w>
V ince</w>
O ak</w>
and ers</w>
bom bing</w>
Won dering</w>
f ee
5 k</w>
Y ES
assign ments</w>
open ly</w>
inst ance</w>
ser i
LL C</w>
Bang ladesh</w>
M oms</w>
na vig
ea pple</w>
procra stin
back yard</w>
W es
10/ 10</w>
un fortunate</w>
T elev
P ey
water mel
t ile</w>
el ect</w>
Kar ma</w>
Conn ell</w>
Al liance</w>
manag ing</w>
b ent</w>
Adap ter</w>
Kur t</w>
pas sport</w>
ne yland</w>
k m
COM P
Z ach</w>
Egypti an</w>
un likely</w>
_without _
IC O</w>
Ott awa</w>
tic ut</w>
bit ing</w>
inv iting</w>
R ally</w>
:snowman _without_
:snowman_without_ snow:</w>
tu ary</w>
3 1st</w>
li s
Tai wan</w>
M itt</w>
- mouth_face:</w>
:money -mouth_face:</w>
a the
separ ated</w>
# truth</w>
crea tures</w>
thr one</w>
: base
:base ball:</w>
Cro ati
An ci
S NA
:5 2</w>
STA RT</w>
dea f</w>
Jama ica</w>
controver sy</w>
Prot ection</w>
:5 4</w>
Th us</w>
Mari ah</w>
fic tional</w>
11 am</w>
ru pt
DI ES</w>
br ace</w>
p or</w>
dam mit</w>
b anner</w>
discipl ine</w>
#EMA Biggest
Scienti sts</w>
Stri ke</w>
# 201
F IL
W on</w>
Exp lo
Hu b</w>
Foo t</w>
Mon days</w>
# bad
C OO
ess entially</w>
D am</w>
MP H</w>
Mix tape</w>
ru bber</w>
FO UN
pa k</w>
Stev ie</w>
Kend all</w>
key :</w>
ent on</w>
el er
L -
In sight</w>
Den mark</w>
R iley</w>
r zzp</w>
Op tim
dynam ic</w>
N ak
k itch
gu ided</w>
A bo
T rey</w>
:0 8</w>
Ig nor
li vest
aller gic</w>
# ab
na ps</w>
ban ter</w>
Flor ence</w>
R ud
es ha</w>
quo ted</w>
so il</w>
Me ts</w>
P ee
butt ons</w>
hel met</w>
B ills</w>
under way</w>
# pre
K e</w>
N ut
C ities</w>
surpri ses</w>
sh itting</w>
in habit
particip ating</w>
Qu ick
Co st</w>
chee sy</w>
4 2
ev acu
l ens</w>
: umbrella
D in
o vers</w>
emp ire</w>
Tea m
El i</w>
vi er</w>
cup cakes</w>
Bloo dy</w>
cent uries</w>
gur t</w>
ent ers</w>
suspec ted</w>
ni pples</w>
fl ee
predic table</w>
ta pes</w>
th en
: cat_face:</w>
Sc ene</w>
ta e</w>
re solve</w>
se y
mass age:</w>
:person_getting_ massage:</w>
cha irs</w>
the dra
sc roll</w>
estab lish</w>
Day s
tea ches</w>
Bla ir</w>
S MA
Inspir ed</w>
nic er</w>
Thous ands</w>
r onic</w>
Bay ern</w>
Naz is</w>
cand le</w>
Nor mal</w>
Inst ant</w>
N d</w>
emp tion</w>
p r</w>
al lo
D re</w>
W OO
arri ving</w>
ra men
# photography</w>
resul ted</w>
Hur t</w>
ti m</w>
L CD</w>
#Pho to
bis hop</w>
JO H
ba stards</w>
Ni kki</w>
Me lissa</w>
Bot tom</w>
FF S</w>
compas sion</w>
gr ill</w>
stab bed</w>
gi mme</w>
s up</w>
:0 7</w>
a ver
re ject</w>
W hi
I P
C lau
F AN</w>
H ag
:cros s_mark:</w>
conver ted</w>
automob il
ge or
Enter prise</w>
Dar ren</w>
K A
oo oh</w>
Work out</w>
tal ents</w>
pa ins</w>
A INT</w>
bl at
Po ster</w>
W inst
B eta</w>
exp anded</w>
flo ating</w>
inter ior</w>
ou ted</w>
Nov a</w>
gentlem an</w>
Ch art</w>
Fro zen</w>
Vinc ent</w>
NOT ICE</w>
Mon ths</w>
c is
ru m</w>
Fuc ked</w>
ww ww
consec utive</w>
16 -
ep id
s lot</w>
ha ul</w>
pur po
trans it</w>
comp ati
do x</w>
sign als</w>
#for ex</w>
1. 8</w>
coll ecting</w>
m g</w>
what soever</w>
L AN
RE SP
es .
j ac
grand father</w>
Bu reau</w>
Ma ker</w>
Dol l</w>
Dem and</w>
G C
subscri ption</w>
int ri
inoy Star</w>
th under
automobil e:</w>
Ch loe</w>
5 3
po ser</w>
eth nic</w>
pre d
196 3</w>
ra z
pat terns</w>
Gun s</w>
introduc tion</w>
M ID
h em</w>
ext ensive</w>
discrimin ation</w>
p ale</w>
pro ps</w>
Thank you</w>
vide o
#K CAP
arrog ant</w>
re mark
disgu sted</w>
ention ally</w>
ad vert</w>
A ber
um i</w>
du ll</w>
HAHAHAHA HA</w>
G Y</w>
hea ting</w>
pro hibit
re covered</w>
y ess</w>
ar ius</w>
with dra
err ors</w>
wic hes</w>
cigar ette</w>
J R</w>
Jer usalem</w>
Colom bia</w>
Cr ying</w>
# tea
Cy ber
ign ers</w>
dra gged</w>
subst anti
N ee
cor ny</w>
di gn
J C</w>
id i</w>
cr ay</w>
I K</w>
mo tor</w>
polit an</w>
se ys</w>
y ang</w>
con gre
Ho st</w>
fro m
Under stand</w>
Jo shua</w>
har t</w>
#KCAP inoyStar</w>
Au burn</w>
Har t
F elt</w>
St aying</w>
o e</w>
ud a</w>
PP ED</w>
R Y
tom mor
b am
thedra l</w>
Achi ev
M it
nea th</w>
E th
Pain ting</w>
der i
W it
Me ga</w>
rec tion</w>
scholar ship</w>
: vide
jun gle</w>
pr ank</w>
in die</w>
co aster</w>
# De
Le f
O hhh</w>
son ville</w>
kor ean</w>
di ac</w>
mil f</w>
LU KE</w>
Fu el</w>
D is</w>
Vehic le</w>
R ange</w>
regi ons</w>
con vert</w>
d ani
Grand ma</w>
Sto cks</w>
Consum er</w>
wol ves</w>
NE E
Res cue</w>
n ell</w>
T ears</w>
Niger ians</w>
no ds</w>
Dem ocracy</w>
F R</w>
h l
clim bing</w>
it a
p ies</w>
dea lt</w>
W en</w>
ch less</w>
AMERIC A</w>
P apa</w>
CHRIST MAS</w>
car e
Chang es</w>
uni versities</w>
tho logy</w>
US LY</w>
best friends</w>
aaaa a</w>
to ss</w>
investig ating</w>
d unk</w>
T wit
guil t</w>
u hh</w>
num b</w>
:0 9</w>
Cri minal</w>
h p</w>
[...]
