. 4
@USER 5
the 6
, 7
I 8
to 9
HTTPURL 10
a 11
! 12
and 13
you 14
of 15
in 16
is 17
it 18
for 19
's 20
? 21
: 22
my 23
on 24
that 25
" 26
me 27
... 28
n't 29
with 30
be 31
do 32
this 33
- 34
at 35
have 36
i 37
was 38
so 39
'm 40
are 41
but 42
like 43
your 44
just 45
not 46
The 47
all 48
up 49
out 50
get 51
as 52
from 53
we 54
& 55
can 56
( 57
he 58
they 59
) 60
by 61
about 62
one 63
when 64
if 65
what 66
.. 67
know 68
' 69
will 70
love 71
or 72
You 73
an 74
/ 75
It 76
now 77
time 78
u 79
no 80
're 81
go 82
people 83
how 84
#@@ 85
would 86
who 87
:face_with_tears_of_joy: 88
more 89
has 90
his 91
her 92
day 93
good 94
see 95
want 96
she 97
“ 98
there 99
got 100
think 101
” 102
did 103
A 104
lol 105
them 106
back 107
been 108
some 109
* 110
too 111
much 112
'll 113
need 114
make 115
really 116
going 117
had 118
2 119
've 120
only 121
My 122
our 123
him 124
If 125
This 126
new 127
today 128
can't 129
their 130
… 131
even 132
then 133
We 134
still 135
right 136
here 137
life 138
its 139
say 140
over 141
off 142
never 143
$ 144
shit 145
why 146
were 147
us 148
than 149
:) 150
should 151
could 152
because 153
way 154
am 155
via 156
work 157
does 158
And 159
first 160
best 161
He 162
3 163
always 164
What 165
being 166
1 167
That 168
take 169
follow 170
man 171
Do 172
In 173
feel 174
last 175
come 176
after 177
better 178
ever 179
So 180
down 181
well 182
please 183
look 184
other 185
'' 186
into 187
someone 188
year 189
`` 190
night 191
But 192
said 193
gonna 194
thing 195
Just 196
let 197
these 198
im 199
great 200
something 201
video 202
How 203
4 204
When 205
again 206
any 207
; 208
where 209
New 210
5 211
game 212
before 213
made 214
girl 215
| 216
next 217
No 218
home 219
world 220
% 221
same 222
week 223
'd 224
happy 225
most 226
bad 227
give 228
wanna 229
school 230
-@@ 231
fuck 232
things 233
every 234
getting 235
They 236
also 237
tell 238
many 239
hope 240
> 241
To 242
-LRB- 243
-RRB- 244
ass 245
RT 246
:loudly_crying_face: 247
which 248
very 249
Why 250
10 251
doing 252
hate 253
years 254
two 255
s 256
wait 257
show 258
find 259
sure 260
long 261
days 262
little 263
keep 264
watch 265
tomorrow 266
— 267
those 268
stop 269
done 270
mean 271
help 272
THE 273
friends 274
play 275
put 276
YOU 277
She 278
tonight 279
:red_heart: 280
Is 281
person 282
real 283
around 284
everyone 285
talk 286
For 287
n 288
old 289
while 290
actually 291
through 292
w 293
live 294
[ 295
guys 296
start 297
though 298
Now 299
away 300
hard 301
U 302
dont 303
everything 304
sleep 305
already 306
thought 307
All 308
fucking 309
use 310
cause 311
big 312
haha 313
x 314
ur 315
tweet 316
] 317
lot 318
Not 319
ya 320
makes 321
o 322
miss 323
since 324
money 325
There 326
A@@ 327
end 328
call 329
name 330
own 331
Me 332
try 333
trying 334
+ 335
free 336
anything 337
Lol 338
6 339
morning 340
’ 341
Your 342
phone 343
having 344
Love 345
team 346
another 347
On 348
nothing 349
until 350
God 351
friend 352
wish 353
win 354
:( 355
care 356
looking 357
Please 358
oh 359
myself 360
TO 361
song 362
face 363
house 364
One 365
<3 366
such 367
K@@ 368
won't 369
nice 370
read 371
used 372
ME 373
girls 374
yeah 375
believe 376
baby 377
head 378
guy 379
7 380
S@@ 381
making 382
family 383
without 384
Oh 385
may 386
coming 387
Get 388
music 389
:smiling_face_with_heart-eyes: 390
yet 391
left 392
pretty 393
Trump 394
fun 395
Thank 396
bitch 397
heart 398
birthday 399
anyone 400
talking 401
S 402
might 403
Thanks 404
~ 405
watching 406
soon 407
seen 408
k@@ 409
mind 410
part 411
AND 412
ain't 413
T@@ 414
wrong 415
amazing 416
Good 417
P@@ 418
thank 419
B@@ 420
mom 421
says 422
s@@ 423
bed 424
both 425
times 426
Can 427
enough 428
D@@ 429
place 430
change 431
thanks 432
few 433
whole 434
else 435
went 436
hair 437
20 438
un@@ 439
8 440
told 441
G@@ 442
Day 443
playing 444
must 445
saying 446
Have 447
looks 448
Who 449
N@@ 450
12 451
twitter 452
ask 453
Like 454
M@@ 455
tho 456
job 457
With 458
season 459
y@@ 460
lmao 461
sorry 462
nigga 463
beautiful 464
# 465
Happy 466
MY 467
stay 468
y 469
ready 470
E@@ 471
C@@ 472
hear 473
liked 474
b 475
Let 476
remember 477
true 478
point 479
against 480
yes 481
gotta 482
class 483
probably 484
high 485
leave 486
Check 487
called 488
far 489
Of 490
:weary_face: 491
cute 492
hours 493
car 494
gone 495
IS 496
r 497
O@@ 498
C 499
damn 500
cool 501
As 502
able 503
m 504
gets 505
Well 506
re@@ 507
ok 508
weekend 509
i@@ 510
saw 511
hit 512
F@@ 513
funny 514
e@@ 515
found 516
;) 517
:smiling_face_with_smiling_eyes: 518
SO 519
in@@ 520
R@@ 521
Ca 522
top 523
_@@ 524
L@@ 525
together 526
a@@ 527
food 528
boy 529
US 530
eat 531
15 532
Are 533
– 534
run 535
k 536
yourself 537
least 538
W@@ 539
9 540
d@@ 541
okay 542
t@@ 543
H@@ 544
I@@ 545
At 546
full 547
party 548
buy 549
100 550
room 551
t 552
guess 553
needs 554
came 555
once 556
sex 557
working 558
understand 559
check 560
IT 561
Twitter 562
< 563
support 564
women 565
movie 566
4@@ 567
reason 568
Im 569
stuff 570
maybe 571
during 572
sad 573
side 574
O 575
each 576
x@@ 577
kids 578
post 579
between 580
p@@ 581
early 582
black 583
feeling 584
ago 585
hot 586
^ 587
wanted 588
different 589
lost 590
c 591
m@@ 592
under 593
IN 594
thinking 595
:unamused_face: 596
30 597
took 598
wants 599
book 600
hell 601
taking 602
People 603
:D 604
bc 605
later 606
b@@ 607
n@@ 608
:heart_suit: 609
set 610
J@@ 611
= 612
bit 613
d 614
news 615
favorite 616
Hey 617
white 618
News 619
11 620
crazy 621
Hi 622
mad 623
Y@@ 624
half 625
Be 626
others 627
story 628
less 629
g@@ 630
‘ 631
comes 632
B 633
open 634
text 635
second 636
started 637
al@@ 638
.@@ 639
Its 640
o@@ 641
late 642
Today 643
number 644
country 645
18 646
D 647
past 648
cant 649
h@@ 650
line 651
heard 652
kind 653
5@@ 654
Here 655
men 656
de 657
yo 658
50 659
goes 660
6@@ 661
V@@ 662
:two_hearts: 663
THIS 664
M 665
en@@ 666
Great 667
die 668
literally 669
Black 670
eyes 671
7@@ 672
19 673
2@@ 674
excited 675
following 676
games 677
Go 678
perfect 679
World 680
meet 681
z 682
almost 683
U@@ 684
z@@ 685
j@@ 686
F 687
dad 688
Did 689
album 690
break 691
hour 692
moment 693
bring 694
anymore 695
tweets 696
god 697
3@@ 698
Yes 699
13 700
er 701
move 702
es 703
matter 704
son 705
turn 706
idea 707
May 708
means 709
AM 710
Time 711
#S@@ 712
u@@ 713
g 714
c@@ 715
body 716
v@@ 717
16 718
fans 719
pay 720
happen 721
:face_blowing_a_kiss: 722
2016 723
w@@ 724
an@@ 725
Some 726
waiting 727
stupid 728
After 729
T 730
words 731
p 732
fact 733
fan 734
fall 735
bout 736
LOVE 737
f@@ 738
either 739
See 740
single 741
awesome 742
close 743
omg 744
Friday 745
boys 746
Best 747
9@@ 748
OF 749
woman 750
PM 751
listen 752
2015 753
minutes 754
word 755
forget 756
tired 757
using 758
vote 759
ate 760
American 761
ppl 762
business 763
Will 764
rest 765
Only 766
Z@@ 767
smile 768
three 769
da 770
8@@ 771
er@@ 772
picture 773
summer 774
L 775
ing 776
X 777
Man 778
dream 779
mine 780
_ 781
14 782
es@@ 783
ones 784
problem 785
send 786
followers 787
ON 788
alone 789
From 790
water 791
added 792
worth 793
K 794
month 795
R 796
More 797
h 798
Yeah 799
ed 800
y'all 801
chance 802
hand 803
fight 804
ers 805
ar@@ 806
on@@ 807
vs 808
v 809
deal 810
bro 811
25 812
finally 813
seeing 814
proud 815
ill 816
Christmas 817
en 818
Life 819
:OK_hand: 820
sick 821
N 822
brother 823
beat 824
weeks 825
hey 826
17 827
months 828
FOR 829
Our 830
City 831
instead 832
walk 833
played 834
th@@ 835
l@@ 836
P 837
:beaming_face_with_smiling_eyes: 838
dead 839
won 840
account 841
till 842
age 843
Hope 844
power 845
niggas 846
First 847
em 848
fine 849
NOT 850
ha 851
state 852
e 853
These 854
r@@ 855
ing@@ 856
Up 857
asked 858
young 859
hi 860
case 861
city 862
knew 863
X@@ 864
future 865
cry 866
gave 867
course 868
dude 869
become 870
:smiling_face: 871
hahaha 872
yesterday 873
pic 874
TV 875
giving 876
G 877
His 878
ma@@ 879
na 880
In@@ 881
l 882
group 883
PLEASE 884
America 885
idk 886
hurt 887
24 888
E 889
wonder 890
Come 891
Or 892
dog 893
FOLLOW 894
0 895
important 896
kill 897
sister 898
online 899
list 900
wear 901
LOL 902
glad 903
question 904
): 905
-- 906
forever 907
:pensive_face: 908
xx 909
:/ 910
happened 911
knows 912
forward 913
learn 914
small 915
behind 916
weird 917
Never 918
media 919
cuz 920
Follow 921
UK 922
lose 923
is@@ 924
thats 925
Video 926
United 927
Got 928
outside 929
10@@ 930
cut 931
lie 932
:folded_hands: 933
link 934
By 935
order 936
light 937
sometimes 938
seriously 939
£ 940
White 941
Big 942
living 943
(: 944
parents 945
Watch 946
rather 947
1st 948
#B@@ 949
Free 950
act 951
f 952
ha@@ 953
John 954
hold 955
takes 956
W 957
IM 958
Where 959
wake 960
football 961
running 962
Haha 963
21 964
worst 965
tried 966
swear 967
kid 968
to@@ 969
Sunday 970
40 971
2014 972
Maybe 973
date 974
♡ 975
town 976
voice 977
ah 978
pick 979
li@@ 980
easy 981
enjoy 982
death 983
Weather 984
special 985
stand 986
it@@ 987
smh 988
front 989
cold 990
share 991
couple 992
NO 993
children 994
#C@@ 995
ch@@ 996
ALL 997
Saturday 998
fire 999
Facebook 1000
sh@@ 1001
luck 1002
Then 1003
Fuck 1004
sweet 1005
due 1006
red 1007
2017 1008
social 1009
seems 1010
type 1011
Make 1012
definitely 1013
‍ 1014
shows 1015
House 1016
Top 1017
or@@ 1018
answer 1019
lil 1020
public 1021
:smirking_face: 1022
college 1023
known 1024
Live 1025
kinda 1026
service 1027
plan 1028
shot 1029
listening 1030
ts 1031
1@@ 1032
strong 1033
pictures 1034
al 1035
Y 1036
hands 1037
Would 1038
nobody 1039
Even 1040
along 1041
H 1042
:@@ 1043
THAT 1044
drive 1045
2018 1046
NEW 1047
straight 1048
series 1049
Was 1050
2013 1051
child 1052
fast 1053
pls 1054
:thumbs_up: 1055
drink 1056
laugh 1057
Music 1058
di@@ 1059
Out 1060
st@@ 1061
sense 1062
ma 1063
songs 1064
at@@ 1065
ball 1066
° 1067
super 1068
agree 1069
feels 1070
Obama 1071
sound 1072
President 1073
State 1074
join 1075
million 1076
Every 1077
:-) 1078
trust 1079
reading 1080
#T@@ 1081
player 1082
starting 1083
level 1084
Still 1085
ation 1086
short 1087
:hundred_points: 1088
Because 1089
self 1090
el@@ 1091
York 1092
loved 1093
born 1094
fake 1095
works 1096
Also 1097
la@@ 1098
film 1099
ri@@ 1100
low 1101
wit 1102
yours 1103
Full 1104
app 1105
am@@ 1106
:flushed_face: 1107
sounds 1108
Monday 1109
ice 1110
honestly 1111
Wow 1112
School 1113
eating 1114
OMG 1115
page 1116
available 1117
de@@ 1118
followed 1119
watched 1120
deserve 1121
videos 1122
22 1123
Last 1124
Take 1125
2019 1126
ra@@ 1127
history 1128
episode 1129
missed 1130
ro@@ 1131
be@@ 1132
save 1133
le@@ 1134
system 1135
porn 1136
met 1137
:face_with_rolling_eyes: 1138
club 1139
telling 1140
government 1141
Really 1142
lo@@ 1143
sign 1144
pass 1145
human 1146
South 1147
relationship 1148
area 1149
aint 1150
company 1151
:raising_hands: 1152
near 1153
inside 1154
weather 1155
test 1156
players 1157
art 1158
London 1159
fucked 1160
Does 1161
0@@ 1162
About 1163
An 1164
visit 1165
bet 1166
sit 1167
sent 1168
se@@ 1169
Look 1170
playlist 1171
ly 1172
truth 1173
somebody 1174
la 1175
needed 1176
Her 1177
land 1178
bitches 1179
wow 1180
realize 1181
pain 1182
possible 1183
se 1184
ka 1185
as@@ 1186
speak 1187
dumb 1188
photo 1189
crying 1190
problems 1191
worry 1192
pics 1193
serious 1194
happens 1195
respect 1196
loves 1197
July 1198
spend 1199
Need 1200
bought 1201
ic@@ 1202
taken 1203
#P@@ 1204
control 1205
th 1206
everyday 1207
le 1208
Re@@ 1209
gay 1210
#A@@ 1211
Keep 1212
asking 1213
India 1214
dis@@ 1215
exactly 1216
mother 1217
NOW 1218
wife 1219
whatever 1220
23 1221
final 1222
wearing 1223
Sometimes 1224
lead 1225
ARE 1226
worse 1227
2nd 1228
write 1229
#M@@ 1230
ab@@ 1231
DO 1232
Sorry 1233
2012 1234
king 1235
Most 1236
#D@@ 1237
looked 1238
office 1239
ugly 1240
BE 1241
movies 1242
dance 1243
Back 1244
joke 1245
band 1246
mouth 1247
sing 1248
April 1249
ed@@ 1250
The@@ 1251
per 1252
ti@@ 1253
em@@ 1254
seem 1255
health 1256
ta@@ 1257
often 1258
experience 1259
:thinking_face: 1260
To@@ 1261
Everyone 1262
war 1263
catch 1264
Justin 1265
West 1266
Stop 1267
• 1268
ated 1269
changed 1270
shut 1271
RE@@ 1272
DM 1273
forgot 1274
boyfriend 1275
given 1276
:medium_skin_tone: 1277
event 1278
door 1279
dick 1280
do@@ 1281
March 1282
High 1283
air 1284
English 1285
J 1286
ho@@ 1287
road 1288
tickets 1289
AT 1290
round 1291
Un@@ 1292
Home 1293
killed 1294
Women 1295
bus 1296
store 1297
scared 1298
lives 1299
pm 1300
#F@@ 1301
broke 1302
match 1303
based 1304
trip 1305
including 1306
attention 1307
field 1308
safe 1309
fat 1310
Another 1311
the@@ 1312
law 1313
FREE 1314
:light_skin_tone: 1315
longer 1316
Ma@@ 1317
died 1318
Lmao 1319
:clapping_hands: 1320
ft 1321
:winking_face: 1322
supposed 1323
V 1324
drop 1325
local 1326
annoying 1327
paid 1328
entire 1329
re 1330
June 1331
tryna 1332
Red 1333
everybody 1334
calling 1335
te 1336
USA 1337
rt 1338
National 1339
ad@@ 1340
North 1341
points 1342
students 1343
piece 1344
biggest 1345
Al@@ 1346
felt 1347
ar 1348
card 1349
led 1350
quite 1351
photos 1352
sexy 1353
26 1354
cover 1355
co@@ 1356
rain 1357
yall 1358
meant 1359
UP 1360
anyway 1361
four 1362
Someone 1363
28 1364
ima 1365
ride 1366
Game 1367
finished 1368
middle 1369
il@@ 1370
ting 1371
star 1372
Could 1373
add 1374
goal 1375
:purple_heart: 1376
#G@@ 1377
Damn 1378
27 1379
Jesus 1380
iPhone 1381
:fire: 1382
si@@ 1383
bo@@ 1384
wtf 1385
Read 1386
finish 1387
minute 1388
lady 1389
gives 1390
became 1391
box 1392
sitting 1393
lovely 1394
Apple 1395
ac@@ 1396
site 1397
huge 1398
YOUR 1399
Girl 1400
ee 1401
issue 1402
didnt 1403
Should 1404
latest 1405
Show 1406
cat 1407
af 1408
Party 1409
Mar@@ 1410
:grinning_face_with_sweat: 1411
missing 1412
Looking 1413
starts 1414
police 1415
message 1416
across 1417
GO 1418
:medium_light_skin_tone: 1419
record 1420
WE 1421
:rolling_on_the_floor_laughing: 1422
An@@ 1423
Michael 1424
JUST 1425
poor 1426
posted 1427
:musical_notes: 1428
and@@ 1429
ways 1430
Mo@@ 1431
busy 1432
drunk 1433
dinner 1434
eye 1435
mate 1436
throw 1437
ko 1438
Photo 1439
ia 1440
University 1441
within 1442
#W@@ 1443
LIKE 1444
Nothing 1445
babe 1446
James 1447
asleep 1448
main 1449
Going 1450
China 1451
form 1452
website 1453
feelings 1454
thinks 1455
coronavirus 1456
August 1457
especially 1458
questions 1459
etc 1460
Year 1461
mood 1462
step 1463
De@@ 1464
turned 1465
ine 1466
himself 1467
im@@ 1468
no@@ 1469
fit 1470
books 1471
yea 1472
Had 1473
Mr 1474
totally 1475
bu@@ 1476
coffee 1477
Too 1478
Real 1479
Two 1480
welcome 1481
study 1482
pussy 1483
likes 1484
blue 1485
#N@@ 1486
St 1487
Right 1488
expect 1489
Want 1490
version 1491
ang 1492
interesting 1493
issues 1494
email 1495
mm 1496
November 1497
lets 1498
key 1499
Lord 1500
lucky 1501
60 1502
space 1503
om@@ 1504
ec@@ 1505
community 1506
WHAT 1507
walking 1508
ba@@ 1509
paper 1510
lies 1511
track 1512
tv 1513
17@@ 1514
themselves 1515
dreams 1516
Ar@@ 1517
absolutely 1518
style 1519
29 1520
el 1521
#K@@ 1522
sa@@ 1523
Birthday 1524
go@@ 1525
ating 1526
WITH 1527
gift 1528
rn 1529
90 1530
members 1531
writing 1532
BUT 1533
Star 1534
ted 1535
Park 1536
ke 1537
reply 1538
Night 1539
Sh@@ 1540
leaving 1541
12@@ 1542
grow 1543
action 1544
attack 1545
ONE 1546
dress 1547
:sparkling_heart: 1548
released 1549
sucks 1550
King 1551
Ha@@ 1552
ley 1553
Q@@ 1554
usually 1555
ur@@ 1556
16@@ 1557
blog 1558
code 1559
meeting 1560
bored 1561
truly 1562
:medium_dark_skin_tone: 1563
chat 1564
ag@@ 1565
dark 1566
deep 1567
choice 1568
Baby 1569
Car@@ 1570
gym 1571
Bo@@ 1572
info 1573
extra 1574
tour 1575
wonderful 1576
Harry 1577
mo@@ 1578
fuckin 1579
plans 1580
woke 1581
October 1582
race 1583
rock 1584
:female_sign: 1585
HAVE 1586
ey 1587
moving 1588
States 1589
for@@ 1590
Ok 1591
calls 1592
David 1593
completely 1594
#R@@ 1595
lots 1596
Business 1597
member 1598
sun 1599
quick 1600
imagine 1601
lunch 1602
December 1603
et 1604
touch 1605
project 1606
notice 1607
pe@@ 1608
Google 1609
Co@@ 1610
building 1611
tbh 1612
ta 1613
chill 1614
Buy 1615
shirt 1616
ant 1617
father 1618
Radio 1619
clean 1620
appreciate 1621
For@@ 1622
tweeting 1623
putting 1624
concert 1625
na@@ 1626
bag 1627
size 1628
ton 1629
five 1630
id 1631
Blue 1632
wall 1633
ahead 1634
3rd 1635
January 1636
um 1637
Thursday 1638
named 1639
15@@ 1640
County 1641
:P 1642
character 1643
Okay 1644
release 1645
con@@ 1646
e-@@ 1647
train 1648
report 1649
laughing 1650
:skull: 1651
president 1652
ds 1653
` 1654
Join 1655
sp@@ 1656
September 1657
:sparkles: 1658
Hello 1659
Channel 1660
#The@@ 1661
worked 1662
:see-no-evil_monkey: 1663
45 1664
spent 1665
clothes 1666
stuck 1667
km 1668
continue 1669
Always 1670
Men 1671
:victory_hand: 1672
clear 1673
ca@@ 1674
:relieved_face: 1675
driving 1676
me@@ 1677
sleeping 1678
nah 1679
article 1680
Listen 1681
winning 1682
complete 1683
Super 1684
13@@ 1685
personal 1686
Chris 1687
teacher 1688
:smiling_face_with_sunglasses: 1689
major 1690
currently 1691
su@@ 1692
daughter 1693
view 1694
min 1695
:party_popper: 1696
suck 1697
choose 1698
Z 1699
difference 1700
31 1701
id@@ 1702
market 1703
#L@@ 1704
fair 1705
ana 1706
decided 1707
bs 1708
14@@ 1709
Call 1710
shop 1711
stories 1712
:crying_face: 1713
nd 1714
:eyes: 1715
skin 1716
Paul 1717
Wind 1718
stage 1719
brought 1720
ps 1721
energy 1722
career 1723
opinion 1724
England 1725
present 1726
price 1727
British 1728
Know 1729
singing 1730
information 1731
return 1732
earlier 1733
:pouting_face: 1734
fell 1735
Very 1736
wa@@ 1737
soul 1738
18@@ 1739
War 1740
car@@ 1741
simple 1742
Next 1743
End 1744
bar 1745
total 1746
ly@@ 1747
league 1748
Off 1749
Canada 1750
St@@ 1751
political 1752
San 1753
#E@@ 1754
thoughts 1755
kiss 1756
Girls 1757
Ro@@ 1758
:blue_heart: 1759
LA 1760
radio 1761
hang 1762
Omg 1763
sale 1764
os 1765
Tuesday 1766
ad 1767
pa@@ 1768
board 1769
xxx 1770
ina 1771
po@@ 1772
Over 1773
happening 1774
married 1775
Mc@@ 1776
League 1777
teams 1778
Tell 1779
ex@@ 1780
female 1781
original 1782
Cause 1783
ir@@ 1784
80 1785
keeps 1786
my@@ 1787
ex 1788
Any 1789
MA@@ 1790
per@@ 1791
Con@@ 1792
OUT 1793
Been 1794
Think 1795
period 1796
practice 1797
held 1798
ks 1799
35 1800
ID 1801
feet 1802
gon 1803
church 1804
figure 1805
#H@@ 1806
ie 1807
sell 1808
positive 1809
IF 1810
Cup 1811
spot 1812
offer 1813
training 1814
several 1815
Hot 1816
st 1817
q@@ 1818
#I@@ 1819
caught 1820
FUCK 1821
:sleeping_face: 1822
Shit 1823
over@@ 1824
ay 1825
normal 1826
MUCH 1827
et@@ 1828
GET 1829
broken 1830
shower 1831
knowing 1832
station 1833
shoes 1834
Being 1835
ee@@ 1836
success 1837
IN@@ 1838
Q 1839
Team 1840
brain 1841
naked 1842
election 1843
slow 1844
interested 1845
sa 1846
data 1847
fix 1848
ne@@ 1849
Air 1850
dat 1851
trade 1852
position 1853
situation 1854
ive 1855
Find 1856
ates 1857
large 1858
Give 1859
wont 1860
ter 1861
:expressionless_face: 1862
killing 1863
jobs 1864
allowed 1865
ou@@ 1866
hoes 1867
current 1868
French 1869
til 1870
ter@@ 1871
yu 1872
Watching 1873
WAS 1874
unless 1875
details 1876
pop 1877
ol@@ 1878
older 1879
peace 1880
Di@@ 1881
ring 1882
alive 1883
update 1884
Daily 1885
hoe 1886
ends 1887
of@@ 1888
street 1889
Idk 1890
Click 1891
Getting 1892
ship 1893
ran 1894
Wednesday 1895
performance 1896
Summer 1897
amount 1898
1.@@ 1899
j 1900
ak@@ 1901
tax 1902
Dr 1903
former 1904
Wish 1905
Green 1906
shopping 1907
CAN 1908
'@@ 1909
fighting 1910
ent@@ 1911
ES 1912
treat 1913
color 1914
happiness 1915
weight 1916
smart 1917
Which 1918
:growing_heart: 1919
mess 1920
Ch@@ 1921
kick 1922
tf 1923
us@@ 1924
showing 1925
acting 1926
mum 1927
daily 1928
role 1929
hi@@ 1930
ea@@ 1931
third 1932
4th 1933
green 1934
ans 1935
pull 1936
70 1937
block 1938
hurts 1939
ty 1940
except 1941
Dear 1942
Street 1943
random 1944
blood 1945
plus 1946
Po@@ 1947
Am 1948
internet 1949
xD 1950
national 1951
promise 1952
bi@@ 1953
floor 1954
Updates 1955
quality 1956
girlfriend 1957
Set 1958
certain 1959
Health 1960
ations 1961
handle 1962
Nice 1963
Book 1964
qu@@ 1965
explain 1966
Little 1967
gun 1968
awkward 1969
contact 1970
seconds 1971
ay@@ 1972
ish 1973
ies 1974
loving 1975
Family 1976
um@@ 1977
wrote 1978
smoke 1979
Times 1980
20@@ 1981
official 1982
pizza 1983
11@@ 1984
moved 1985
No@@ 1986
YouTube 1987
ve 1988
33 1989
count 1990
title 1991
Anyone 1992
ke@@ 1993
stars 1994
build 1995
ling 1996
lying 1997
HE 1998
created 1999
dying 2000
mins 2001
create 2002
Gold 2003
Rain 2004
rich 2005
losing 2006
Brown 2007
Remember 2008
fear 2009
ys 2010
:p 2011
AL@@ 2012
California 2013
beach 2014
afraid 2015
500 2016
screen 2017
Instagram 2018
coach 2019
profile 2020
Ho@@ 2021
park 2022
Has 2023
01 2024
Texas 2025
Bar@@ 2026
reach 2027
NY 2028
interview 2029
table 2030
towards 2031
goals 2032
design 2033
chicken 2034
ings 2035
East 2036
sports 2037
homework 2038
fly 2039
OH 2040
reality 2041
ion 2042
bullshit 2043
decision 2044
Taylor 2045
score 2046
Help 2047
32 2048
Social 2049
judge 2050
ticket 2051
written 2052
WHY 2053
Week 2054
opening 2055
likely 2056
tea 2057
common 2058
court 2059
favourite 2060
Way 2061
200 2062
sky 2063
sk@@ 2064
drinking 2065
stick 2066
Me@@ 2067
boring 2068
ground 2069
sis 2070
ne 2071
received 2072
Pro@@ 2073
cream 2074
Club 2075
:upside-down_face: 2076
evening 2077
doubt 2078
En@@ 2079
waste 2080
snow 2081
ons 2082
conversation 2083
op@@ 2084
ian 2085
roll 2086
ki 2087
man@@ 2088
ended 2089
hungry 2090
gu@@ 2091
Online 2092
February 2093
alright 2094
dy 2095
cup 2096
somewhere 2097
Since 2098
advice 2099
pre@@ 2100
Stay 2101
twice 2102
Everything 2103
sold 2104
blame 2105
wins 2106
honest 2107
plays 2108
closed 2109
est@@ 2110
term 2111
Finally 2112
student 2113
holiday 2114
ni@@ 2115
loss 2116
stopped 2117
OR 2118
lmfao 2119
Things 2120
shoot 2121
pray 2122
ul@@ 2123
built 2124
George 2125
bye 2126
stream 2127
places 2128
beer 2129
mention 2130
scene 2131
Media 2132
kept 2133
II 2134
racist 2135
ve@@ 2136
force 2137
upset 2138
College 2139
loud 2140
:person_tipping_hand: 2141
boo 2142
While 2143
:person_shrugging: 2144
none 2145
tells 2146
actual 2147
double 2148
bar@@ 2149
research 2150
travel 2151
ba 2152
focus 2153
out@@ 2154
realized 2155
process 2156
greatest 2157
99 2158
ker 2159
learned 2160
ent 2161
bless 2162
pissed 2163
voted 2164
cousin 2165
response 2166
channel 2167
EU 2168
pro@@ 2169
VIDEO 2170
gold 2171
thru 2172
holding 2173
above 2174
boss 2175
ED 2176
der 2177
Australia 2178
program 2179
Ba@@ 2180
breakfast 2181
Coronavirus 2182
Work 2183
campaign 2184
shall 2185
___ 2186
cost 2187
grade 2188
La@@ 2189
CA 2190
mo 2191
drama 2192
up@@ 2193
private 2194
AN@@ 2195
Art 2196
Lady 2197
chocolate 2198
earth 2199
est 2200
buying 2201
ER 2202
model 2203
Say 2204
artist 2205
Those 2206
ness 2207
Par@@ 2208
Chinese 2209
Miss 2210
nap 2211
dear 2212
results 2213
Hahaha 2214
GOD 2215
Go@@ 2216
:tired_face: 2217
credit 2218
mph 2219
Morning 2220
ch 2221
leader 2222
rights 2223
basically 2224
Americans 2225
cake 2226
Russia 2227
sc@@ 2228
famous 2229
Ad@@ 2230
ge@@ 2231
tears 2232
pants 2233
whether 2234
names 2235
Chicago 2236
ver@@ 2237
dm 2238
husband 2239
mi 2240
HA@@ 2241
sm@@ 2242
Florida 2243
jealous 2244
Open 2245
ens 2246
ss 2247
comment 2248
jus 2249
Post 2250
75 2251
:winking_face_with_tongue: 2252
Wait 2253
taste 2254
Long 2255
language 2256
WILL 2257
sha@@ 2258
Sha@@ 2259
popular 2260
ily 2261
passed 2262
International 2263
di 2264
learning 2265
so@@ 2266
LIVE 2267
services 2268
wedding 2269
Money 2270
bank 2271
surprised 2272
hoping 2273
review 2274
dogs 2275
Looks 2276
Lo@@ 2277
Center 2278
hello 2279
crap 2280
goin 2281
Police 2282
les 2283
classes 2284
gas 2285
involved 2286
Washington 2287
beginning 2288
press 2289
general 2290
imma 2291
hopefully 2292
DAY 2293
accept 2294
Old 2295
ss@@ 2296
bunch 2297
#NowPlaying 2298
ugh 2299
ms 2300
ideas 2301
2008 2302
changes 2303
falling 2304
:grinning_face_with_smiling_eyes: 2305
Gotta 2306
lazy 2307
soo 2308
claim 2309
warm 2310
OK 2311
Down 2312
Part 2313
miles 2314
Power 2315
confused 2316
48 2317
Indian 2318
lay 2319
#J@@ 2320
teen 2321
der@@ 2322
TL 2323
ITS 2324
AN 2325
On@@ 2326
challenge 2327
sharing 2328
keeping 2329
ant@@ 2330
outta 2331
Boy 2332
healthy 2333
:') 2334
ep@@ 2335
Size 2336
However 2337
Playing 2338
ru@@ 2339
Better 2340
kin 2341
fa@@ 2342
Do@@ 2343
example 2344
FUCKING 2345
clearly 2346
upon 2347
Their 2348
fav 2349
mar@@ 2350
further 2351
ST@@ 2352
basketball 2353
KNOW 2354
events 2355
Dont 2356
terrible 2357
vi@@ 2358
cos 2359
Play 2360
bigger 2361
Young 2362
il 2363
brand 2364
par@@ 2365
signed 2366
Congrats 2367
legs 2368
ending 2369
UN@@ 2370
talks 2371
helping 2372
row 2373
ins 2374
da@@ 2375
gh@@ 2376
HAPPY 2377
hearing 2378
Amazon 2379
content 2380
security 2381
0.@@ 2382
Africa 2383
stats 2384
decide 2385
ge 2386
mis@@ 2387
fully 2388
beyond 2389
trouble 2390
Bill 2391
opportunity 2392
LO@@ 2393
staff 2394
Joe 2395
Japan 2396
My@@ 2397
Mark 2398
＠ 2399
weak 2400
six 2401
Donald 2402
Europe 2403
Once 2404
ic 2405
secret 2406
reasons 2407
Try 2408
folks 2409
ING 2410
:confused_face: 2411
36 2412
Bitch 2413
Le@@ 2414
Ever 2415
average 2416
Ra@@ 2417
:neutral_face: 2418
obviously 2419
Many 2420
fault 2421
daddy 2422
France 2423
growing 2424
rate 2425
ev@@ 2426
Road 2427
spread 2428
Tom 2429
memories 2430
DC 2431
published 2432
sir 2433
ous 2434
computer 2435
ler 2436
Li@@ 2437
simply 2438
Price 2439
tweeted 2440
education 2441
tt@@ 2442
Before 2443
beauty 2444
YES 2445
Rock 2446
:face_savoring_food: 2447
ye 2448
Bad 2449
Dis@@ 2450
eBay 2451
wood 2452
value 2453
effort 2454
Job 2455
population 2456
retweet 2457
fam 2458
AC@@ 2459
fish 2460
du@@ 2461
letting 2462
interest 2463
afternoon 2464
runs 2465
ber@@ 2466
als 2467
Learn 2468
2009 2469
hat 2470
kno 2471
wild 2472
Series 2473
Seriously 2474
tr@@ 2475
nude 2476
anybody 2477
gi@@ 2478
US@@ 2479
note 2480
Hate 2481
awake 2482
HD 2483
nights 2484
Luke 2485
angry 2486
selling 2487
Download 2488
ator 2489
Mike 2490
ka@@ 2491
military 2492
Be@@ 2493
turns 2494
seat 2495
traffic 2496
eb@@ 2497
Mu@@ 2498
lu@@ 2499
Having 2500
Sa@@ 2501
AS@@ 2502
exist 2503
HOW 2504
sort 2505
Use 2506
:broken_heart: 2507
Made 2508
speaking 2509
apparently 2510
ignore 2511
arms 2512
sh 2513
apart 2514
camera 2515
bday 2516
wine 2517
ig@@ 2518
Pretty 2519
34 2520
Mom 2521
schools 2522
Guess 2523
among 2524
Official 2525
draw 2526
window 2527
gorgeous 2528
worried 2529
ability 2530
recently 2531
comments 2532
rules 2533
charge 2534
paying 2535
shame 2536
00 2537
result 2538
ff@@ 2539
ten 2540
:person_facepalming: 2541
flight 2542
ding 2543
tough 2544
blessed 2545
Louis 2546
95 2547
2007 2548
allow 2549
:face_with_steam_from_nose: 2550
ga@@ 2551
numbers 2552
Date 2553
cars 2554
:male_sign: 2555
dropped 2556
Smh 2557
difficult 2558
XD 2559
LOOK 2560
aw 2561
Or@@ 2562
eh 2563
scary 2564
countries 2565
:disappointed_face: 2566
Group 2567
lately 2568
include 2569
itself 2570
mama 2571
dirty 2572
Hillary 2573
ra 2574
TS 2575
#O@@ 2576
winter 2577
bill 2578
heat 2579
nation 2580
nearly 2581
fresh 2582
wi@@ 2583
Gonna 2584
AR@@ 2585
voting 2586
Humidity 2587
dnt 2588
pp@@ 2589
fail 2590
pack 2591
teach 2592
PC 2593
q 2594
industry 2595
tips 2596
ll 2597
Yo 2598
yr 2599
Care 2600
wondering 2601
talked 2602
/@@ 2603
Su@@ 2604
cu@@ 2605
Battle 2606
easier 2607
feed 2608
mu@@ 2609
click 2610
cares 2611
cases 2612
similar 2613
Cor@@ 2614
NFL 2615
standing 2616
True 2617
Plus 2618
however 2619
trash 2620
EN@@ 2621
LI@@ 2622
Same 2623
stress 2624
ut@@ 2625
Silver 2626
access 2627
44 2628
Pre@@ 2629
sooo 2630
TH@@ 2631
tha 2632
Fire 2633
hospital 2634
ally 2635
era 2636
idiot 2637
horrible 2638
Christian 2639
co 2640
Har@@ 2641
natural 2642
ladies 2643
har@@ 2644
Man@@ 2645
ite 2646
successful 2647
Light 2648
br@@ 2649
push 2650
Clinton 2651
cheese 2652
pool 2653
NEVER 2654
Ima 2655
THEY 2656
AM@@ 2657
un 2658
TIME 2659
battle 2660
doesnt 2661
evil 2662
higher 2663
wide 2664
easily 2665
foot 2666
DONT 2667
Deals 2668
Enjoy 2669
ho 2670
Congress 2671
jump 2672
wanting 2673
BBC 2674
butt 2675
pe 2676
AS 2677
speech 2678
Case 2679
Football 2680
science 2681
protect 2682
#i@@ 2683
end@@ 2684
oo@@ 2685
bio 2686
Jack 2687
noticed 2688
shes 2689
slowly 2690
CO@@ 2691
helped 2692
Tonight 2693
ry 2694
smell 2695
lines 2696
Y'all 2697
hits 2698
spring 2699
facts 2700
everywhere 2701
oc@@ 2702
below 2703
ist 2704
♫ 2705
characters 2706
risk 2707
ap@@ 2708
ng 2709
ang@@ 2710
hahahaha 2711
mental 2712
:flexed_biceps: 2713
ked 2714
:face_screaming_in_fear: 2715
ors 2716
lack 2717
direction 2718
Th@@ 2719
cha@@ 2720
42 2721
non-@@ 2722
fu@@ 2723
38 2724
faith 2725
ard 2726
excuse 2727
Tweet 2728
south 2729
ky 2730
bottom 2731
began 2732
#t@@ 2733
provide 2734
Service 2735
hole 2736
ph@@ 2737
IS@@ 2738
planning 2739
DJ 2740
Per@@ 2741
walked 2742
shots 2743
hug 2744
den 2745
ves 2746
whenever 2747
changing 2748
:revolving_hearts: 2749
Germany 2750
wa 2751
shooting 2752
download 2753
Feel 2754
24@@ 2755
nose 2756
\ 2757
dating 2758
So@@ 2759
BC 2760
makeup 2761
weed 2762
ance 2763
Talk 2764
German 2765
re-@@ 2766
cash 2767
Russian 2768
winner 2769
Jordan 2770
Welcome 2771
manager 2772
politics 2773
30@@ 2774
Beautiful 2775
expected 2776
dies 2777
tree 2778
y-@@ 2779
Court 2780
IT@@ 2781
ages 2782
Sports 2783
huh 2784
abt 2785
hu@@ 2786
located 2787
2006 2788
CH@@ 2789
Smith 2790
dis 2791
ong 2792
Bi@@ 2793
Sp@@ 2794
burn 2795
GOP 2796
oil 2797
cast 2798
turning 2799
blow 2800
bringing 2801
ism 2802
RO@@ 2803
staying 2804
anywhere 2805
surprise 2806
dancing 2807
quit 2808
correct 2809
celebrate 2810
Mon@@ 2811
search 2812
suppose 2813
sw@@ 2814
BEST 2815
stock 2816
tag 2817
ver 2818
Trying 2819
helps 2820
Qu@@ 2821
Cha@@ 2822
ff 2823
balls 2824
bruh 2825
west 2826
0.0 2827
ji 2828
EVER 2829
spending 2830
saved 2831
mon@@ 2832
babies 2833
development 2834
uses 2835
ze 2836
ment 2837
300 2838
hilarious 2839
Mexico 2840
pa 2841
button 2842
btw 2843
exam 2844
gs 2845
com@@ 2846
fool 2847
Tomorrow 2848
Army 2849
crush 2850
av@@ 2851
deserves 2852
37 2853
During 2854
ir 2855
cards 2856
related 2857
Amazing 2858
Ka@@ 2859
products 2860
com 2861
sending 2862
#V@@ 2863
Android 2864
lips 2865
base 2866
consider 2867
I'M 2868
alot 2869
gotten 2870
Marketing 2871
mi@@ 2872
Season 2873
Ryan 2874
GOOD 2875
grown 2876
fantastic 2877
Bu@@ 2878
recent 2879
ga 2880
{ 2881
pair 2882
#p@@ 2883
regret 2884
ey@@ 2885
officially 2886
Games 2887
wind 2888
Kids 2889
blocked 2890
lights 2891
Kim 2892
ster 2893
bottle 2894
finding 2895
Ex@@ 2896
Ai 2897
SEE 2898
ER@@ 2899
failed 2900
WANT 2901
NBA 2902
parts 2903
century 2904
ty@@ 2905
55 2906
Queen 2907
Internet 2908
gr@@ 2909
Nobody 2910
tie 2911
Church 2912
65 2913
Win 2914
rude 2915
pl@@ 2916
Direction 2917
#job 2918
Disney 2919
:sun: 2920
Spanish 2921
Report 2922
address 2923
showed 2924
leg 2925
Bieber 2926
Glad 2927
enter 2928
Com@@ 2929
served 2930
mistake 2931
2000 2932
Friends 2933
SH@@ 2934
Ne@@ 2935
talent 2936
#SoundCloud 2937
wh@@ 2938
43 2939
Congratulations 2940
Visit 2941
2.@@ 2942
-> 2943
heads 2944
rule 2945
Food 2946
opened 2947
earned 2948
soft 2949
regular 2950
Gu@@ 2951
Him 2952
begin 2953
Tour 2954
Heart 2955
culture 2956
23@@ 2957
breaking 2958
speed 2959
Car 2960
closer 2961
Ya 2962
ridiculous 2963
Pro 2964
IC@@ 2965
Jo@@ 2966
49 2967
:yellow_heart: 2968
Market 2969
becoming 2970
moon 2971
ol 2972
02 2973
glass 2974
sum 2975
Everybody 2976
Lil 2977
quickly 2978
#no@@ 2979
considered 2980
under@@ 2981
network 2982
checked 2983
Guys 2984
5th 2985
Pa@@ 2986
Story 2987
states 2988
COVID 2989
awful 2990
Niggas 2991
freaking 2992
Bid 2993
sunshine 2994
male 2995
Song 2996
39 2997
jo@@ 2998
08@@ 2999
General 3000
MO@@ 3001
Special 3002
neck 3003
que 3004
Us 3005
society 3006
ded 3007
Other 3008
Company 3009
River 3010
41 3011
RA@@ 3012
#c@@ 3013
legal 3014
19@@ 3015
Review 3016
Something 3017
professional 3018
aka 3019
companies 3020
af@@ 3021
Hard 3022
picked 3023
Se@@ 3024
families 3025
:heart_with_arrow: 3026
ES@@ 3027
pressure 3028
Fox 3029
} 3030
brothers 3031
00@@ 3032
:sleepy_face: 3033
Sun 3034
adult 3035
ton@@ 3036
mobile 3037
Steve 3038
25@@ 3039
GOT 3040
sub@@ 3041
cancer 3042
5sos 3043
pu@@ 3044
ham 3045
hide 3046
min@@ 3047
prove 3048
product 3049
Awesome 3050
ford 3051
closet 3052
Sam 3053
SE@@ 3054
BACK 3055
47 3056
SA 3057
Ugh 3058
sexual 3059
kidding 3060
net 3061
Island 3062
mer 3063
NEED 3064
schedule 3065
Hopefully 3066
Of@@ 3067
plz 3068
Vote 3069
harder 3070
carry 3071
Wall 3072
Beach 3073
Ready 3074
quote 3075
sat 3076
mark 3077
hahah 3078
SE 3079
ani 3080
evidence 3081
dry 3082
leading 3083
Beauty 3084
46 3085
jail 3086
announced 3087
competition 3088
shi@@ 3089
Digital 3090
Italy 3091
avoid 3092
cor@@ 3093
ry@@ 3094
Awards 3095
debate 3096
session 3097
WHO 3098
hotel 3099
Allah 3100
Again 3101
north 3102
aw@@ 3103
#m@@ 3104
unfollowers 3105
mix 3106
lived 3107
HER 3108
brings 3109
ou 3110
whats 3111
Chelsea 3112
han 3113
angel 3114
Jones 3115
crime 3116
math 3117
Liverpool 3118
incredible 3119
8: 3120
MORE 3121
hes 3122
Movie 3123
gain 3124
jokes 3125
mer@@ 3126
t-@@ 3127
quiet 3128
status 3129
:cherry_blossom: 3130
Holy 3131
females 3132
ONLY 3133
SHIT 3134
receive 3135
sales 3136
apply 3137
Da@@ 3138
emotional 3139
Must 3140
els 3141
onto 3142
European 3143
mor@@ 3144
cross 3145
Ca@@ 3146
#n@@ 3147
supporting 3148
purpose 3149
mostly 3150
Japanese 3151
tu@@ 3152
teeth 3153
calm 3154
policy 3155
stomach 3156
Na@@ 3157
back@@ 3158
copy 3159
letter 3160
Nigga 3161
arm 3162
Ha 3163
leaders 3164
Boston 3165
Is@@ 3166
views 3167
03 3168
bae 3169
corner 3170
leaves 3171
Alex 3172
:smiling_face_with_horns: 3173
uh 3174
stone 3175
option 3176
Paris 3177
heavy 3178
Mal@@ 3179
ville 3180
te@@ 3181
source 3182
:kiss_mark: 3183
senior 3184
completed 3185
Manchester 3186
Much 3187
meaning 3188
aa@@ 3189
attitude 3190
follows 3191
cook 3192
#b@@ 3193
joy 3194
HO@@ 3195
s-@@ 3196
ell 3197
Jobs 3198
Lee 3199
wat 3200
center 3201
driver 3202
tri@@ 3203
App 3204
sed 3205
PS 3206
FROM 3207
award 3208
youre 3209
pink 3210
inter@@ 3211
skills 3212
although 3213
AB@@ 3214
ity 3215
Update 3216
texting 3217
Mind 3218
doctor 3219
FC 3220
Pakistan 3221
Am@@ 3222
Ri@@ 3223
DS 3224
Might 3225
puts 3226
international 3227
admit 3228
You@@ 3229
Dead 3230
uc@@ 3231
faces 3232
REALLY 3233
:raised_hand: 3234
can@@ 3235
05 3236
:oncoming_fist: 3237
WATCH 3238
delete 3239
Du@@ 3240
:'( 3241
PO@@ 3242
Robert 3243
soccer 3244
willing 3245
Sir 3246
Hall 3247
Bank 3248
he@@ 3249
Head 3250
bl@@ 3251
1000 3252
tight 3253
yrs 3254
Israel 3255
Woman 3256
collection 3257
filled 3258
barely 3259
storm 3260
struggle 3261
active 3262
shitty 3263
groups 3264
joined 3265
Kar@@ 3266
taught 3267
LIFE 3268
messages 3269
ther@@ 3270
Second 3271
04 3272
lower 3273
Netflix 3274
milk 3275
Actually 3276
Ah 3277
Johnson 3278
defense 3279
included 3280
thankful 3281
Honestly 3282
3.@@ 3283
matters 3284
Tips 3285
ls 3286
enjoyed 3287
anyways 3288
knowledge 3289
rid 3290
:speak-no-evil_monkey: 3291
suit 3292
Both 3293
fi@@ 3294
baseball 3295
gettin 3296
Arsenal 3297
Miami 3298
Lets 3299
1/2 3300
lyrics 3301
Vegas 3302
son@@ 3303
statement 3304
Hill 3305
ban 3306
hero 3307
lock 3308
Ko@@ 3309
wen 3310
ear 3311
La 3312
Hell 3313
Put 3314
ON@@ 3315
raise 3316
nails 3317
queen 3318
murder 3319
rea@@ 3320
tech 3321
ko@@ 3322
Cool 3323
Christ 3324
WTF 3325
Jackson 3326
64 3327
SP@@ 3328
#w@@ 3329
sea 3330
#Go@@ 3331
WHEN 3332
massive 3333
camp 3334
Central 3335
HERE 3336
Matt 3337
drugs 3338
herself 3339
Three 3340
Peter 3341
piss 3342
strength 3343
NE@@ 3344
brown 3345
50@@ 3346
chick 3347
Such 3348
Nah 3349
fr 3350
Mer@@ 3351
sport 3352
Scott 3353
bird 3354
Share 3355
image 3356
Halloween 3357
eee 3358
enjoying 3359
Dad 3360
teachers 3361
Temp 3362
zone 3363
posting 3364
Earth 3365
pregnant 3366
African 3367
AT@@ 3368
El@@ 3369
Niall 3370
Ben 3371
potential 3372
Days 3373
LMAO 3374
ence 3375
09 3376
trump 3377
village 3378
Cover 3379
ju@@ 3380
proof 3381
waking 3382
__ 3383
rise 3384
snap 3385
ni 3386
STOP 3387
production 3388
SA@@ 3389
tw@@ 3390
ties 3391
negative 3392
#Team@@ 3393
iPad 3394
load 3395
commercial 3396
tht 3397
impossible 3398
hella 3399
ino 3400
kitchen 3401
plane 3402
si 3403
Mother 3404
bother 3405
steps 3406
snapchat 3407
eventually 3408
powerful 3409
Korea 3410
Ta@@ 3411
Ti@@ 3412
possibly 3413
2005 3414
lit 3415
DE@@ 3416
bathroom 3417
Ni@@ 3418
decent 3419
east 3420
moments 3421
customer 3422
hood 3423
ner 3424
proper 3425
friday 3426
ja@@ 3427
actions 3428
08 3429
whose 3430
PA@@ 3431
07 3432
posts 3433
FB 3434
#s@@ 3435
Manager 3436
Bay 3437
prefer 3438
#news 3439
:squinting_face_with_tongue: 3440
Martin 3441
Start 3442
buddy 3443
Nike 3444
self-@@ 3445
:grinning_squinting_face: 3446
OR@@ 3447
Brazil 3448
AD@@ 3449
06 3450
birth 3451
range 3452
Says 3453
BS 3454
Thats 3455
ful 3456
exciting 3457
Tech 3458
Wanna 3459
drug 3460
Temperature 3461
Years 3462
holy 3463
fashion 3464
extremely 3465
army 3466
nasty 3467
don 3468
illegal 3469
dey 3470
Making 3471
AL 3472
Sales 3473
ery 3474
:grinning_face_with_big_eyes: 3475
scored 3476
#jobs 3477
BO@@ 3478
according 3479
legit 3480
partner 3481
forced 3482
majority 3483
feat 3484
conference 3485
NYC 3486
Br@@ 3487
ki@@ 3488
DON'T 3489
cats 3490
Thomas 3491
animals 3492
fingers 3493
Mor@@ 3494
Office 3495
Imagine 3496
accounts 3497
workout 3498
memory 3499
workers 3500
Grand 3501
bf 3502
rec@@ 3503
2020 3504
aww 3505
her@@ 3506
red@@ 3507
wing 3508
ABOUT 3509
SHE 3510
DI@@ 3511
Funny 3512
disgusting 3513
Ru@@ 3514
cheap 3515
moves 3516
40@@ 3517
Inc 3518
offers 3519
Final 3520
Government 3521
Probably 3522
wet 3523
fill 3524
gunna 3525
Vintage 3526
bright 3527
elected 3528
Photos 3529
CD 3530
ess 3531
Liam 3532
ile 3533
Design 3534
votes 3535
hehe 3536
AP 3537
Save 3538
#np 3539
Support 3540
medical 3541
ann@@ 3542
bomb 3543
truck 3544
Los 3545
:pistol: 3546
Ab@@ 3547
ser@@ 3548
TO@@ 3549
soooo 3550
ping 3551
parties 3552
Deal 3553
pi@@ 3554
Mary 3555
#coronavirus 3556
inc@@ 3557
Democrats 3558
facebook 3559
PA 3560
History 3561
Law 3562
ny 3563
:grinning_face: 3564
complain 3565
wash 3566
26@@ 3567
MA 3568
machine 3569
contract 3570
CA@@ 3571
27@@ 3572
throwing 3573
breath 3574
income 3575
moms 3576
TODAY 3577
Phone 3578
brilliant 3579
usual 3580
:green_heart: 3581
TE 3582
Boys 3583
serve 3584
ear@@ 3585
SO@@ 3586
ita 3587
inspiration 3588
heaven 3589
MAKE 3590
harry 3591
planned 3592
:face_with_medical_mask: 3593
BY 3594
shift 3595
surveys 3596
:grimacing_face: 3597
texts 3598
effect 3599
sees 3600
DA 3601
impact 3602
Dude 3603
BA@@ 3604
MAN 3605
bike 3606
ses 3607
hanging 3608
ary 3609
covered 3610
★ 3611
pro 3612
despite 3613
za 3614
planet 3615
journey 3616
anti-@@ 3617
reached 3618
Canadian 3619
ini 3620
mistakes 3621
07@@ 3622
pulled 3623
Sex 3624
rap 3625
growth 3626
con 3627
war@@ 3628
master 3629
tra@@ 3630
RIGHT 3631
OFF 3632
ot@@ 3633
studio 3634
modern 3635
Ber@@ 3636
lord 3637
Kevin 3638
freedom 3639
pieces 3640
economy 3641
sy@@ 3642
multiple 3643
Town 3644
Box 3645
#f@@ 3646
remind 3647
asks 3648
crew 3649
phones 3650
talkin 3651
ches 3652
Festival 3653
Blog 3654
becomes 3655
finals 3656
marriage 3657
expensive 3658
jk 3659
violence 3660
threw 3661
hh 3662
beats 3663
tattoo 3664
ane 3665
otherwise 3666
#MTVHottest 3667
ud@@ 3668
ups 3669
technology 3670
Although 3671
dollars 3672
attempt 3673
generation 3674
Sale 3675
Perfect 3676
web 3677
updates 3678
+@@ 3679
é@@ 3680
Edition 3681
Lake 3682
animal 3683
Xbox 3684
continues 3685
Ireland 3686
absolute 3687
ears 3688
ata 3689
Lots 3690
Change 3691
#nowplaying 3692
empty 3693
reported 3694
bo 3695
TOO 3696
constantly 3697
Project 3698
REAL 3699
int@@ 3700
laws 3701
airport 3702
Ja@@ 3703
#d@@ 3704
safety 3705
degree 3706
Williams 3707
squad 3708
finger 3709
bra@@ 3710
Union 3711
Mi@@ 3712
Dark 3713
immediately 3714
va 3715
district 3716
host 3717
hitting 3718
ada 3719
ja 3720
river 3721
USD 3722
Nigeria 3723
asshole 3724
nor 3725
magic 3726
Ask 3727
LA@@ 3728
artists 3729
28@@ 3730
Prince 3731
Card 3732
Wars 3733
IG 3734
all@@ 3735
terms 3736
shout 3737
sl@@ 3738
a-@@ 3739
Ver@@ 3740
remain 3741
Body 3742
ics 3743
Run 3744
bear 3745
'S 3746
raised 3747
areas 3748
increase 3749
Santa 3750
dy@@ 3751
Tr@@ 3752
smoking 3753
doin 3754
Min@@ 3755
Retweet 3756
marketing 3757
Episode 3758
Lu@@ 3759
talented 3760
invite 3761
ators 3762
customers 3763
Sal@@ 3764
;-) 3765
breaks 3766
sisters 3767
ists 3768
bridge 3769
Tri@@ 3770
friendly 3771
spirit 3772
ordered 3773
Them 3774
#In@@ 3775
END.OF.DOCUMENT 3776
flying 3777
non 3778
Her@@ 3779
Makes 3780
Ga@@ 3781
Water 3782
adorable 3783
Class 3784
Inter@@ 3785
Trust 3786
ca 3787
management 3788
ized 3789
leads 3790
disappointed 3791
reminds 3792
Press 3793
marry 3794
justice 3795
Tra@@ 3796
-R@@ 3797
William 3798
throughout 3799
ine@@ 3800
GA 3801
cried 3802
nature 3803
mentioned 3804
you@@ 3805
52 3806
studying 3807
Drake 3808
mat@@ 3809
billion 3810
laptop 3811
grateful 3812
Bal@@ 3813
smiling 3814
» 3815
crisis 3816
fe@@ 3817
kers 3818
by@@ 3819
arrested 3820
location 3821
don@@ 3822
hai 3823
d-@@ 3824
movement 3825
younger 3826
6th 3827
section 3828
dope 3829
ano 3830
background 3831
prices 3832
grab 3833
Bar 3834
Sign 3835
features 3836
DID 3837
crowd 3838
designed 3839
lin 3840
argument 3841
instagram 3842
Gaga 3843
Gra@@ 3844
SC@@ 3845
prison 3846
Rose 3847
reaction 3848
iz@@ 3849
Fashion 3850
direct 3851
debut 3852
horse 3853
Samsung 3854
Col@@ 3855
#the@@ 3856
anger 3857
NO@@ 3858
dangerous 3859
launch 3860
nt 3861
backup 3862
steal 3863
#No@@ 3864
sy 3865
oo 3866
Im@@ 3867
drinks 3868
BTS 3869
Nation 3870
THANK 3871
Minister 3872
LE@@ 3873
lonely 3874
Line 3875
pretend 3876
According 3877
bread 3878
Star@@ 3879
HIM 3880
Dog 3881
everytime 3882
BE@@ 3883
decisions 3884
global 3885
isnt 3886
kes 3887
somehow 3888
grandma 3889
Act 3890
Spring 3891
gra@@ 3892
various 3893
solo 3894
hearts 3895
guns 3896
notes 3897
pure 3898
yo@@ 3899
Thought 3900
=) 3901
FL 3902
claims 3903
69 3904
cus 3905
Houston 3906
Ed 3907
religion 3908
switch 3909
Muslim 3910
Italian 3911
arrived 3912
Royal 3913
library 3914
Network 3915
29@@ 3916
Irish 3917
#g@@ 3918
100@@ 3919
request 3920
Global 3921
Austin 3922
foreign 3923
respond 3924
campus 3925
insane 3926
comfortable 3927
Future 3928
crash 3929
lame 3930
abuse 3931
Country 3932
2004 3933
#k@@ 3934
Fun 3935
ut 3936
streets 3937
theres 3938
honey 3939
Si@@ 3940
Coming 3941
Ac@@ 3942
Drive 3943
reports 3944
ID@@ 3945
Mac 3946
limit 3947
island 3948
screaming 3949
lookin 3950
Spain 3951
perform 3952
meal 3953
wise 3954
ize 3955
gg@@ 3956
feature 3957
spell 3958
MP 3959
ati@@ 3960
ger 3961
MS 3962
2010 3963
RI@@ 3964
responsible 3965
thread 3966
ah@@ 3967
HIS 3968
EST 3969
ruin 3970
afford 3971
ines 3972
4.@@ 3973
sets 3974
inspired 3975
TH 3976
shed 3977
users 3978
finna 3979
bra 3980
tip 3981
ala 3982
Wtf 3983
unique 3984
THEM 3985
border 3986
io 3987
ara 3988
Iran 3989
400 3990
Meet 3991
EL@@ 3992
51 3993
pr@@ 3994
Pack 3995
episodes 3996
Small 3997
forces 3998
Australian 3999
Waiting 4000
War@@ 4001
nervous 4002
GO@@ 4003
considering 4004
Gr@@ 4005
previous 4006
punch 4007
Pls 4008
bur@@ 4009
flat 4010
we@@ 4011
ger@@ 4012
ents 4013
Security 4014
Wa@@ 4015
faster 4016
Senate 4017
#U@@ 4018
hy@@ 4019
Pu@@ 4020
Over@@ 4021
honor 4022
SM@@ 4023
lo 4024
Sounds 4025
theme 4026
route 4027
relationships 4028
mall 4029
Crazy 4030
ell@@ 4031
Mix 4032
ess@@ 4033
films 4034
silly 4035
our@@ 4036
:beating_heart: 4037
aa 4038
BIG 4039
SC 4040
ore 4041
hates 4042
DE 4043
ise 4044
ena 4045
target 4046
TA@@ 4047
attractive 4048
DA@@ 4049
BIRTHDAY 4050
Public 4051
Pink 4052
CNN 4053
classic 4054
Cant 4055
mission 4056
sugar 4057
sin 4058
signs 4059
Red@@ 4060
aware 4061
den@@ 4062
Award 4063
1D 4064
improve 4065
obvious 4066
Bur@@ 4067
Adam 4068
day@@ 4069
basic 4070
Cal@@ 4071
guide 4072
Bring 4073
ica 4074
with@@ 4075
drawing 4076
NA@@ 4077
entered 4078
au@@ 4079
chest 4080
personally 4081
IM@@ 4082
Jim 4083
06@@ 4084
Death 4085
cock 4086
blind 4087
Hollywood 4088
ama 4089
fb 4090
cam 4091
answers 4092
ical 4093
managed 4094
Order 4095
actor 4096
-L@@ 4097
lesson 4098
mode 4099
happiest 4100
bowl 4101
ffs 4102
Latest 4103
Tu@@ 4104
TR@@ 4105
Fall 4106
SS@@ 4107
sides 4108
falls 4109
species 4110
CEO 4111
Yea 4112
mail 4113
treated 4114
New@@ 4115
repeat 4116
Up@@ 4117
AA@@ 4118
Force 4119
Valley 4120
guilty 4121
limited 4122
accident 4123
vacation 4124
aye 4125
Out@@ 4126
financial 4127
Father 4128
timeline 4129
Secret 4130
produced 4131
Ohio 4132
7th 4133
glasses 4134
chief 4135
Charles 4136
crack 4137
levels 4138
vo@@ 4139
stayed 4140
ns 4141
suddenly 4142
caused 4143
dare 4144
dec@@ 4145
Council 4146
ill@@ 4147
teaching 4148
Tony 4149
OM@@ 4150
mal@@ 4151
ants 4152
Bra@@ 4153
tiny 4154
Kelly 4155
Bowl 4156
ce 4157
mirror 4158
saving 4159
Hu@@ 4160
ist@@ 4161
Dallas 4162
contest 4163
largest 4164
dollar 4165
(; 4166
ti 4167
System 4168
sn@@ 4169
highly 4170
fr@@ 4171
any@@ 4172
LED 4173
writer 4174
Camera 4175
slept 4176
excellent 4177
tries 4178
confirmed 4179
candy 4180
digital 4181
:persevering_face: 4182
boat 4183
Fi@@ 4184
dressed 4185
bestfriend 4186
Chief 4187
Asian 4188
coz 4189
shorts 4190
85 4191
unfollow 4192
AC 4193
les@@ 4194
region 4195
semester 4196
print 4197
09@@ 4198
Guy 4199
solid 4200
EC@@ 4201
WOULD 4202
ik 4203
recommend 4204
bby 4205
millions 4206
homie 4207
Mobile 4208
kar@@ 4209
sho@@ 4210
cho@@ 4211
35@@ 4212
Ill 4213
zz@@ 4214
tal@@ 4215
fellow 4216
Shop 4217
NEWS 4218
ig 4219
Angeles 4220
plenty 4221
1-@@ 4222
ate@@ 4223
specific 4224
dem 4225
obsessed 4226
passing 4227
loads 4228
Children 4229
Mac@@ 4230
Hair 4231
UR@@ 4232
yard 4233
fin@@ 4234
Science 4235
Without 4236
sun@@ 4237
Max 4238
platform 4239
bro@@ 4240
amp 4241
standard 4242
setting 4243
path 4244
owner 4245
LE 4246
progress 4247
Ladies 4248
Tim 4249
TI@@ 4250
knock 4251
Especially 4252
tions 4253
Artist 4254
nope 4255
Sweet 4256
ERS 4257
Working 4258
def 4259
BITCH 4260
boobs 4261
doe 4262
STILL 4263
Imma 4264
Republican 4265
ck 4266
Almost 4267
smiles 4268
square 4269
#COVID19 4270
draft 4271
uk 4272
alcohol 4273
hall 4274
fired 4275
hop 4276
Ford 4277
des@@ 4278
dia 4279
Name 4280
ber 4281
1,@@ 4282
000 4283
Microsoft 4284
neither 4285
throat 4286
parking 4287
kills 4288
certainly 4289
ach@@ 4290
Vi@@ 4291
cr@@ 4292
:hugging_face: 4293
recorded 4294
WORLD 4295
cheer 4296
Thinking 4297
Toronto 4298
And@@ 4299
favor 4300
orange 4301
distance 4302
sen@@ 4303
Sad 4304
Fa@@ 4305
loose 4306
Super@@ 4307
56 4308
prepared 4309
PL@@ 4310
assume 4311
victory 4312
youtube 4313
physical 4314
sleepy 4315
rare 4316
Dance 4317
ure 4318
UR 4319
necessary 4320
pips 4321
appeared 4322
gar@@ 4323
TT@@ 4324
OUR 4325
Swift 4326
:raised_fist: 4327
Favorite 4328
Nick 4329
treatment 4330
ak 4331
shake 4332
lied 4333
highest 4334
Via 4335
Day@@ 4336
DVD 4337
havent 4338
Brexit 4339
singer 4340
shape 4341
fixed 4342
begins 4343
cc 4344
Co 4345
indeed 4346
tos 4347
wings 4348
lea@@ 4349
ona 4350
#j@@ 4351
in-@@ 4352
goodbye 4353
FM 4354
Under 4355
cooking 4356
seven 4357
ET 4358
ation@@ 4359
sal@@ 4360
tl 4361
Somebody 4362
ob@@ 4363
solution 4364
Data 4365
paint 4366
TY 4367
bath 4368
BU@@ 4369
99@@ 4370
72 4371
Yep 4372
pleasure 4373
outfit 4374
53 4375
ung 4376
ef@@ 4377
describe 4378
insurance 4379
ri 4380
finds 4381
SS 4382
ws 4383
COME 4384
purchase 4385
:frowning_face: 4386
youth 4387
hurry 4388
Fucking 4389
strange 4390
Guide 4391
whoever 4392
Low 4393
8th 4394
HA 4395
Lost 4396
grew 4397
#oomf 4398
individual 4399
exact 4400
Gar@@ 4401
IT'S 4402
Nov 4403
economic 4404
christmas 4405
Bob 4406
tan 4407
☆ 4408
gate 4409
attacks 4410
guitar 4411
compared 4412
personality 4413
EA@@ 4414
creative 4415
chair 4416
meat 4417
Hit 4418
justin 4419
ker@@ 4420
subject 4421
54 4422
ney 4423
required 4424
ASS 4425
Gift 4426
Jan 4427
5.@@ 4428
ot 4429
argue 4430
Beat 4431
headed 4432
flow 4433
hand@@ 4434
Hotel 4435
Face 4436
stronger 4437
150 4438
Test 4439
EX@@ 4440
complaining 4441
66 4442
bi 4443
signing 4444
wan@@ 4445
3D 4446
WA@@ 4447
tune 4448
chose 4449
plant 4450
PEOPLE 4451
Community 4452
Sk@@ 4453
fucks 4454
GB 4455
demand 4456
RIP 4457
Literally 4458
kicked 4459
chances 4460
friendship 4461
#Y@@ 4462
projects 4463
⠀ 4464
trailer 4465
walks 4466
restaurant 4467
Wonder 4468
star@@ 4469
hrs 4470
acts 4471
blast 4472
wasnt 4473
Pe@@ 4474
failure 4475
trending 4476
Ass 4477
Listening 4478
avi 4479
wishes 4480
concept 4481
Michigan 4482
Britain 4483
UN 4484
pet 4485
humans 4486
hype 4487
pri@@ 4488
yellow 4489
ai 4490
ind@@ 4491
invited 4492
ish@@ 4493
tall 4494
Services 4495
degrees 4496
returned 4497
NA 4498
po 4499
patient 4500
false 4501
central 4502
Richard 4503
removed 4504
laying 4505
pathetic 4506
fave 4507
Four 4508
45@@ 4509
understanding 4510
:downcast_face_with_sweat: 4511
booty 4512
discuss 4513
locked 4514
goodnight 4515
seats 4516
Apparently 4517
tic 4518
van 4519
innocent 4520
benefits 4521
thousand 4522
IL 4523
VA 4524
riding 4525
continued 4526
options 4527
Store 4528
ning 4529
55@@ 4530
Galaxy 4531
Dress 4532
rough 4533
Jay 4534
vision 4535
cleaning 4536
universe 4537
tion 4538
streaming 4539
ew 4540
damage 4541
hating 4542
It@@ 4543
ching 4544
shared 4545
Jersey 4546
mass 4547
sel@@ 4548
diet 4549
mf 4550
cutest 4551
leadership 4552
laughed 4553
IC 4554
hockey 4555
05@@ 4556
gf 4557
Cu@@ 4558
gen@@ 4559
District 4560
television 4561
:angry_face: 4562
Henry 4563
Film 4564
36@@ 4565
Enter 4566
pride 4567
57 4568
rape 4569
2011 4570
listened 4571
bags 4572
owned 4573
confidence 4574
Single 4575
shown 4576
appear 4577
Bl@@ 4578
He@@ 4579
ya@@ 4580
ali@@ 4581
Can@@ 4582
ong@@ 4583
Found 4584
#Ask@@ 4585
toilet 4586
on-@@ 4587
refuse 4588
✧ 4589
Jason 4590
app@@ 4591
iOS 4592
Classic 4593
types 4594
sts 4595
dudes 4596
Ke@@ 4597
Five 4598
garden 4599
ignorant 4600
mini 4601
Scotland 4602
:: 4603
Sure 4604
98 4605
yay 4606
Leave 4607
dates 4608
flag 4609
includes 4610
OO@@ 4611
é 4612
juice 4613
realise 4614
Airport 4615
Ur 4616
BR@@ 4617
wave 4618
deals 4619
WAY 4620
citizens 4621
addition 4622
remembered 4623
jeans 4624
acc 4625
62 4626
bea@@ 4627
Western 4628
IA 4629
ble 4630
ale 4631
Nicki 4632
Feeling 4633
zero 4634
bang 4635
director 4636
ick@@ 4637
apple 4638
FA@@ 4639
88 4640
kk@@ 4641
trend 4642
golf 4643
ters 4644
directly 4645
theory 4646
trial 4647
heading 4648
Easy 4649
ik@@ 4650
2003 4651
mag@@ 4652
Daniel 4653
CANT 4654
des 4655
Wayne 4656
aid 4657
Mag@@ 4658
Sar@@ 4659
Republicans 4660
:confounded_face: 4661
SK@@ 4662
Carolina 4663
CR@@ 4664
ster@@ 4665
bands 4666
Travel 4667
budget 4668
congrats 4669
Went 4670
Winter 4671
testing 4672
CC 4673
candidate 4674
midnight 4675
Poshmark 4676
idol 4677
deleted 4678
Brand 4679
Left 4680
advantage 4681
threat 4682
concerned 4683
destroy 4684
connection 4685
manage 4686
s.@@ 4687
ALWAYS 4688
lane 4689
Wh@@ 4690
dr@@ 4691
guard 4692
forgive 4693
slightly 4694
anc@@ 4695
Space 4696
map 4697
:woman_dancing: 4698
user 4699
Remix 4700
orders 4701
survive 4702
bloody 4703
fer@@ 4704
year-old 4705
Senior 4706
Band 4707
charged 4708
opposite 4709
LY 4710
stands 4711
ny@@ 4712
awards 4713
holds 4714
discovered 4715
developed 4716
De 4717
hel@@ 4718
Justice 4719
formed 4720
property 4721
37@@ 4722
zer 4723
Cam@@ 4724
ii 4725
english 4726
clock 4727
tor@@ 4728
Style 4729
aha 4730
quarter 4731
established 4732
nu@@ 4733
hardest 4734
fo@@ 4735
prom 4736
Done 4737
featured 4738
delivery 4739
67 4740
emotions 4741
Atlanta 4742
KS 4743
ten@@ 4744
blonde 4745
Ice 4746
Lmfao 4747
EM@@ 4748
Challenge 4749
List 4750
cancelled 4751
replace 4752
apartment 4753
particular 4754
Sun@@ 4755
careful 4756
cha 4757
Yet 4758
vid 4759
Research 4760
creating 4761
59 4762
ella 4763
shoulder 4764
ci@@ 4765
63 4766
Director 4767
Windows 4768
Taking 4769
Ball 4770
earn 4771
Ser@@ 4772
uncle 4773
:thumbs_down: 4774
Station 4775
Original 4776
Kit 4777
Frank 4778
Bro 4779
material 4780
↺ 4781
Than 4782
beating 4783
bal@@ 4784
attend 4785
sur@@ 4786
bite 4787
appears 4788
ely 4789
offered 4790
cuts 4791
luv 4792
ME@@ 4793
momma 4794
govt 4795
pping 4796
Point 4797
ourselves 4798
58 4799
injury 4800
360 4801
hhh 4802
topic 4803
ire 4804
ically 4805
Dan 4806
Pal@@ 4807
lin@@ 4808
#h@@ 4809
seasons 4810
We@@ 4811
GOING 4812
ts@@ 4813
LS 4814
mile 4815
DO@@ 4816
Fu@@ 4817
checking 4818
Half 4819
WOW 4820
whom 4821
jack 4822
Management 4823
hmm 4824
ering 4825
With@@ 4826
strike 4827
ships 4828
jam 4829
guest 4830
Shi@@ 4831
med 4832
mixed 4833
ruined 4834
liking 4835
sha 4836
HOT 4837
Send 4838
upcoming 4839
Education 4840
,000 4841
ug@@ 4842
cookies 4843
prayers 4844
48@@ 4845
22@@ 4846
Link 4847
updated 4848
systems 4849
cal@@ 4850
enemy 4851
Seems 4852
#shopmycloset 4853
shine 4854
sometime 4855
ip@@ 4856
anxiety 4857
loyal 4858
sigh 4859
author 4860
ie@@ 4861
pee 4862
hill 4863
badly 4864
YO@@ 4865
anime 4866
ow 4867
ea 4868
lift 4869
capital 4870
Code 4871
bri@@ 4872
delicious 4873
IL@@ 4874
:double_exclamation_mark: 4875
thousands 4876
Ray 4877
Em@@ 4878
selfie 4879
Easter 4880
wo@@ 4881
items 4882
creepy 4883
Board 4884
surgery 4885
gang 4886
clue 4887
Stars 4888
tar@@ 4889
cher 4890
Bout 4891
virus 4892
king@@ 4893
:smiling_face_with_halo: 4894
edge 4895
Kingdom 4896
Room 4897
ATION 4898
ving 4899
GUYS 4900
religious 4901
Dar@@ 4902
ack@@ 4903
pin 4904
Ben@@ 4905
Ki@@ 4906
Exactly 4907
giant 4908
ST 4909
boo@@ 4910
Fair 4911
xx@@ 4912
legend 4913
colors 4914
tongue 4915
ash 4916
Championship 4917
benefit 4918
Syria 4919
couch 4920
properly 4921
pitch 4922
AMAZING 4923
tournament 4924
connect 4925
Turn 4926
Department 4927
Georgia 4928
92 4929
cell 4930
ilysm 4931
flowers 4932
HATE 4933
ven@@ 4934
#My@@ 4935
:backhand_index_pointing_right: 4936
5SOS 4937
shy 4938
EVEN 4939
taxes 4940
novel 4941
expecting 4942
SU@@ 4943
ink 4944
pan@@ 4945
200@@ 4946
Round 4947
38@@ 4948
AF 4949
ys@@ 4950
bb 4951
101 4952
ched 4953
super@@ 4954
Mis@@ 4955
03@@ 4956
EVERYONE 4957
icon 4958
supporters 4959
Dream 4960
MTV 4961
:slightly_smiling_face: 4962
Conference 4963
EN 4964
Sleep 4965
lic@@ 4966
96 4967
Were 4968
approach 4969
independent 4970
serving 4971
Living 4972
Magic 4973
pper 4974
mentions 4975
Virginia 4976
Golden 4977
U.S. 4978
Sam@@ 4979
cum 4980
perhaps 4981
picking 4982
tracks 4983
princess 4984
97 4985
At@@ 4986
anna 4987
stan 4988
zy 4989
tom@@ 4990
Al 4991
Leather 4992
ank@@ 4993
Sarah 4994
shirts 4995
scenes 4996
air@@ 4997
edition 4998
6.@@ 4999
elections 5000
criminal 5001
curious 5002
anytime 5003
breathe 5004
pages 5005
Peace 5006
apps 5007
Forever 5008
centre 5009
sin@@ 5010
TA 5011
Pr@@ 5012
77 5013
col@@ 5014
str@@ 5015
hundred 5016
7.@@ 5017
Into 5018
influence 5019
sons 5020
Hol@@ 5021
Album 5022
att@@ 5023
nowhere 5024
perfectly 5025
work@@ 5026
2001 5027
Feb 5028
FBI 5029
Andrew 5030
scream 5031
uni 5032
trick 5033
birds 5034
0.00 5035
Far@@ 5036
minds 5037
cities 5038
ro 5039
Reuters 5040
THERE 5041
SI@@ 5042
sake 5043
Million 5044
Smart 5045
magazine 5046
Wal@@ 5047
lip 5048
construction 5049
TED 5050
gosh 5051
:waving_hand: 5052
Bitches 5053
TX 5054
Saw 5055
Until 5056
co-@@ 5057
alarm 5058
epic 5059
performing 5060
Plan 5061
ved 5062
Doing 5063
Reading 5064
google 5065
recording 5066
Fast 5067
Navy 5068
Early 5069
PLS 5070
68 5071
Wo 5072
tumblr 5073
messed 5074
bound 5075
:person_gesturing_NO: 5076
Bernie 5077
CON@@ 5078
accidentally 5079
Victoria 5080
lesbian 5081
transfer 5082
ela 5083
rolling 5084
eeee 5085
cra@@ 5086
#News 5087
ep 5088
exams 5089
:sad_but_relieved_face: 5090
EL 5091
fa 5092
#MTVStars 5093
ours 5094
wan 5095
NC 5096
drops 5097
hurting 5098
sayin 5099
Asia 5100
T-@@ 5101
ying 5102
2002 5103
lang 5104
silver 5105
Medical 5106
inch 5107
cunt 5108
sites 5109
disease 5110
Lvl 5111
fed 5112
remove 5113
61 5114
ola 5115
EP 5116
Black@@ 5117
Fan 5118
chi@@ 5119
cont 5120
pal 5121
ans@@ 5122
injured 5123
ari 5124
fantasy 5125
costs 5126
Human 5127
Absolutely 5128
33@@ 5129
idc 5130
Wedding 5131
cutting 5132
hopes 5133
ative 5134
anniversary 5135
Definitely 5136
Don 5137
Your@@ 5138
:money_bag: 5139
El 5140
port 5141
ASAP 5142
embarrassing 5143
houses 5144
Char@@ 5145
ads 5146
Nope 5147
accepted 5148
Whatever 5149
backs 5150
dropping 5151
victims 5152
primary 5153
Mas@@ 5154
Oct 5155
bor@@ 5156
Dec 5157
pal@@ 5158
Sch@@ 5159
skinny 5160
fl@@ 5161
78 5162
anti 5163
software 5164
oomf 5165
organization 5166
Former 5167
balance 5168
HI 5169
Zayn 5170
agreed 5171
Training 5172
Demi 5173
RED 5174
Rihanna 5175
zing 5176
hr 5177
bot 5178
Middle 5179
Dems 5180
stole 5181
vs@@ 5182
Josh 5183
ll@@ 5184
coverage 5185
audience 5186
Ju@@ 5187
Oil 5188
festival 5189
Mexican 5190
holidays 5191
cop 5192
Olympics 5193
View 5194
covers 5195
#St@@ 5196
promote 5197
Bel@@ 5198
sentence 5199
pocket 5200
opinions 5201
annual 5202
joining 5203
Starting 5204
cat@@ 5205
doors 5206
OS 5207
relax 5208
essay 5209
fruit 5210
climate 5211
:-( 5212
percent 5213
-up 5214
officials 5215
log 5216
FA 5217
nuts 5218
91 5219
Orange 5220
ski 5221
cap 5222
pie 5223
plate 5224
Pi@@ 5225
musical 5226
funniest 5227
・ 5228
Magazine 5229
discussion 5230
depends 5231
#my@@ 5232
FT 5233
hip 5234
Barometer 5235
annoyed 5236
remains 5237
@@@ 5238
oz 5239
ening 5240
stores 5241
Excited 5242
Energy 5243
Sean 5244
hated 5245
GA@@ 5246
ide 5247
Add 5248
Dave 5249
Valentine 5250
sey 5251
pre-@@ 5252
mm@@ 5253
Heat 5254
thy 5255
Yay 5256
apologize 5257
haters 5258
Labour 5259
tits 5260
76 5261
PR 5262
Sony 5263
MT 5264
slap 5265
10:@@ 5266
kin@@ 5267
ye@@ 5268
core 5269
ku@@ 5270
inn@@ 5271
nie 5272
freak 5273
Master 5274
III 5275
express 5276
Sexy 5277
HS 5278
rose 5279
47@@ 5280
Chi@@ 5281
Hi@@ 5282
tests 5283
ek 5284
Starbucks 5285
win@@ 5286
Believe 5287
12:@@ 5288
boots 5289
char@@ 5290
Kanye 5291
rush 5292
entry 5293
All@@ 5294
appearance 5295
AGAIN 5296
emergency 5297
#Job 5298
Lot 5299
coast 5300
ous@@ 5301
Brian 5302
tape 5303
Soon 5304
Coach 5305
gy@@ 5306
71 5307
drivers 5308
Madrid 5309
passion 5310
cops 5311
Jr 5312
Ring 5313
omfg 5314
tear 5315
FO@@ 5316
placed 5317
tro@@ 5318
passes 5319
precious 5320
gross 5321
ED@@ 5322
opens 5323
rice 5324
caring 5325
gan 5326
#l@@ 5327
lah 5328
records 5329
dd@@ 5330
officer 5331
bel@@ 5332
voters 5333
Sky 5334
sight 5335
Major 5336
appreciated 5337
racism 5338
defend 5339
Short 5340
cuddle 5341
Ariana 5342
pot 5343
:face_with_tongue: 5344
flip 5345
Breaking 5346
Word 5347
regarding 5348
Prime 5349
noise 5350
metal 5351
WH@@ 5352
Yall 5353
mp@@ 5354
Bag 5355
low@@ 5356
73 5357
matches 5358
besides 5359
egg 5360
kit 5361
gifts 5362
sub 5363
VOTE 5364
rent 5365
Cat 5366
victim 5367
--@@ 5368
Eric 5369
shares 5370
Te@@ 5371
suggest 5372
een 5373
#go@@ 5374
Hold 5375
tool 5376
Dra@@ 5377
uk@@ 5378
suicide 5379
pat@@ 5380
ahh 5381
Ms 5382
Key 5383
scale 5384
knee 5385
BB@@ 5386
Ty@@ 5387
Wil@@ 5388
thick 5389
battery 5390
Sat 5391
Truth 5392
replaced 5393
investigation 5394
2-@@ 5395
Said 5396
Natural 5397
89 5398
yep 5399
wal@@ 5400
employees 5401
Ways 5402
Local 5403
figured 5404
NE 5405
che@@ 5406
grand 5407
socks 5408
strategy 5409
Web 5410
Republic 5411
04@@ 5412
Technology 5413
praying 5414
39@@ 5415
surely 5416
silence 5417
awhile 5418
Instead 5419
93 5420
hiding 5421
aged 5422
probs 5423
activity 5424
funding 5425
han@@ 5426
playoffs 5427
sm 5428
ere 5429
conditions 5430
jacket 5431
models 5432
effective 5433
ick 5434
devil 5435
4-@@ 5436
homes 5437
ered 5438
Mad@@ 5439
Academy 5440
activities 5441
outs 5442
colour 5443
Photoset 5444
businesses 5445
pushing 5446
Running 5447
79 5448
ck@@ 5449
Each 5450
cheat 5451
Mrs 5452
´ 5453
stops 5454
ani@@ 5455
Khan 5456
KING 5457
Bell 5458
Hmm 5459
Talking 5460
reminder 5461
lat@@ 5462
WIN 5463
staring 5464
#8@@ 5465
Coffee 5466
county 5467
94 5468
focused 5469
blessing 5470
presence 5471
MC 5472
eng@@ 5473
er-@@ 5474
Tune 5475
laid 5476
lar@@ 5477
pt 5478
gg 5479
tt 5480
bills 5481
choices 5482
ser 5483
fe 5484
one@@ 5485
Pri@@ 5486
Note 5487
Available 5488
escape 5489
significant 5490
comeback 5491
Walking 5492
ious 5493
lover 5494
gi 5495
tive 5496
GREAT 5497
BA 5498
Seeing 5499
#a@@ 5500
VERY 5501
tim@@ 5502
max 5503
Coast 5504
Andy 5505
sunday 5506
fandom 5507
spoke 5508
beef 5509
cam@@ 5510
Using 5511
24/7 5512
Seattle 5513
seek 5514
iTunes 5515
ama@@ 5516
ene 5517
11:@@ 5518
deserved 5519
Pl@@ 5520
podcast 5521
Child 5522
49@@ 5523
Doctor 5524
eggs 5525
ace 5526
:regional_indicator_symbol_letter_u: 5527
#New@@ 5528
Ive 5529
itt@@ 5530
Val@@ 5531
Stories 5532
federal 5533
je@@ 5534
Pop 5535
fund 5536
destroyed 5537
Stone 5538
UM@@ 5539
Francisco 5540
Turkey 5541
provided 5542
lands 5543
idiots 5544
display 5545
patients 5546
greater 5547
Sea 5548
graduate 5549
eng 5550
eight 5551
ming 5552
ham@@ 5553
bin 5554
trees 5555
ward 5556
slide 5557
ei@@ 5558
ken 5559
Model 5560
Sc@@ 5561
founded 5562
raining 5563
Though 5564
announce 5565
championship 5566
Color 5567
Used 5568
Followers 5569
Jeff 5570
Action 5571
university 5572
Event 5573
lbs 5574
Grey 5575
Weekend 5576
tta 5577
fri@@ 5578
Supreme 5579
Charlie 5580
Hy@@ 5581
anal 5582
hPa 5583
Wild 5584
pen@@ 5585
Aww 5586
dedicated 5587
CH 5588
handsome 5589
wasted 5590
men@@ 5591
Cr@@ 5592
verse 5593
sore 5594
BLACK 5595
Ross 5596
74 5597
giveaway 5598
overall 5599
del 5600
rip 5601
Break 5602
puppy 5603
unit 5604
thus 5605
Through 5606
GONNA 5607
comedy 5608
links 5609
Sho@@ 5610
hugs 5611
burning 5612
Stand 5613
Don@@ 5614
killer 5615
Bible 5616
Pay 5617
duty 5618
zz 5619
Stephen 5620
returns 5621
adding 5622
Mat@@ 5623
chips 5624
worries 5625
HELP 5626
tur@@ 5627
separate 5628
Pat@@ 5629
odd 5630
lake 5631
21st 5632
ste@@ 5633
tend 5634
UT 5635
Muslims 5636
bars 5637
Fight 5638
hor@@ 5639
Mini 5640
lessons 5641
reference 5642
debt 5643
bodies 5644
tons 5645
YA 5646
stressed 5647
:regional_indicator_symbol_letter_s: 5648
izing 5649
EVERYTHING 5650
Fans 5651
ped 5652
Cut 5653
head@@ 5654
depressed 5655
Age 5656
function 5657
administration 5658
inst@@ 5659
liberal 5660
hiring 5661
split 5662
Bro@@ 5663
generally 5664
motivation 5665
Side 5666
regardless 5667
albums 5668
:crown: 5669
ths 5670
HAS 5671
sea@@ 5672
Double 5673
catching 5674
Rick 5675
convo 5676
al-@@ 5677
ATE 5678
exercise 5679
84 5680
Ft 5681
WAIT 5682
Society 5683
keys 5684
chain 5685
fancy 5686
Late 5687
featuring 5688
Son 5689
tin 5690
Gen@@ 5691
scores 5692
listed 5693
package 5694
Mine 5695
Diamond 5696
AP@@ 5697
speaks 5698
ats 5699
ging 5700
250 5701
whilst 5702
yah 5703
ce@@ 5704
sauce 5705
prepare 5706
advance 5707
achieve 5708
QU@@ 5709
Poor 5710
professor 5711
tank 5712
Mad 5713
cl@@ 5714
HAHA 5715
prob 5716
Dec@@ 5717
enc@@ 5718
Xx 5719
images 5720
Jimmy 5721
din 5722
luke 5723
Proud 5724
ocean 5725
9th 5726
yy 5727
Association 5728
clubs 5729
nail 5730
existence 5731
Lewis 5732
HAHAHA 5733
believed 5734
:collision: 5735
Chat 5736
Friend 5737
desk 5738
Holiday 5739
Del@@ 5740
butter 5741
prevent 5742
headache 5743
88@@ 5744
originally 5745
basis 5746
Anthony 5747
not@@ 5748
Centre 5749
chase 5750
thin 5751
Air@@ 5752
connected 5753
20th 5754
kisses 5755
SAY 5756
productive 5757
dunno 5758
Words 5759
programs 5760
fourth 5761
3-@@ 5762
Stock 5763
Alright 5764
Fr@@ 5765
supported 5766
prolly 5767
opportunities 5768
silent 5769
belong 5770
Release 5771
equal 5772
dealing 5773
cheating 5774
Control 5775
EVERY 5776
COM@@ 5777
Yo@@ 5778
Sydney 5779
LOT 5780
celebrating 5781
60@@ 5782
Mueller 5783
BEEN 5784
efforts 5785
closing 5786
painting 5787
supply 5788
spam 5789
120 5790
mb 5791
Simple 5792
tied 5793
swimming 5794
skip 5795
Trailer 5796
FF@@ 5797
(8 5798
Southern 5799
82 5800
charges 5801
yyy 5802
shipping 5803
mas 5804
automatically 5805
bt 5806
definition 5807
warning 5808
RE 5809
Page 5810
relevant 5811
suffering 5812
sch@@ 5813
jersey 5814
profit 5815
offense 5816
ils 5817
lee 5818
Greek 5819
firm 5820
Sub@@ 5821
monday 5822
Tyler 5823
division 5824
McDonald 5825
Following 5826
garbage 5827
Place 5828
bles 5829
IV 5830
useless 5831
83 5832
standards 5833
Garden 5834
Hal@@ 5835
follower 5836
politicians 5837
VE 5838
Interesting 5839
Beyonce 5840
behavior 5841
1:@@ 5842
Putin 5843
protest 5844
gender 5845
happier 5846
Month 5847
Away 5848
tter 5849
crossed 5850
Cur@@ 5851
GU@@ 5852
« 5853
81 5854
wn 5855
pen 5856
fc 5857
Building 5858
wr@@ 5859
genius 5860
doctors 5861
Development 5862
mr 5863
forgotten 5864
bug 5865
liar 5866
Miller 5867
ABC 5868
blowing 5869
ned 5870
Da 5871
€ 5872
fits 5873
Gets 5874
Division 5875
bat@@ 5876
DOWN 5877
clip 5878
picks 5879
:headphone: 5880
banned 5881
Hor@@ 5882
Premier 5883
ingly 5884
ab 5885
Ay@@ 5886
childhood 5887
Either 5888
Player 5889
agent 5890
monster 5891
reporting 5892
#re@@ 5893
ened 5894
stood 5895
mates 5896
environment 5897
offering 5898
yan 5899
experienced 5900
hire 5901
#7@@ 5902
disagree 5903
gh 5904
#r@@ 5905
prize 5906
BABY 5907
Cross 5908
Cro@@ 5909
Modi 5910
Catholic 5911
FIRST 5912
BB 5913
texted 5914
Unless 5915
letters 5916
western 5917
Sur@@ 5918
purple 5919
performed 5920
1999 5921
Detroit 5922
ben@@ 5923
Pan@@ 5924
papers 5925
prayer 5926
Tor@@ 5927
Moon 5928
pped 5929
Morgan 5930
bb@@ 5931
land@@ 5932
OVER 5933
Feels 5934
goodness 5935
600 5936
traditional 5937
aaa 5938
Steel 5939
Junior 5940
Gone 5941
pulling 5942
PE@@ 5943
7-@@ 5944
As@@ 5945
logic 5946
settle 5947
]: 5948
lab 5949
Tar@@ 5950
Van 5951
Angel 5952
BL@@ 5953
San@@ 5954
mid 5955
CT 5956
Miley 5957
concern 5958
presents 5959
Cuz 5960
resources 5961
windows 5962
accused 5963
8-@@ 5964
Area 5965
rates 5966
bab@@ 5967
smells 5968
Perry 5969
Kid 5970
compare 5971
sof@@ 5972
86 5973
87 5974
ooo 5975
Question 5976
housing 5977
ians 5978
Bush 5979
condition 5980
Zealand 5981
Ku@@ 5982
hs 5983
Deep 5984
responsibility 5985
ever@@ 5986
Bri@@ 5987
Hahahaha 5988
Anything 5989
genuinely 5990
gen 5991
bonus 5992
niall 5993
mans 5994
#quote 5995
sia 5996
GIRL 5997
edit 5998
complex 5999
down@@ 6000
depression 6001
useful 6002
Collection 6003
Shoes 6004
:Christmas_tree: 6005
cur@@ 6006
8.@@ 6007
Alabama 6008
Davis 6009
gie 6010
Sen@@ 6011
sed@@ 6012
ESPN 6013
desperate 6014
lov@@ 6015
medicine 6016
funds 6017
hun 6018
#y@@ 6019
ac 6020
effects 6021
democracy 6022
chapter 6023
wouldnt 6024
Tickets 6025
CO 6026
roads 6027
civil 6028
someday 6029
wor@@ 6030
2.0 6031
Books 6032
introduced 6033
PE 6034
ora 6035
Ter@@ 6036
emails 6037
EV@@ 6038
Aug 6039
shocked 6040
nonsense 6041
Shout 6042
--> 6043
Glass 6044
trading 6045
tor 6046
Reach 6047
heck 6048
mc@@ 6049
bat 6050
GR@@ 6051
produce 6052
SW@@ 6053
hhhh 6054
ars 6055
Korean 6056
ap 6057
Northern 6058
sta@@ 6059
ges 6060
Search 6061
exchange 6062
FF 6063
pounds 6064
wisdom 6065
toward 6066
nine 6067
Federal 6068
Hour 6069
bench 6070
Captain 6071
analysis 6072
Romney 6073
ku 6074
smaller 6075
♪ 6076
int 6077
null 6078
sor@@ 6079
Islam 6080
2.5 6081
donate 6082
Rising 6083
VI@@ 6084
Democratic 6085
ther 6086
Johnny 6087
inner 6088
parent 6089
Hospital 6090
therefore 6091
#im@@ 6092
Main 6093
plot 6094
Phil 6095
suffer 6096
grades 6097
May@@ 6098
committed 6099
Level 6100
#gameinsight 6101
Bor@@ 6102
Front 6103
appointment 6104
oun@@ 6105
#Ch@@ 6106
wee 6107
ami 6108
Closed 6109
Bon@@ 6110
sto@@ 6111
Yup 6112
li 6113
Fo@@ 6114
Allen 6115
TWEET 6116
shits 6117
bury 6118
promised 6119
Patrick 6120
Diego 6121
IG@@ 6122
Voice 6123
va@@ 6124
mayor 6125
horror 6126
Against 6127
Falling 6128
counting 6129
Jewish 6130
pur@@ 6131
shi 6132
Sy@@ 6133
bum 6134
Bea@@ 6135
convinced 6136
mature 6137
wore 6138
that@@ 6139
Text 6140
sex@@ 6141
MUST 6142
bit@@ 6143
license 6144
Snow 6145
Learning 6146
forms 6147
:smiling_cat_face_with_heart-eyes: 6148
Ly@@ 6149
ments 6150
plastic 6151
Ob@@ 6152
adventure 6153
zed 6154
rep@@ 6155
TD 6156
Credit 6157
charity 6158
engine 6159
sandwich 6160
Step 6161
Square 6162
launched 6163
Fake 6164
ory 6165
critical 6166
flower 6167
vehicle 6168
bias 6169
46@@ 6170
marks 6171
defeat 6172
unfollowed 6173
By@@ 6174
deliver 6175
Already 6176
Sol@@ 6177
issued 6178
delay 6179
PH@@ 6180
zi 6181
bell 6182
#9@@ 6183
reviews 6184
struggling 6185
ken@@ 6186
hashtag 6187
anti@@ 6188
Yesterday 6189
impressed 6190
LET 6191
LMFAO 6192
bedroom 6193
asses 6194
attacked 6195
corrupt 6196
:sweat_droplets: 6197
2,@@ 6198
Trade 6199
owners 6200
ality 6201
Large 6202
Wilson 6203
Records 6204
WWE 6205
naw 6206
18th 6207
#Happy@@ 6208
sar@@ 6209
weekly 6210
Study 6211
bone 6212
QB 6213
confident 6214
walls 6215
wishing 6216
desire 6217
ky@@ 6218
seeking 6219
stays 6220
cough 6221
joking 6222
gear 6223
loan 6224
saturday 6225
THEN 6226
Despite 6227
shing 6228
unknown 6229
comfort 6230
sec 6231
ppy 6232
poll 6233
Selena 6234
tone 6235
TF 6236
por@@ 6237
Boo@@ 6238
:pleading_face: 6239
UP@@ 6240
Roman 6241
#5@@ 6242
ura 6243
Back@@ 6244
yup 6245
normally 6246
Arts 6247
10th 6248
minister 6249
HP 6250
Ed@@ 6251
squ@@ 6252
:camera: 6253
TW@@ 6254
Saudi 6255
lemme 6256
EXO 6257
expert 6258
sen 6259
ity@@ 6260
hun@@ 6261
b4 6262
sudden 6263
Fin@@ 6264
winners 6265
THINK 6266
ders 6267
val@@ 6268
shoe 6269
PT 6270
SM 6271
lia 6272
rising 6273
factor 6274
Cra@@ 6275
Bridge 6276
xxxx 6277
Sea@@ 6278
Walk 6279
Hand 6280
Cam 6281
DIS@@ 6282
slut 6283
Forget 6284
Cute 6285
ities 6286
ston 6287
Wake 6288
Pressure 6289
Clean 6290
Blood 6291
9.@@ 6292
play@@ 6293
uck 6294
cer@@ 6295
gl@@ 6296
upload 6297
longest 6298
ANY 6299
Thing 6300
patience 6301
gun@@ 6302
fan@@ 6303
department 6304
application 6305
ner@@ 6306
Took 6307
new@@ 6308
Currently 6309
Jon 6310
Cruz 6311
fab 6312
CAN'T 6313
ji@@ 6314
Colorado 6315
length 6316
cousins 6317
MUSIC 6318
Princess 6319
studies 6320
southern 6321
yer 6322
Judge 6323
tu 6324
LL 6325
swim 6326
Cho@@ 6327
Quality 6328
fought 6329
Kobe 6330
fun@@ 6331
wrap 6332
loser 6333
therapy 6334
circle 6335
Las 6336
black@@ 6337
packed 6338
union 6339
granted 6340
maker 6341
arguing 6342
mentally 6343
Ion 6344
GE 6345
Mel@@ 6346
hook 6347
provides 6348
eaten 6349
ids 6350
accurate 6351
broadcast 6352
MO 6353
.com 6354
gal 6355
Bet 6356
#not@@ 6357
allows 6358
heels 6359
lmaoo 6360
painful 6361
Success 6362
graduation 6363
Wales 6364
file 6365
aunt 6366
directed 6367
comic 6368
promo 6369
Land 6370
conversations 6371
AK@@ 6372
je 6373
agenda 6374
lifetime 6375
KE 6376
tion@@ 6377
Whenever 6378
boost 6379
adults 6380
shock 6381
FIFA 6382
bacon 6383
chin 6384
grass 6385
off@@ 6386
ites 6387
Loving 6388
twin 6389
articles 6390
ohh 6391
bla@@ 6392
Ham@@ 6393
Mil@@ 6394
roof 6395
☼ 6396
ged 6397
ised 6398
Olympic 6399
mountain 6400
Rd 6401
delivered 6402
:snowflake: 6403
TING 6404
ghost 6405
Goodnight 6406
1.5 6407
Eat 6408
RB@@ 6409
Na 6410
CL@@ 6411
Minaj 6412
brave 6413
rocks 6414
Pacific 6415
grind 6416
Er@@ 6417
seemed 6418
Cleveland 6419
agency 6420
logo 6421
3,@@ 6422
develop 6423
Jose 6424
Cameron 6425
Woke 6426
investment 6427
GS 6428
gro@@ 6429
fabulous 6430
ren 6431
teens 6432
Program 6433
ds@@ 6434
inf@@ 6435
DAMN 6436
Nu@@ 6437
MD 6438
inspiring 6439
Cole 6440
TT 6441
hosting 6442
worthy 6443
ark@@ 6444
pp 6445
anda 6446
lls 6447
stfu 6448
bow 6449
mommy 6450
drag 6451
bee 6452
#Vote@@ 6453
dd 6454
dads 6455
intelligence 6456
atic 6457
,@@ 6458
illa 6459
Around 6460
sol@@ 6461
#えどがわイケメン 6462
Field 6463
wed 6464
1,000 6465
GIVE 6466
sum@@ 6467
accent 6468
hoo@@ 6469
uploaded 6470
selfies 6471
zayn 6472
App@@ 6473
ue 6474
shit@@ 6475
hardly 6476
Mars 6477
device 6478
tools 6479
fre@@ 6480
corruption 6481
knocked 6482
ink@@ 6483
facing 6484
individuals 6485
panic 6486
Fresh 6487
assist 6488
ances 6489
Gi@@ 6490
Wi@@ 6491
affected 6492
Own 6493
Number 6494
ISIS 6495
Studio 6496
Fine 6497
captain 6498
SB 6499
Ge@@ 6500
ently 6501
:backhand_index_pointing_down: 6502
Sta@@ 6503
owe 6504
aaa@@ 6505
relate 6506
una 6507
Thanksgiving 6508
laughs 6509
def@@ 6510
Joseph 6511
visiting 6512
bid 6513
GM 6514
jo 6515
Arizona 6516
:heavy_check_mark: 6517
tty 6518
gam@@ 6519
believes 6520
Ian 6521
fla@@ 6522
tube 6523
Museum 6524
offensive 6525
Win@@ 6526
BREAKING 6527
AR 6528
writers 6529
acc@@ 6530
Gal@@ 6531
powers 6532
Alert 6533
ational 6534
joint 6535
ashamed 6536
Mountain 6537
za@@ 6538
Nor@@ 6539
AH 6540
fs 6541
thrown 6542
homeless 6543
ass@@ 6544
described 6545
Foundation 6546
Inside 6547
candidates 6548
sources 6549
Aaron 6550
Sound 6551
Sport 6552
gained 6553
#o@@ 6554
stadium 6555
eve 6556
Auto 6557
selfish 6558
Together 6559
Fla@@ 6560
mil@@ 6561
asf 6562
rolls 6563
solve 6564
Brother 6565
revealed 6566
CAR@@ 6567
uck@@ 6568
cla@@ 6569
tra 6570
incredibly 6571
Sanders 6572
E-@@ 6573
bon@@ 6574
har 6575
handed 6576
quotes 6577
ology 6578
Fre@@ 6579
far@@ 6580
races 6581
exclusive 6582
19th 6583
NY@@ 6584
Ger@@ 6585
realised 6586
0-@@ 6587
ultimate 6588
fraud 6589
aya 6590
EE@@ 6591
stairs 6592
raising 6593
grace 6594
Bye 6595
protection 6596
Daddy 6597
Move 6598
bull 6599
unfortunately 6600
Mario 6601
allowing 6602
Rs 6603
faced 6604
attached 6605
residents 6606
downtown 6607
Basketball 6608
;D 6609
randomly 6610
SL@@ 6611
rooms 6612
ease 6613
#so@@ 6614
#v@@ 6615
TOP 6616
wheel 6617
dar@@ 6618
TAKE 6619
fails 6620
weapons 6621
:kissing_face_with_closed_eyes: 6622
bts 6623
wifi 6624
dislike 6625
Au@@ 6626
Shame 6627
Cash 6628
particularly 6629
Under@@ 6630
Ash@@ 6631
eyebrows 6632
USB 6633
Drop 6634
Bitcoin 6635
clothing 6636
sec@@ 6637
increased 6638
Kate 6639
entirely 6640
aside 6641
nut 6642
Je@@ 6643
variety 6644
register 6645
lion 6646
PS@@ 6647
MEAN 6648
Pokemon 6649
ack 6650
label 6651
Yellow 6652
burger 6653
ole 6654
Kill 6655
hunt 6656
feedback 6657
wn@@ 6658
dra@@ 6659
BI@@ 6660
appointed 6661
hw 6662
5-@@ 6663
penalty 6664
poster 6665
lad 6666
fights 6667
ii@@ 6668
Shut 6669
Lana 6670
rapper 6671
dawg 6672
Loved 6673
CS 6674
6-@@ 6675
MAR@@ 6676
Governor 6677
client 6678
tru@@ 6679
ization 6680
Kinda 6681
trap 6682
1998 6683
Bless 6684
e_@@ 6685
password 6686
ignoring 6687
NIGHT 6688
coat 6689
ree 6690
sam@@ 6691
racing 6692
UC@@ 6693
Hand@@ 6694
addicted 6695
CUTE 6696
reduce 6697
9-@@ 6698
Huge 6699
hal@@ 6700
typical 6701
Stream 6702
Rey 6703
wha@@ 6704
sters 6705
PP@@ 6706
frame 6707
Complete 6708
chi 6709
hidden 6710
los 6711
charger 6712
beast 6713
Teen 6714
wasting 6715
Britney 6716
beside 6717
chosen 6718
tested 6719
Ali 6720
:pile_of_poo: 6721
Express 6722
Traffic 6723
ight 6724
kicking 6725
á@@ 6726
pushed 6727
emoji 6728
Gary 6729
MM@@ 6730
Limited 6731
Iraq 6732
burg 6733
sted 6734
affect 6735
Wo@@ 6736
lon@@ 6737
#3@@ 6738
replied 6739
non@@ 6740
IP 6741
Camp 6742
berg 6743
sooooo 6744
fries 6745
ban@@ 6746
ze@@ 6747
ati 6748
PRO@@ 6749
awww 6750
sunny 6751
WHERE 6752
HEY 6753
dan 6754
amp@@ 6755
Fan@@ 6756
reaching 6757
PS4 6758
Financial 6759
Giveaway 6760
ion@@ 6761
Cas@@ 6762
kissing 6763
confirm 6764
Gay 6765
:smiling_face_with_3_hearts: 6766
Ph@@ 6767
farm 6768
yelling 6769
error 6770
Eye 6771
Cat@@ 6772
Battery 6773
dos 6774
Del 6775
elle 6776
mainly 6777
Inch 6778
if@@ 6779
rally 6780
Dragon 6781
plain 6782
cloud 6783
grey 6784
tuned 6785
stated 6786
terrorist 6787
whore 6788
Duke 6789
lan@@ 6790
ez 6791
Strong 6792
ignored 6793
Totally 6794
hum@@ 6795
entertainment 6796
policies 6797
Students 6798
clients 6799
Six 6800
suspect 6801
kh@@ 6802
bad@@ 6803
Told 6804
od@@ 6805
porno 6806
lick 6807
punk 6808
dig 6809
perspective 6810
hahahahaha 6811
UPDATE 6812
claimed 6813
HE@@ 6814
constant 6815
DR@@ 6816
Audio 6817
Contact 6818
soldiers 6819
Quick 6820
tho@@ 6821
BAD 6822
O'@@ 6823
estate 6824
:registered: 6825
officers 6826
ira 6827
lowkey 6828
needa 6829
Rich 6830
salad 6831
TONIGHT 6832
Lebron 6833
horny 6834
Attack 6835
#6@@ 6836
Spurs 6837
rings 6838
ington 6839
task 6840
Crystal 6841
34@@ 6842
uu@@ 6843
Tax 6844
key@@ 6845
fo 6846
NI@@ 6847
Ban@@ 6848
hardcore 6849
gging 6850
belly 6851
Kansas 6852
Student 6853
values 6854
Moore 6855
ously 6856
Barcelona 6857
nothin 6858
YOU'RE 6859
CC@@ 6860
#Jobs 6861
dem@@ 6862
Eve 6863
fee 6864
Aw 6865
oops 6866
cm 6867
suspended 6868
SU 6869
Islamic 6870
wars 6871
fy 6872
blunt 6873
Fort 6874
asap 6875
prime 6876
Singapore 6877
Race 6878
peoples 6879
Dun@@ 6880
MAN@@ 6881
iv@@ 6882
WA 6883
#ma@@ 6884
BECAUSE 6885
tes 6886
Golf 6887
rage 6888
Sterling 6889
context 6890
ano@@ 6891
quest 6892
fuel 6893
Men@@ 6894
stra@@ 6895
fest 6896
explains 6897
dang 6898
loo@@ 6899
selection 6900
ero 6901
banks 6902
praise 6903
assault 6904
Machine 6905
Die 6906
reminded 6907
#2@@ 6908
BJP 6909
carried 6910
mines 6911
ok@@ 6912
represent 6913
ego 6914
bothered 6915
blah 6916
woo@@ 6917
actress 6918
pace 6919
mb@@ 6920
D: 6921
IR@@ 6922
#Re@@ 6923
Drinking 6924
ith 6925
wat@@ 6926
flu 6927
tail 6928
ech@@ 6929
Empire 6930
sand@@ 6931
knees 6932
alongside 6933
Batman 6934
covering 6935
cy@@ 6936
Institute 6937
headphones 6938
MC@@ 6939
dj@@ 6940
hahahah 6941
deaths 6942
champion 6943
Kong 6944
wee@@ 6945
Howard 6946
VS 6947
SOME 6948
Stupid 6949
LAST 6950
Less 6951
hu 6952
extreme 6953
ali 6954
HI@@ 6955
sem@@ 6956
#in@@ 6957
Soul 6958
ain 6959
Current 6960
attended 6961
DAYS 6962
enemies 6963
discount 6964
Big@@ 6965
rated 6966
jumping 6967
electric 6968
units 6969
stunning 6970
lly 6971
Skin 6972
Philippines 6973
VIP 6974
beg 6975
uncomfortable 6976
clo@@ 6977
massage 6978
Weight 6979
causes 6980
fuck@@ 6981
HARD 6982
lads 6983
Cla@@ 6984
Good@@ 6985
meme 6986
nuclear 6987
Ted 6988
ers@@ 6989
MI 6990
OT 6991
spoken 6992
Engineer 6993
soup 6994
Scottish 6995
sweat 6996
courage 6997
:rose: 6998
scoring 6999
:dizzy: 7000
act@@ 7001
ENT 7002
worldwide 7003
iphone 7004
golden 7005
toy 7006
Tim@@ 7007
understood 7008
Bruh 7009
Mur@@ 7010
AG@@ 7011
Cold 7012
su 7013
temperature 7014
searching 7015
nephew 7016
bud 7017
Due 7018
eats 7019
Build 7020
proven 7021
Orlando 7022
alist 7023
#ask@@ 7024
Danny 7025
gre@@ 7026
hh@@ 7027
Iron 7028
som@@ 7029
Catch 7030
Lauren 7031
sk 7032
booked 7033
Cap@@ 7034
bre@@ 7035
Missing 7036
sticks 7037
ier 7038
800 7039
13th 7040
:soccer_ball: 7041
Nigerian 7042
tit@@ 7043
Modern 7044
Fat 7045
ana@@ 7046
positions 7047
56@@ 7048
Cy@@ 7049
ets 7050
healthcare 7051
kno@@ 7052
Cancer 7053
ino@@ 7054
mid@@ 7055
#Z@@ 7056
deny 7057
Sell 7058
humanity 7059
Dick 7060
recognize 7061
belt 7062
atleast 7063
header 7064
Computer 7065
gan@@ 7066
yung 7067
Ram@@ 7068
Nintendo 7069
Cheers 7070
motion 7071
Customer 7072
Potter 7073
Gri@@ 7074
Pick 7075
PR@@ 7076
ising 7077
1997 7078
convince 7079
Details 7080
recovery 7081
Grande 7082
Kings 7083
finishing 7084
nic@@ 7085
raw 7086
Charlotte 7087
TER 7088
Shows 7089
clouds 7090
minor 7091
del@@ 7092
Des@@ 7093
Between 7094
logical 7095
rat 7096
mel@@ 7097
hmmm 7098
touched 7099
strip 7100
Bruce 7101
nightmare 7102
Assistant 7103
Email 7104
item 7105
DEALS 7106
structure 7107
pre 7108
ich 7109
Hum@@ 7110
St. 7111
dev@@ 7112
Tired 7113
Eastern 7114
bee@@ 7115
dumbass 7116
#co@@ 7117
Register 7118
#th@@ 7119
freshman 7120
Bids 7121
way@@ 7122
k-@@ 7123
spreading 7124
answered 7125
Track 7126
phase 7127
spots 7128
humble 7129
#RT 7130
aaaa@@ 7131
Rob 7132
tz 7133
Mama 7134
iron 7135
Mount 7136
:face_without_mouth: 7137
gri@@ 7138
HELL 7139
rac@@ 7140
awareness 7141
iPod 7142
sting 7143
big@@ 7144
brush 7145
mask 7146
causing 7147
opposition 7148
3:@@ 7149
yards 7150
Ya@@ 7151
stopping 7152
panel 7153
Worst 7154
illi@@ 7155
blown 7156
presentation 7157
Ak@@ 7158
Worth 7159
#Mar@@ 7160
Type 7161
Military 7162
xo 7163
exposed 7164
pts 7165
Michelle 7166
stare 7167
couples 7168
ade 7169
kie 7170
one-@@ 7171
capable 7172
immigration 7173
e.@@ 7174
Perhaps 7175
Train 7176
1996 7177
ü@@ 7178
Maria 7179
carrying 7180
hon@@ 7181
crimes 7182
sit@@ 7183
march 7184
#be@@ 7185
folk 7186
TE@@ 7187
sadly 7188
alternative 7189
kan 7190
AF@@ 7191
Poland 7192
fried 7193
Walmart 7194
UM 7195
THING 7196
chilling 7197
relief 7198
remaining 7199
exists 7200
scare 7201
sta 7202
Wood 7203
providing 7204
ITY 7205
formula 7206
Harris 7207
Ave 7208
Behind 7209
Champions 7210
Spirit 7211
promises 7212
sends 7213
SP 7214
dri@@ 7215
celebrity 7216
Katy 7217
disaster 7218
Saint 7219
CP 7220
stranger 7221
o-@@ 7222
root 7223
toes 7224
 7225
Giants 7226
Baseball 7227
Chicken 7228
kk 7229
experiences 7230
Thx 7231
bitter 7232
zi@@ 7233
Lakers 7234
troops 7235
swing 7236
concerns 7237
chart 7238
chy 7239
ahaha 7240
77@@ 7241
volume 7242
ble@@ 7243
FL@@ 7244
NJ 7245
YO 7246
Wrong 7247
fiction 7248
post@@ 7249
Delhi 7250
MI@@ 7251
tattoos 7252
Oregon 7253
alo@@ 7254
server 7255
offended 7256
thirsty 7257
romantic 7258
Executive 7259
twins 7260
intense 7261
additional 7262
Jane 7263
ensure 7264
Retweeted 7265
larger 7266
NOTHING 7267
LeBron 7268
Sim@@ 7269
figures 7270
tre@@ 7271
Later 7272
SAME 7273
knw 7274
weekends 7275
HAD 7276
Gro@@ 7277
dam 7278
Match 7279
Hoo@@ 7280
stolen 7281
Jennifer 7282
pun@@ 7283
Amy 7284
helpful 7285
Female 7286
RT@@ 7287
Print 7288
Denver 7289
yn 7290
Hemmings 7291
Sitting 7292
Gray 7293
petty 7294
:penguin: 7295
None 7296
om 7297
Kal@@ 7298
acceptable 7299
Version 7300
band@@ 7301
A-@@ 7302
Dean 7303
mic 7304
Interview 7305
penis 7306
sla@@ 7307
Ocean 7308
waited 7309
LL@@ 7310
lers 7311
Bas@@ 7312
#Deals 7313
supports 7314
---> 7315
entertaining 7316
Love@@ 7317
communities 7318
approximately 7319
Egypt 7320
ond@@ 7321
northern 7322
irrelevant 7323
Experience 7324
UT@@ 7325
louis 7326
Committee 7327
selected 7328
reveals 7329
cycle 7330
ware 7331
ron 7332
flash 7333
VO@@ 7334
Marvel 7335
kn@@ 7336
AD 7337
nite 7338
drove 7339
SF 7340
Matthew 7341
clown 7342
Roll 7343
TWO 7344
Sick 7345
ING@@ 7346
Bad@@ 7347
intended 7348
Except 7349
just@@ 7350
tryin 7351
Tweets 7352
Rest 7353
ran@@ 7354
Dutch 7355
Unfortunately 7356
determined 7357
documentary 7358
OMFG 7359
Parliament 7360
Total 7361
chasing 7362
inches 7363
lawyer 7364
cancel 7365
:anxious_face_with_sweat: 7366
21@@ 7367
NYT 7368
vibes 7369
Bed 7370
ric@@ 7371
rs 7372
youu 7373
:cat_face_with_tears_of_joy: 7374
Bre@@ 7375
appropriate 7376
neighborhood 7377
amateur 7378
ain@@ 7379
Mid@@ 7380
tic@@ 7381
10-@@ 7382
eat@@ 7383
Youth 7384
outbreak 7385
Lincoln 7386
referring 7387
craft 7388
secure 7389
CE 7390
decades 7391
Indiana 7392
unable 7393
Hel@@ 7394
tap 7395
genuine 7396
hat@@ 7397
#hiring 7398
Jewelry 7399
screwed 7400
� 7401
#Trump@@ 7402
retweets 7403
Indonesia 7404
stealing 7405
tennis 7406
Argentina 7407
Works 7408
kicks 7409
Cafe 7410
Elizabeth 7411
² 7412
quiz 7413
ao 7414
swag 7415
jumped 7416
meets 7417
XL 7418
audio 7419
wer@@ 7420
Touch 7421
TELL 7422
Tea 7423
gue 7424
Kyle 7425
plants 7426
ren@@ 7427
bucks 7428
stations 7429
vin 7430
dreaming 7431
yl@@ 7432
vers 7433
XXX 7434
gig 7435
Merry 7436
lap 7437
ding@@ 7438
collect 7439
esh 7440
Simon 7441
nor@@ 7442
bust 7443
AA 7444
Brothers 7445
arrive 7446
sang 7447
neighbors 7448
#4@@ 7449
sensitive 7450
defeated 7451
suits 7452
zo 7453
arrest 7454
familiar 7455
cable 7456
subscribe 7457
mon 7458
vibe 7459
Electric 7460
iness 7461
Anna 7462
PI@@ 7463
pose 7464
depressing 7465
aircraft 7466
West@@ 7467
native 7468
Ultimate 7469
admire 7470
Ppl 7471
identity 7472
Stadium 7473
:balloon: 7474
actors 7475
Carter 7476
pillow 7477
WS 7478
oooo@@ 7479
kay 7480
Born 7481
Parents 7482
celebration 7483
conservative 7484
cutie 7485
Boss 7486
Vine 7487
your@@ 7488
fridge 7489
Bla@@ 7490
Jake 7491
Dor@@ 7492
Clear 7493
succeed 7494
beard 7495
HR 7496
Metal 7497
Ps 7498
READ 7499
enn@@ 7500
emp@@ 7501
YEAR 7502
promotion 7503
complicated 7504
deck 7505
ul 7506
toe 7507
Civil 7508
Dr@@ 7509
Vs 7510
sooner 7511
Democrat 7512
#Al@@ 7513
11/@@ 7514
Fantasy 7515
eeee@@ 7516
Emma 7517
Lea@@ 7518
Pope 7519
Warriors 7520
ako 7521
txt 7522
Rec@@ 7523
equipment 7524
babes 7525
throws 7526
experts 7527
drives 7528
physically 7529
ILY 7530
funeral 7531
guessing 7532
4,@@ 7533
SHA@@ 7534
wealth 7535
SHOW 7536
visited 7537
Walker 7538
aging 7539
ele@@ 7540
defending 7541
fitness 7542
theyre 7543
02@@ 7544
nam@@ 7545
:glowing_star: 7546
Capital 7547
tel@@ 7548
Author 7549
ILYSM 7550
may@@ 7551
#new@@ 7552
spare 7553
Tom@@ 7554
burned 7555
#team@@ 7556
smash 7557
AI 7558
sion 7559
mfs 7560
1/@@ 7561
Ashley 7562
wana 7563
Exclusive 7564
IVE 7565
RS 7566
couldnt 7567
INE 7568
peak 7569
ila 7570
hol@@ 7571
Lucky 7572
Brooklyn 7573
pleased 7574
Target 7575
Create 7576
trynna 7577
aga@@ 7578
Apply 7579
PER@@ 7580
Facts 7581
require 7582
challenges 7583
shar@@ 7584
Hamilton 7585
marathon 7586
humor 7587
Prod 7588
skill 7589
boxes 7590
Robin 7591
operations 7592
80@@ 7593
cricket 7594
associated 7595
Wishing 7596
height 7597
Professional 7598
sing@@ 7599
Pizza 7600
keeper 7601
Journal 7602
Billy 7603
nerves 7604
violent 7605
Kindle 7606
#music 7607
situations 7608
breathing 7609
french 7610
DJ@@ 7611
favorites 7612
Safe 7613
Jeremy 7614
Lovely 7615
receiving 7616
cap@@ 7617
alert 7618
Hmmm 7619
buildings 7620
rel@@ 7621
trains 7622
Library 7623
spin 7624
Kiss 7625
sive 7626
#st@@ 7627
GAME 7628
pops 7629
Jews 7630
Gun 7631
ph 7632
treating 7633
Problems 7634
presented 7635
harm 7636
incident 7637
poverty 7638
nn 7639
Everytime 7640
#best@@ 7641
RN 7642
dam@@ 7643
1995 7644
Software 7645
SD 7646
ICE 7647
ining 7648
Vo@@ 7649
vis@@ 7650
releases 7651
#Mo@@ 7652
abortion 7653
:zzz: 7654
counts 7655
Rights 7656
Baltimore 7657
#Ma@@ 7658
Philadelphia 7659
Cloud 7660
pays 7661
Fer@@ 7662
#BB@@ 7663
SN@@ 7664
rank 7665
gaming 7666
screw 7667
Dev@@ 7668
Le 7669
cri@@ 7670
fallen 7671
shaking 7672
forth 7673
ath 7674
Jessica 7675
Gov 7676
s_@@ 7677
1994 7678
kes@@ 7679
cure 7680
junior 7681
ach 7682
forest 7683
thx 7684
Driving 7685
hundreds 7686
comin 7687
blessings 7688
playin 7689
Dan@@ 7690
Excellent 7691
Pra@@ 7692
pig 7693
CM 7694
pc 7695
voices 7696
:trade_mark: 7697
Close 7698
reveal 7699
worship 7700
Mar 7701
Pen@@ 7702
Luc@@ 7703
fame 7704
Ebay 7705
Anniversary 7706
MADE 7707
tops 7708
Ag@@ 7709
:wrapped_gift: 7710
WANNA 7711
knife 7712
od 7713
linked 7714
Alan 7715
Ear@@ 7716
failing 7717
specifically 7718
salt 7719
cookie 7720
Pur@@ 7721
ai@@ 7722
council 7723
slip 7724
Son@@ 7725
markets 7726
bottles 7727
2:@@ 7728
decides 7729
Christians 7730
Antonio 7731
Sand@@ 7732
140 7733
freezing 7734
Der@@ 7735
discover 7736
eeeee 7737
communication 7738
Hum 7739
Iowa 7740
shoutout 7741
lim@@ 7742
method 7743
habit 7744
Jan@@ 7745
Jerry 7746
Flash 7747
Sm@@ 7748
OKAY 7749
prior 7750
ray 7751
Eagles 7752
Por@@ 7753
Soccer 7754
menu 7755
Anti-@@ 7756
compete 7757
29.@@ 7758
michael 7759
SAID 7760
invest 7761
Rangers 7762
gap 7763
Election 7764
agreement 7765
lists 7766
Anybody 7767
Rio 7768
ico 7769
kinds 7770
Movies 7771
Content 7772
costume 7773
mal 7774
holes 7775
ANT 7776
ined 7777
minimum 7778
hmu 7779
uu 7780
pic@@ 7781
TRA@@ 7782
Av@@ 7783
an-@@ 7784
extended 7785
secrets 7786
vine 7787
pretending 7788
loses 7789
Brady 7790
Kentucky 7791
capacity 7792
Ass@@ 7793
mac@@ 7794
FU@@ 7795
Straight 7796
phrase 7797
BETTER 7798
yoga 7799
isa 7800
bes 7801
News@@ 7802
mah 7803
touching 7804
KE@@ 7805
MM 7806
niece 7807
retired 7808
surface 7809
auto 7810
Rev@@ 7811
smooth 7812
crib 7813
stri@@ 7814
Fitness 7815
bie 7816
CHA@@ 7817
pointless 7818
:exclamation_mark: 7819
Rachel 7820
Dem@@ 7821
Started 7822
impressive 7823
arts 7824
dramatic 7825
Speed 7826
fools 7827
58@@ 7828
Mens 7829
#Love@@ 7830
az@@ 7831
UG@@ 7832
eastern 7833
Avenue 7834
newest 7835
sel 7836
payment 7837
HQ 7838
#ch@@ 7839
DD@@ 7840
ranked 7841
Eyes 7842
ppin 7843
designer 7844
thou 7845
TOMORROW 7846
Wife 7847
engaged 7848
Industry 7849
rant 7850
Lead 7851
theatre 7852
Lovato 7853
IF@@ 7854
:new_moon_face: 7855
light@@ 7856
Heaven 7857
script 7858
FOR@@ 7859
Illinois 7860
vi 7861
Rise 7862
32@@ 7863
VER@@ 7864
ries 7865
Tree 7866
Cards 7867
filling 7868
mothers 7869
worker 7870
commit 7871
Tal@@ 7872
:| 7873
Wanted 7874
gy 7875
FULL 7876
lmaooo 7877
Rep@@ 7878
SW 7879
feelin 7880
Snapchat 7881
dah 7882
contacts 7883
Omega 7884
:pizza: 7885
Core 7886
Grace 7887
washing 7888
Storm 7889
custom 7890
Cable 7891
packing 7892
Shot 7893
500@@ 7894
politician 7895
SJ@@ 7896
ida 7897
⁦ 7898
Oscar 7899
essential 7900
previously 7901
Officer 7902
bits 7903
gon@@ 7904
dor@@ 7905
claiming 7906
SONG 7907
Anderson 7908
→ 7909
fied 7910
witness 7911
nominated 7912
Minecraft 7913
Secretary 7914
Port 7915
Record 7916
Enough 7917
imo 7918
Bru@@ 7919
corporate 7920
:hot_beverage: 7921
attending 7922
BUY 7923
bay 7924
ek@@ 7925
Fact 7926
graphic 7927
eli@@ 7928
Uber 7929
Bay@@ 7930
moral 7931
pets 7932
presidential 7933
san 7934
#Free@@ 7935
dom 7936
united 7937
returning 7938
ful@@ 7939
drank 7940
1990 7941
CK 7942
tar 7943
drake 7944
Ma 7945
rarely 7946
Freedom 7947
ala@@ 7948
replies 7949
liam 7950
Eating 7951
rite 7952
existing 7953
Att@@ 7954
:basketball: 7955
Giving 7956
Play@@ 7957
chillin 7958
unlike 7959
intelligent 7960
:zany_face: 7961
craving 7962
END 7963
get@@ 7964
pub 7965
boy@@ 7966
insult 7967
ld 7968
wallet 7969
foundation 7970
duck 7971
excuses 7972
dresses 7973
iting 7974
deeply 7975
doll 7976
compliment 7977
Gun@@ 7978
Whoever 7979
57@@ 7980
Estate 7981
comp@@ 7982
01:@@ 7983
fur@@ 7984
titles 7985
username 7986
signal 7987
Han@@ 7988
THAN 7989
10,000 7990
Edward 7991
hacked 7992
Bat@@ 7993
Home@@ 7994
odds 7995
Den@@ 7996
#Bo@@ 7997
YS 7998
exit 7999
entitled 8000
nar@@ 8001
somethin 8002
toys 8003
90s 8004
#ALDUB@@ 8005
mid-@@ 8006
Sel@@ 8007
wrestling 8008
4:@@ 8009
Leader 8010
Tur@@ 8011
ex-@@ 8012
chicks 8013
pit 8014
WHITE 8015
Bus 8016
Met 8017
ens@@ 8018
Hoping 8019
Phoenix 8020
hunting 8021
childish 8022
fears 8023
toxic 8024
3.5 8025
reads 8026
Chocolate 8027
Res@@ 8028
applied 8029
Lisa 8030
Stick 8031
Xmas 8032
treats 8033
dust 8034
Spears 8035
Theatre 8036
ement 8037
abs 8038
scheduled 8039
Feat 8040
biz 8041
#un@@ 8042
fishing 8043
danger 8044
bas@@ 8045
Forest 8046
bubble 8047
laundry 8048
HAHAHAHA 8049
Az@@ 8050
waves 8051
sucking 8052
Wireless 8053
ath@@ 8054
DONE 8055
drew 8056
remained 8057
Jonathan 8058
web@@ 8059
hottest 8060
Person 8061
Atlantic 8062
hur@@ 8063
TV@@ 8064
Quote 8065
chip 8066
boi 8067
expectations 8068
operation 8069
inger 8070
oooo 8071
amo 8072
tting 8073
Wire 8074
1992 8075
Oklahoma 8076
Ontario 8077
#1@@ 8078
twist 8079
Kenya 8080
proved 8081
ple@@ 8082
gt 8083
NEXT 8084
eness 8085
mad@@ 8086
MB 8087
gos 8088
Greece 8089
Russell 8090
SOMEONE 8091
upgrade 8092
pol@@ 8093
all-@@ 8094
Hunter 8095
Hong 8096
CU@@ 8097
rescue 8098
mac 8099
nearby 8100
bass 8101
combined 8102
ft@@ 8103
Latin 8104
urge 8105
201@@ 8106
graduated 8107
ignorance 8108
GE@@ 8109
Mayor 8110
sj@@ 8111
ancient 8112
flies 8113
dot 8114
THEIR 8115
sheet 8116
finale 8117
cr 8118
sector 8119
#KCA 8120
FR@@ 8121
ays 8122
rem@@ 8123
#Best@@ 8124
Hawaii 8125
hangout 8126
fac@@ 8127
Bear 8128
10/@@ 8129
elite 8130
lovers 8131
worrying 8132
Wine 8133
Commission 8134
creation 8135
Aye 8136
eman 8137
ele 8138
refused 8139
Thoughts 8140
Paper 8141
Performance 8142
OU@@ 8143
cas@@ 8144
watches 8145
blew 8146
Jamie 8147
wolf 8148
Picture 8149
survey 8150
cultural 8151
awarded 8152
Govt 8153
ture 8154
announcement 8155
numerous 8156
⃣ 8157
recipe 8158
solutions 8159
Dem 8160
hea@@ 8161
Ken@@ 8162
Cream 8163
see@@ 8164
MIN@@ 8165
messing 8166
tribute 8167
Generation 8168
post-@@ 8169
#Im@@ 8170
cheers 8171
16th 8172
Rt 8173
rides 8174
Seen 8175
Amen 8176
eal 8177
yyyy 8178
SEO 8179
miserable 8180
Concert 8181
HUGE 8182
bones 8183
importance 8184
hung 8185
Sky@@ 8186
Yahoo 8187
dic@@ 8188
DIE 8189
requires 8190
chemistry 8191
hn 8192
kindness 8193
shops 8194
#We@@ 8195
strikes 8196
Minnesota 8197
Kardashian 8198
producer 8199
Murray 8200
nun 8201
uniform 8202
Campaign 8203
WERE 8204
pas@@ 8205
exhausted 8206
lifestyle 8207
xoxo 8208
Pandora 8209
#e@@ 8210
POTUS 8211
mann 8212
Fantastic 8213
ome@@ 8214
was@@ 8215
pla@@ 8216
Teacher 8217
blanket 8218
:white_medium_star: 8219
Lam@@ 8220
files 8221
Sab@@ 8222
piano 8223
Jam@@ 8224
bun@@ 8225
enti@@ 8226
organized 8227
Cyrus 8228
attacking 8229
fifth 8230
glory 8231
#Co@@ 8232
That@@ 8233
Senator 8234
weapon 8235
❁ 8236
registered 8237
⁩ 8238
Choice 8239
ene@@ 8240
corn 8241
wears 8242
HOME 8243
appeal 8244
Results 8245
clips 8246
Mus@@ 8247
interviews 8248
routine 8249
emo@@ 8250
ref 8251
5:@@ 8252
sneak 8253
Entertainment 8254
ball@@ 8255
WORK 8256
70@@ 8257
ast@@ 8258
Animal 8259
vel@@ 8260
ook 8261
sucked 8262
Legend 8263
ony 8264
blocks 8265
dirt 8266
domestic 8267
decade 8268
informed 8269
Driver 8270
90@@ 8271
thang 8272
Smile 8273
educated 8274
hm 8275
Columbia 8276
Annual 8277
ial 8278
/: 8279
referred 8280
Grow 8281
14.@@ 8282
Israeli 8283
partners 8284
cow 8285
arent 8286
gn@@ 8287
embarrassed 8288
rub 8289
GP 8290
remix 8291
Roy 8292
illness 8293
Larry 8294
eva 8295
disrespectful 8296
12th 8297
15th 8298
upper 8299
comm@@ 8300
Personal 8301
delayed 8302
#Get@@ 8303
BT@@ 8304
Heard 8305
WELL 8306
Dinner 8307
cheated 8308
ump@@ 8309
flights 8310
1993 8311
SON 8312
Blues 8313
valid 8314
art@@ 8315
devices 8316
Everyday 8317
foods 8318
ml 8319
sweetest 8320
NBC 8321
！ 8322
Location 8323
nowadays 8324
LONG 8325
traveling 8326
Memorial 8327
í@@ 8328
ette 8329
au 8330
Ten 8331
playoff 8332
pin@@ 8333
confusing 8334
rly 8335
11th 8336
˘ 8337
bucket 8338
Assembly 8339
700 8340
styles 8341
theater 8342
Loss 8343
Str@@ 8344
prince 8345
Best@@ 8346
sits 8347
:yin_yang: 8348
understands 8349
petition 8350
Calling 8351
studied 8352
Ren@@ 8353
household 8354
Mail 8355
Um 8356
fields 8357
NHL 8358
Jay@@ 8359
SHOULD 8360
Tro@@ 8361
umm 8362
ula 8363
Screen 8364
Indians 8365
Uh 8366
stretch 8367
micro@@ 8368
Goes 8369
RA 8370
blocking 8371
Block 8372
chers 8373
aim 8374
Op@@ 8375
participate 8376
hatred 8377
PAR@@ 8378
measure 8379
le-@@ 8380
sweetie 8381
Warning 8382
shade 8383
run@@ 8384
speaker 8385
Sla@@ 8386
bul@@ 8387
sorted 8388
THESE 8389
contains 8390
ial@@ 8391
1989 8392
PLAY 8393
Faith 8394
Sweden 8395
retirement 8396
Far 8397
Necklace 8398
begging 8399
Reasons 8400
arse 8401
#good@@ 8402
highlight 8403
peeps 8404
CB@@ 8405
sand 8406
highlights 8407
counter 8408
ا@@ 8409
loyalty 8410
SL 8411
pilot 8412
priority 8413
newspaper 8414
Green@@ 8415
cared 8416
GTA 8417
faithful 8418
Pass 8419
5/@@ 8420
peaceful 8421
hav 8422
ure@@ 8423
mur@@ 8424
Constitution 8425
some@@ 8426
journalist 8427
ratchet 8428
:person_raising_hand: 8429
designs 8430
hack 8431
ron@@ 8432
mar 8433
banana 8434
DU@@ 8435
MON@@ 8436
Takes 8437
fra@@ 8438
op 8439
Emily 8440
Likes 8441
Awww 8442
urs 8443
CI@@ 8444
Anyway 8445
react 8446
12-@@ 8447
permanent 8448
oms 8449
Hero 8450
guarantee 8451
timing 8452
roo@@ 8453
congratulations 8454
Shipping 8455
Product 8456
tier 8457
:musical_note: 8458
ahhh 8459
mixtape 8460
TION 8461
JA@@ 8462
Fri@@ 8463
pho@@ 8464
59@@ 8465
rr@@ 8466
17th 8467
believing 8468
Hills 8469
book@@ 8470
worn 8471
res@@ 8472
#Be@@ 8473
excitement 8474
Self 8475
performances 8476
GG@@ 8477
limits 8478
Website 8479
Jazz 8480
Btw 8481
regional 8482
ceremony 8483
cruise 8484
atm 8485
leg@@ 8486
var@@ 8487
boom 8488
EM 8489
8/ 8490
executive 8491
iner 8492
Common 8493
:sign_of_the_horns: 8494
mes 8495
med@@ 8496
interests 8497
Bot 8498
maintain 8499
every@@ 8500
Steven 8501
coaches 8502
Based 8503
Duty 8504
MP@@ 8505
Tennessee 8506
Messi 8507
Meeting 8508
bing 8509
technical 8510
propaganda 8511
cher@@ 8512
Knight 8513
defensive 8514
Creek 8515
Opening 8516
ree@@ 8517
trends 8518
sings 8519
1991 8520
kid@@ 8521
Weird 8522
DD 8523
Hop 8524
12/@@ 8525
TER@@ 8526
boxing 8527
Kitchen 8528
wit@@ 8529
atory 8530
Gor@@ 8531
heal 8532
ably 8533
wards 8534
lif@@ 8535
Insurance 8536
DREAM 8537
purchased 8538
messy 8539
Orleans 8540
GMT 8541
Med@@ 8542
Warren 8543
proposed 8544
3/@@ 8545
notifications 8546
#Th@@ 8547
cs 8548
achievement 8549
spo@@ 8550
dressing 8551
pers 8552
Restaurant 8553
pattern 8554
row@@ 8555
iz 8556
Aint 8557
CK@@ 8558
Portland 8559
washed 8560
differently 8561
DOES 8562
ILL 8563
dro@@ 8564
Sept 8565
:clinking_beer_mugs: 8566
Whats 8567
CHECK 8568
Ky@@ 8569
CBS 8570
assistance 8571
forgetting 8572
instantly 8573
ideal 8574
Shopping 8575
asian 8576
immigrants 8577
Tip 8578
bu 8579
Ann 8580
Shar@@ 8581
dye 8582
LP 8583
ttt 8584
1/4 8585
i-@@ 8586
preview 8587
branch 8588
slave 8589
#bu@@ 8590
4/@@ 8591
Purple 8592
YEAH 8593
darling 8594
Yu@@ 8595
disrespect 8596
jet 8597
DNA 8598
Third 8599
Jacob 8600
boards 8601
authority 8602
Top@@ 8603
bond 8604
Graham 8605
Beer 8606
Kat@@ 8607
toast 8608
replacement 8609
pay@@ 8610
Thrones 8611
fer 8612
#So@@ 8613
love@@ 8614
Philly 8615
neighbor 8616
programme 8617
Ronaldo 8618
command 8619
:sneezing_face: 8620
Writing 8621
bare 8622
closest 8623
MISS 8624
rie 8625
Bobby 8626
Tam@@ 8627
rugby 8628
historic 8629
aries 8630
injuries 8631
Tiger 8632
IE 8633
ix 8634
jesus 8635
grand@@ 8636
gal@@ 8637
form@@ 8638
yell 8639
Focus 8640
6:@@ 8641
:high_voltage: 8642
tin@@ 8643
Zone 8644
76@@ 8645
Ok@@ 8646
ero@@ 8647
09:@@ 8648
wl 8649
Con 8650
sty 8651
leather 8652
Tower 8653
kindly 8654
ssss 8655
ame 8656
tradition 8657
Malaysia 8658
ams 8659
noon 8660
assignment 8661
american 8662
ane@@ 8663
ester 8664
Covid 8665
Jun@@ 8666
SALE 8667
fighter 8668
AMO 8669
fever 8670
acy 8671
thinkin 8672
roommate 8673
dated 8674
SCHOOL 8675
Count 8676
jay 8677
woods 8678
AW@@ 8679
applications 8680
olds 8681
13.@@ 8682
Mum 8683
​ 8684
Source 8685
wil@@ 8686
stu@@ 8687
sty@@ 8688
retweeted 8689
HAR@@ 8690
ean 8691
tte 8692
Pol@@ 8693
water@@ 8694
Biggest 8695
coins 8696
checks 8697
One@@ 8698
historical 8699
woo 8700
awa 8701
night@@ 8702
spec@@ 8703
courses 8704
dea@@ 8705
KEEP 8706
editing 8707
Wood@@ 8708
ited 8709
Products 8710
cut@@ 8711
athletes 8712
Information 8713
MV 8714
ello 8715
committee 8716
approved 8717
trained 8718
Not@@ 8719
ett 8720
78@@ 8721
meh 8722
Private 8723
Chuck 8724
FINALLY 8725
achieved 8726
#Lo@@ 8727
S-@@ 8728
Blake 8729
08:@@ 8730
Francis 8731
Nash 8732
CRYING 8733
Dreams 8734
high-@@ 8735
Fun@@ 8736
horses 8737
writes 8738
channels 8739
Premium 8740
pulls 8741
18.@@ 8742
grant 8743
30.@@ 8744
JO@@ 8745
tb@@ 8746
lool 8747
armed 8748
Safety 8749
Standard 8750
Ahh 8751
fi 8752
homies 8753
AV@@ 8754
#ha@@ 8755
detail 8756
350 8757
Pride 8758
gir@@ 8759
bros 8760
iling 8761
inspire 8762
hv 8763
encourage 8764
PRE@@ 8765
tran@@ 8766
HEART 8767
ont 8768
110 8769
dms 8770
frozen 8771
eet 8772
improved 8773
Pun@@ 8774
seed 8775
ide@@ 8776
MLB 8777
vids 8778
Trans@@ 8779
dr 8780
fw 8781
medal 8782
eed@@ 8783
:airplane: 8784
realizing 8785
beans 8786
UFC 8787
Shirt 8788
ought 8789
inn 8790
Zero 8791
Mol@@ 8792
naturally 8793
vent 8794
versions 8795
Beyond 8796
eless 8797
ps@@ 8798
Roger 8799
cells 8800
Re 8801
Healthy 8802
retarded 8803
cooked 8804
7pm 8805
mol@@ 8806
Needs 8807
driven 8808
Message 8809
insta 8810
Hannah 8811
format 8812
bert 8813
ste 8814
persons 8815
drawn 8816
Tea@@ 8817
reward 8818
Gomez 8819
Mul@@ 8820
14th 8821
ria 8822
trips 8823
stressful 8824
Anne 8825
alike 8826
19.@@ 8827
shortly 8828
Mo 8829
home@@ 8830
salty 8831
:dog_face: 8832
hosted 8833
Whole 8834
serves 8835
belief 8836
judging 8837
gram 8838
Laura 8839
bli@@ 8840
cheek 8841
moron 8842
factory 8843
age@@ 8844
07:@@ 8845
sheets 8846
10.@@ 8847
alism 8848
zo@@ 8849
#to@@ 8850
ito 8851
vol@@ 8852
anne 8853
TS@@ 8854
settled 8855
Songs 8856
#it@@ 8857
#tech 8858
Nature 8859
UTC 8860
Dogs 8861
lean 8862
dol@@ 8863
Om@@ 8864
Ron 8865
CALL 8866
Rem@@ 8867
nudes 8868
Table 8869
75@@ 8870
employee 8871
whip 8872
lik@@ 8873
ache 8874
hard@@ 8875
tea@@ 8876
du 8877
potato 8878
Nelson 8879
#10@@ 8880
somewhat 8881
Laptop 8882
Ur@@ 8883
Hood 8884
perfection 8885
photography 8886
Brandon 8887
06:@@ 8888
Melbourne 8889
:black_heart: 8890
lolol 8891
Pennsylvania 8892
p-@@ 8893
spit 8894
Tokyo 8895
Bang 8896
VR 8897
Tak@@ 8898
THATS 8899
Lar@@ 8900
Rom@@ 8901
thes@@ 8902
advertising 8903
Rules 8904
loaded 8905
8p 8906
44@@ 8907
Spotify 8908
promoting 8909
DM@@ 8910
Arthur 8911
foo@@ 8912
gum 8913
ppers 8914
Wisconsin 8915
Wave 8916
relaxing 8917
friend@@ 8918
kings 8919
Monster 8920
pressed 8921
troll 8922
grocery 8923
VP 8924
Dubai 8925
tagged 8926
#al@@ 8927
frm 8928
adore 8929
permission 8930
Cook 8931
Castle 8932
combat 8933
Loc@@ 8934
Truck 8935
advanced 8936
Madison 8937
Gas 8938
thr@@ 8939
Fear 8940
BBQ 8941
murdered 8942
80s 8943
Plz 8944
category 8945
PH 8946
refer 8947
Stage 8948
destination 8949
suggestions 8950
Mun@@ 8951
darkness 8952
tan@@ 8953
hil@@ 8954
Ve@@ 8955
#Good@@ 8956
backwards 8957
lev@@ 8958
bouta 8959
kissed 8960
pisses 8961
2/@@ 8962
coaching 8963
shadow 8964
cereal 8965
Piece 8966
remote 8967
:sun_with_face: 8968
Lane 8969
exc@@ 8970
HOPE 8971
jin 8972
BEAUTIFUL 8973
#You@@ 8974
Seconds 8975
who@@ 8976
snake 8977
blu@@ 8978
Village 8979
Alexander 8980
pole 8981
soundtrack 8982
wel@@ 8983
Videos 8984
languages 8985
amid 8986
BOY 8987
pound 8988
High@@ 8989
oldest 8990
Yu 8991
Fit 8992
Pain 8993
05:@@ 8994
KO 8995
PP 8996
-to-@@ 8997
#fuck@@ 8998
NW 8999
SD@@ 9000
Shawn 9001
Came 9002
makin 9003
plug 9004
sober 9005
Id 9006
sink 9007
Problem 9008
ing-@@ 9009
G-@@ 9010
Mall 9011
ort@@ 9012
cheaper 9013
cre@@ 9014
2/2 9015
TRUMP 9016
gif 9017
wrapped 9018
two-@@ 9019
terror 9020
Rep 9021
ins@@ 9022
conflict 9023
#u@@ 9024
combination 9025
ency 9026
Beyoncé 9027
nominee 9028
MU@@ 9029
steel 9030
Politics 9031
Adams 9032
Newcastle 9033
painted 9034
bir@@ 9035
laughter 9036
expression 9037
ums 9038
bru@@ 9039
Leeds 9040
Metro 9041
sessions 9042
coke 9043
sman 9044
South@@ 9045
hah 9046
12.@@ 9047
Fri 9048
300@@ 9049
66@@ 9050
7:30 9051
magical 9052
Rome 9053
mp 9054
grave 9055
calendar 9056
Professor 9057
girl@@ 9058
venue 9059
Ari@@ 9060
Sox 9061
badass 9062
preparing 9063
addiction 9064
curse 9065
Rea@@ 9066
muscle 9067
Breakfast 9068
Pop@@ 9069
ust@@ 9070
Buhari 9071
DY 9072
Down@@ 9073
dale 9074
spanish 9075
Gre@@ 9076
valuable 9077
tastes 9078
Stewart 9079
adds 9080
Sor@@ 9081
Saints 9082
1984 9083
Hands 9084
labor 9085
Tory 9086
mul@@ 9087
worlds 9088
RETWEET 9089
Puerto 9090
pon@@ 9091
:speaking_head: 9092
wi 9093
booth 9094
¿ 9095
Patriots 9096
gged 9097
pop@@ 9098
ank 9099
developing 9100
Saying 9101
ari@@ 9102
temporary 9103
blo@@ 9104
dle 9105
Keith 9106
Wants 9107
terrorists 9108
ND 9109
dish 9110
Kind 9111
Birmingham 9112
sli@@ 9113
boot 9114
EE 9115
memes 9116
#Black@@ 9117
irl 9118
Sat@@ 9119
dip 9120
poetry 9121
ae 9122
fil@@ 9123
Temple 9124
retail 9125
04:@@ 9126
#1D@@ 9127
gor@@ 9128
Wed 9129
ades 9130
Ex 9131
rocking 9132
KD 9133
Sil@@ 9134
Mass 9135
Lin@@ 9136
Account 9137
D-@@ 9138
regularly 9139
Bun@@ 9140
FEEL 9141
bump 9142
this@@ 9143
une 9144
Schools 9145
rrr 9146
Vol@@ 9147
bio@@ 9148
adopted 9149
lighting 9150
Native 9151
lecture 9152
#VMA 9153
AFTER 9154
thing@@ 9155
-F@@ 9156
humidity 9157
storage 9158
Custom 9159
Finna 9160
Tha@@ 9161
tors 9162
Happiness 9163
meetings 9164
Beats 9165
lineup 9166
pes 9167
dragon 9168
body@@ 9169
conspiracy 9170
eal@@ 9171
san@@ 9172
:microphone: 9173
goods 9174
Pray 9175
string 9176
answering 9177
Analysis 9178
MS@@ 9179
physics 9180
Pet 9181
11.@@ 9182
C-@@ 9183
:ghost: 9184
steak 9185
represented 9186
MVP 9187
diff 9188
aaaa 9189
commitment 9190
Sum@@ 9191
Pittsburgh 9192
#you@@ 9193
polls 9194
scandal 9195
Hear 9196
Falls 9197
Neil 9198
haircut 9199
AND@@ 9200
tch 9201
mystery 9202
Em 9203
Tryna 9204
mill 9205
wage 9206
Hits 9207
Chance 9208
fires 9209
cont@@ 9210
berry 9211
Chill 9212
assholes 9213
rolled 9214
misses 9215
Just@@ 9216
NCAA 9217
tower 9218
trans@@ 9219
Evil 9220
Tru@@ 9221
kkk 9222
Cru@@ 9223
footage 9224
iles 9225
recall 9226
fal@@ 9227
volleyball 9228
WO@@ 9229
Draft 9230
Fl@@ 9231
Kha@@ 9232
#li@@ 9233
▸ 9234
urban 9235
commercials 9236
tam@@ 9237
define 9238
TC 9239
stable 9240
RC 9241
best@@ 9242
Gordon 9243
trail 9244
365 9245
satisfied 9246
what@@ 9247
ALS 9248
ium 9249
landed 9250
Finding 9251
citizen 9252
guests 9253
Bol@@ 9254
ash@@ 9255
Hours 9256
Summit 9257
3.0 9258
:money_with_wings: 9259
TRUE 9260
REA@@ 9261
possibility 9262
1975 9263
Bird 9264
spotted 9265
ven 9266
Berlin 9267
ute 9268
virgin 9269
#business 9270
champions 9271
criticism 9272
ö@@ 9273
bil@@ 9274
membership 9275
hired 9276
solar 9277
captured 9278
foul 9279
bastard 9280
Ukraine 9281
classy 9282
1980 9283
Moving 9284
backed 9285
Cl@@ 9286
nations 9287
iled 9288
LORD 9289
editor 9290
iest 9291
madness 9292
PARTY 9293
MONEY 9294
cel@@ 9295
parade 9296
spelling 9297
museum 9298
:index_pointing_up: 9299
Fly 9300
declared 9301
mercy 9302
afterwards 9303
Obviously 9304
Dublin 9305
Lights 9306
controlled 9307
Vancouver 9308
naman 9309
jun@@ 9310
spray 9311
Ride 9312
frustrating 9313
aff@@ 9314
consequences 9315
sweater 9316
eachother 9317
borrow 9318
pissing 9319
comfy 9320
forehead 9321
gov 9322
Ker@@ 9323
ards 9324
#Ro@@ 9325
hers 9326
dat@@ 9327
correctly 9328
cinema 9329
assistant 9330
FS 9331
ANYTHING 9332
spider 9333
kis@@ 9334
severe 9335
Tbh 9336
1.0 9337
annoy 9338
filming 9339
din@@ 9340
Questions 9341
Smartphone 9342
bullying 9343
proves 9344
#Car@@ 9345
narrative 9346
Ho 9347
america 9348
Universal 9349
CAN@@ 9350
Meanwhile 9351
Defense 9352
Heavy 9353
time@@ 9354
ool 9355
ison 9356
invented 9357
CB 9358
choosing 9359
explanation 9360
castle 9361
mus@@ 9362
facial 9363
#tcot 9364
Edge 9365
measures 9366
NS 9367
nick 9368
Nazi 9369
sie 9370
shoulders 9371
PERFECT 9372
motivated 9373
Cowboys 9374
Brazilian 9375
burnt 9376
highway 9377
eu 9378
Door 9379
USE 9380
consists 9381
Site 9382
Prize 9383
gods 9384
ia@@ 9385
Brain 9386
:four_leaf_clover: 9387
assuming 9388
Ad 9389
tak 9390
umb@@ 9391
fees 9392
launches 9393
COMING 9394
Finance 9395
Popular 9396
Clark 9397
:dashing_away: 9398
Corporation 9399
･ 9400
concerts 9401
Weekly 9402
surrounded 9403
Whit@@ 9404
#fb 9405
Water@@ 9406
INS 9407
PU@@ 9408
fro@@ 9409
recognized 9410
hair@@ 9411
mie 9412
heroes 9413
120@@ 9414
trans 9415
ly-@@ 9416
clever 9417
Tommy 9418
SH 9419
GI@@ 9420
25th 9421
sss 9422
zy@@ 9423
cul@@ 9424
Respect 9425
roles 9426
Value 9427
Grab 9428
Kam@@ 9429
announces 9430
itch 9431
ili@@ 9432
privilege 9433
strangers 9434
Maryland 9435
transport 9436
Albert 9437
16.@@ 9438
ille 9439
shave 9440
01@@ 9441
kpop 9442
Bryan 9443
vice 9444
Climate 9445
Idc 9446
kn 9447
Brilliant 9448
hint 9449
ann 9450
good@@ 9451
Extra 9452
description 9453
:tongue: 9454
nat@@ 9455
Honey 9456
ina@@ 9457
98@@ 9458
Systems 9459
aj@@ 9460
ences 9461
dh@@ 9462
networks 9463
Pete 9464
Wolf 9465
OP@@ 9466
sacrifice 9467
Fe@@ 9468
IST 9469
03:@@ 9470
reform 9471
Pictures 9472
AZ 9473
ooooo 9474
js 9475
#Un@@ 9476
tom 9477
bully 9478
Mission 9479
Terry 9480
FACE 9481
Greg 9482
NZ 9483
equ@@ 9484
goo@@ 9485
Switch 9486
Solid 9487
rit@@ 9488
Dirty 9489
aswell 9490
Ala@@ 9491
stocks 9492
1-0 9493
blows 9494
World@@ 9495
racial 9496
7:@@ 9497
Lose 9498
SB@@ 9499
Sister 9500
Rare 9501
filter 9502
TN 9503
capture 9504
BEFORE 9505
shell 9506
scheme 9507
Mill 9508
reduced 9509
attempts 9510
ado 9511
latter 9512
All-@@ 9513
JOB 9514
governor 9515
eline 9516
lish 9517
freakin 9518
lows 9519
Franklin 9520
uni@@ 9521
introduce 9522
cartoon 9523
Turkish 9524
cheeks 9525
bible 9526
fuc@@ 9527
Pearl 9528
Sem@@ 9529
ks@@ 9530
1988 9531
shite 9532
#just@@ 9533
9/@@ 9534
Reality 9535
Ka 9536
THANKS 9537
HOUSE 9538
Cars 9539
bel 9540
Porn 9541
Cri@@ 9542
Band@@ 9543
NG 9544
itation 9545
cruel 9546
academic 9547
FRIEND 9548
Soft 9549
Kay 9550
PL 9551
engineering 9552
Vietnam 9553
Hai 9554
locker 9555
gas@@ 9556
RU@@ 9557
#MAGA 9558
cli@@ 9559
Free@@ 9560
Mean 9561
Styles 9562
Flight 9563
Independent 9564
Hun@@ 9565
ó@@ 9566
gers 9567
Talks 9568
#US@@ 9569
increasing 9570
Joy 9571
discussing 9572
nerve 9573
Polish 9574
rr 9575
Katie 9576
marked 9577
defence 9578
scratch 9579
monkey 9580
che 9581
fucker 9582
depending 9583
✿ 9584
Leo 9585
HU@@ 9586
outcome 9587
65@@ 9588
Cape 9589
Liberal 9590
Planning 9591
resolution 9592
divided 9593
:gem_stone: 9594
7/@@ 9595
pumped 9596
ich@@ 9597
raped 9598
6/@@ 9599
soap 9600
cent 9601
Offers 9602
printed 9603
tly 9604
school@@ 9605
Ali@@ 9606
daughters 9607
suggested 9608
india 9609
survived 9610
Fil@@ 9611
Palace 9612
Farm 9613
Soo 9614
NASA 9615
Chase 9616
Sooo 9617
Access 9618
Lo 9619
protected 9620
OL 9621
ame@@ 9622
belongs 9623
DR 9624
Ghost 9625
sses 9626
THE@@ 9627
6:30 9628
COULD 9629
Hip 9630
PD 9631
recognition 9632
contain 9633
defined 9634
AB 9635
ome 9636
wo 9637
ley@@ 9638
itt 9639
vehicles 9640
mmm 9641
AY 9642
supplies 9643
coin 9644
kik 9645
fox 9646
:american_football: 9647
sized 9648
SMH 9649
py 9650
ment@@ 9651
unreal 9652
accomplished 9653
02:@@ 9654
newly 9655
EST@@ 9656
ills 9657
Biden 9658
sp 9659
:white_heavy_check_mark: 9660
pills 9661
terrorism 9662
behalf 9663
Kendrick 9664
beta 9665
20.@@ 9666
zzy 9667
DIY 9668
woulda 9669
Arabia 9670
Craig 9671
Jam 9672
rep 9673
COR@@ 9674
scar@@ 9675
legacy 9676
-based 9677
typing 9678
ian@@ 9679
Real@@ 9680
NT 9681
supporter 9682
to-@@ 9683
comics 9684
#An@@ 9685
Ir@@ 9686
LISTEN 9687
Soviet 9688
Fest 9689
replying 9690
LG 9691
conclusion 9692
Gol@@ 9693
Pad@@ 9694
spoiled 9695
Utah 9696
Nurse 9697
Nat@@ 9698
Mention 9699
GH@@ 9700
ripped 9701
urself 9702
Pin@@ 9703
abo@@ 9704
tackle 9705
#vote5sos 9706
nee@@ 9707
coolest 9708
:birthday_cake: 9709
Yourself 9710
diamond 9711
Diet 9712
rely 9713
Lunch 9714
ires 9715
poem 9716
smith 9717
Bc 9718
Revolution 9719
EY 9720
ı@@ 9721
DOING 9722
par 9723
real@@ 9724
Retro 9725
ju 9726
ship@@ 9727
Exit 9728
Tried 9729
HOLY 9730
ood@@ 9731
Cali 9732
feeding 9733
mutual 9734
spree 9735
speakers 9736
X-@@ 9737
Net 9738
16GB 9739
Hea@@ 9740
aga 9741
miracle 9742
successfully 9743
sharp 9744
sweetheart 9745
badge 9746
YEARS 9747
eling 9748
ghetto 9749
Night@@ 9750
endless 9751
booking 9752
entering 9753
rlly 9754
suffered 9755
vin@@ 9756
competitive 9757
operating 9758
Nicole 9759
approval 9760
hunger 9761
smack 9762
iro 9763
Rico 9764
fm 9765
Reason 9766
Launch 9767
Lawrence 9768
sounded 9769
ankle 9770
Seven 9771
Cell 9772
tted 9773
Guardian 9774
accepting 9775
tmrw 9776
Vis@@ 9777
initial 9778
Luck 9779
EA 9780
sky@@ 9781
stroke 9782
duh 9783
fireworks 9784
Oxford 9785
romance 9786
gin 9787
angle 9788
gallery 9789
Taco 9790
spy 9791
#car@@ 9792
UL@@ 9793
twenty 9794
JUSTIN 9795
monthly 9796
burst 9797
GT 9798
coo@@ 9799
cru@@ 9800
tale 9801
Urban 9802
repair 9803
Gucci 9804
Kor@@ 9805
Ah@@ 9806
cro@@ 9807
Ev@@ 9808
Arab 9809
MOST 9810
oral 9811
BEING 9812
engagement 9813
singles 9814
Rice 9815
NHS 9816
Cab@@ 9817
keyboard 9818
trophy 9819
xbox 9820
roots 9821
Parker 9822
:nail_polish: 9823
deeper 9824
:right_arrow: 9825
Swear 9826
Wel@@ 9827
Return 9828
greatly 9829
1987 9830
EP@@ 9831
ops 9832
Gear 9833
Hunt 9834
crossing 9835
OLD 9836
@gmail.com 9837
lar 9838
bia 9839
garage 9840
RP 9841
30th 9842
IR 9843
photo@@ 9844
stones 9845
consistent 9846
TU@@ 9847
:person_gesturing_OK: 9848
bieber 9849
protein 9850
ple 9851
caps 9852
hats 9853
م@@ 9854
loop 9855
spoil 9856
Barry 9857
Ep 9858
face@@ 9859
dic 9860
streak 9861
Babe 9862
disappear 9863
Route 9864
bugs 9865
mornings 9866
Syrian 9867
PROUD 9868
Manila 9869
B-@@ 9870
copies 9871
explained 9872
× 9873
loans 9874
King@@ 9875
15.@@ 9876
Tan@@ 9877
Factory 9878
Stra@@ 9879
mee 9880
thug 9881
Moment 9882
dishes 9883
vagina 9884
Fed 9885
Medium 9886
unfair 9887
alized 9888
cou@@ 9889
say@@ 9890
grad 9891
Staff 9892
Bab@@ 9893
Hitler 9894
secretly 9895
OK@@ 9896
Member 9897
Get@@ 9898
Grant 9899
Lyrics 9900
Universe 9901
Different 9902
ures 9903
frustrated 9904
elements 9905
BT 9906
Kennedy 9907
crown 9908
thursday 9909
virtual 9910
:open_hands: 9911
rejected 9912
vic@@ 9913
spiritual 9914
Players 9915
deadline 9916
liberals 9917
6pm 9918
Amber 9919
#love 9920
admitted 9921
luxury 9922
LITERALLY 9923
prof@@ 9924
qualified 9925
nes 9926
Agreed 9927
Nar@@ 9928
Power@@ 9929
noted 9930
Cotton 9931
forcing 9932
scam 9933
symptoms 9934
threats 9935
eth@@ 9936
lem@@ 9937
kitty 9938
Buffalo 9939
kat@@ 9940
witch 9941
ouse 9942
eta 9943
Comm@@ 9944
ante 9945
wherever 9946
Utd 9947
Womens 9948
turkey 9949
Foreign 9950
happily 9951
DL@@ 9952
submit 9953
hoodie 9954
irs 9955
Are@@ 9956
sil@@ 9957
Ton@@ 9958
won@@ 9959
Contest 9960
obsession 9961
torture 9962
YALL 9963
Selling 9964
pad 9965
1986 9966
yg 9967
reputation 9968
tun@@ 9969
Web@@ 9970
opposed 9971
workshop 9972
Harvey 9973
agents 9974
ooh 9975
promoted 9976
sab@@ 9977
determine 9978
oon 9979
KK@@ 9980
Lion 9981
grammar 9982
Anti@@ 9983
HC 9984
11-@@ 9985
medium 9986
surrounding 9987
bn 9988
ign@@ 9989
wreck 9990
explore 9991
pur 9992
Alone 9993
struck 9994
fade 9995
cafe 9996
stic 9997
attracted 9998
emotion 9999
thanksgiving 10000
FRIENDS 10001
jazz 10002
ANG 10003
Whether 10004
ius 10005
install 10006
#sp@@ 10007
jerk 10008
Dollar 10009
Montana 10010
kar 10011
Cannot 10012
WI 10013
ling@@ 10014
KED 10015
Joey 10016
titled 10017
inning 10018
emo 10019
FI@@ 10020
lou@@ 10021
nn@@ 10022
Creative 10023
Sri 10024
pot@@ 10025
pile 10026
Labor 10027
ary@@ 10028
disgrace 10029
Bracelet 10030
bt@@ 10031
Bis@@ 10032
cries 10033
Chain 10034
Nashville 10035
karma 10036
BTW 10037
AWESOME 10038
:police_car_light: 10039
charts 10040
uma 10041
minded 10042
hhhhh 10043
Planet 10044
well-@@ 10045
Preview 10046
ately 10047
robot 10048
province 10049
healing 10050
pour 10051
ي@@ 10052
Cooper 10053
Pure 10054
Fish 10055
Culture 10056
#happy@@ 10057
smo@@ 10058
Lagos 10059
males 10060
5,@@ 10061
forecast 10062
aggressive 10063
restaurants 10064
awe 10065
Portugal 10066
:bouquet: 10067
savings 10068
depth 10069
Info 10070
lowest 10071
BOYS 10072
#on@@ 10073
Brad 10074
Agency 10075
onic 10076
revenge 10077
bears 10078
Solar 10079
EXCITED 10080
Di 10081
GG 10082
:people_with_bunny_ears: 10083
van@@ 10084
Winner 10085
tee 10086
mane 10087
DI 10088
1985 10089
yourselves 10090
Angels 10091
Toy 10092
breast 10093
mun@@ 10094
Crew 10095
tix 10096
Collins 10097
pump 10098
Woo@@ 10099
pra@@ 10100
Male 10101
BLUE 10102
shore 10103
mag 10104
scientific 10105
premiere 10106
grows 10107
2k 10108
bein 10109
thin@@ 10110
Blessed 10111
ANA 10112
Forecast 10113
FC@@ 10114
stand@@ 10115
blaming 10116
STA@@ 10117
zes 10118
79@@ 10119
Lions 10120
dal@@ 10121
yu@@ 10122
honesty 10123
farmers 10124
Ci@@ 10125
charging 10126
theirs 10127
buried 10128
aku 10129
cups 10130
peanut 10131
Bears 10132
sions 10133
#Trump 10134
tn 10135
classroom 10136
popped 10137
shades 10138
Pay@@ 10139
ANS 10140
Racing 10141
denied 10142
ow@@ 10143
Nations 10144
rating 10145
thee 10146
unnecessary 10147
grandpa 10148
Greatest 10149
triple 10150
#Big@@ 10151
bean 10152
HY@@ 10153
facilities 10154
:15 10155
shocking 10156
finance 10157
WR 10158
Gain 10159
carpet 10160
authorities 10161
Ultra 10162
HO 10163
high@@ 10164
VE@@ 10165
rd 10166
North@@ 10167
Eddie 10168
practices 10169
stressing 10170
Goo@@ 10171
judges 10172
Title 10173
comparison 10174
sack 10175
underwear 10176
Grand@@ 10177
bold 10178
Singh 10179
Sep 10180
BTC 10181
pea@@ 10182
skirt 10183
ead 10184
raises 10185
Dep@@ 10186
households 10187
Finals 10188
Direct 10189
temple 10190
TRI@@ 10191
#NFL 10192
Article 10193
Practice 10194
FOX 10195
ood 10196
shaped 10197
locations 10198
relations 10199
sat@@ 10200
ohhh 10201
Casino 10202
brains 10203
resist 10204
AG 10205
Answer 10206
Cre@@ 10207
Goodbye 10208
ITE 10209
pointing 10210
sue 10211
ATL 10212
forreal 10213
tables 10214
Emergency 10215
MY@@ 10216
Gam@@ 10217
CD@@ 10218
dom@@ 10219
Alice 10220
Wor@@ 10221
climb 10222
bble 10223
extension 10224
poop 10225
meals 10226
Evans 10227
· 10228
ves@@ 10229
STAR 10230
tuesday 10231
Hockey 10232
abroad 10233
founder 10234
mutuals 10235
Base 10236
joins 10237
ALERT 10238
Grade 10239
SK 10240
Mon 10241
TM 10242
steady 10243
flo@@ 10244
snacks 10245
packs 10246
Ken 10247
Growth 10248
Announces 10249
Nancy 10250
chu 10251
impression 10252
nerd 10253
Pre-@@ 10254
fate 10255
heavily 10256
privacy 10257
Mentions 10258
ud 10259
Career 10260
refugees 10261
twee@@ 10262
Marine 10263
ania 10264
switched 10265
#X@@ 10266
finest 10267
SET 10268
Lor@@ 10269
:backhand_index_pointing_left: 10270
refs 10271
select 10272
Life@@ 10273
Retail 10274
releasing 10275
taxi 10276
brick 10277
identify 10278
:baby_angel: 10279
DER 10280
teenage 10281
ander 10282
vy 10283
Milan 10284
LING 10285
PG 10286
gains 10287
eo@@ 10288
CARE 10289
cho 10290
res 10291
Rap@@ 10292
trusted 10293
rey 10294
thi 10295
diversity 10296
wire 10297
Rush 10298
#mo@@ 10299
eck 10300
pple 10301
Missouri 10302
WEEK 10303
snack 10304
honored 10305
maintenance 10306
Boo 10307
thunder 10308
SI 10309
WRONG 10310
fire@@ 10311
protecting 10312
equivalent 10313
starving 10314
hehehe 10315
Juan 10316
― 10317
#To@@ 10318
existed 10319
READY 10320
LO 10321
Cheap 10322
threatened 10323
igg@@ 10324
ice@@ 10325
mere 10326
Fame 10327
cracking 10328
Netherlands 10329
Sw@@ 10330
fold 10331
Shoutout 10332
hay 10333
wea@@ 10334
angels 10335
Ralph 10336
Missed 10337
► 10338
ww 10339
WH 10340
attempted 10341
credits 10342
naughty 10343
eed 10344
hyped 10345
warming 10346
cooler 10347
versus 10348
Ltd 10349
creep 10350
Swedish 10351
maths 10352
closes 10353
installed 10354
ION 10355
sheep 10356
taco 10357
joe 10358
#For@@ 10359
WHOLE 10360
rumors 10361
:thought_balloon: 10362
shu@@ 10363
Uncle 10364
Matter 10365
wer 10366
Af@@ 10367
SF@@ 10368
TALK 10369
circumstances 10370
Tf 10371
Dam@@ 10372
Course 10373
Pet@@ 10374
poo@@ 10375
reasonable 10376
net@@ 10377
Apr 10378
popcorn 10379
smiled 10380
DP 10381
Ashton 10382
souls 10383
tunes 10384
Yoga 10385
exo 10386
Squ@@ 10387
9.99 10388
Drink 10389
Tigers 10390
Long@@ 10391
arch@@ 10392
Slow 10393
ort 10394
marijuana 10395
Amanda 10396
visual 10397
Ban 10398
emotionally 10399
tat@@ 10400
AY@@ 10401
x2 10402
listing 10403
ruining 10404
demon 10405
grounds 10406
Choose 10407
ric 10408
favour 10409
makers 10410
jan 10411
internal 10412
arguments 10413
logist 10414
asa 10415
yelled 10416
SORRY 10417
tricks 10418
facility 10419
:05 10420
Pussy 10421
Photography 10422
boyfriends 10423
ssi@@ 10424
salary 10425
sunset 10426
Guard 10427
embrace 10428
identified 10429
Fund 10430
regime 10431
sample 10432
JU@@ 10433
pockets 10434
brief 10435
Canon 10436
pandemic 10437
Thailand 10438
Fro@@ 10439
Ohh 10440
ratings 10441
downs 10442
Bee@@ 10443
liquor 10444
Finished 10445
Legal 10446
dun@@ 10447
bol@@ 10448
volunteer 10449
Fra@@ 10450
Ideas 10451
Lat@@ 10452
Oliver 10453
independence 10454
1000@@ 10455
usa 10456
wx 10457
io@@ 10458
Lyft 10459
celebrities 10460
recover 10461
SEC 10462
blank 10463
Ol@@ 10464
anks 10465
NIGGA 10466
NB 10467
disabled 10468
Kra@@ 10469
NC@@ 10470
apology 10471
phon@@ 10472
buys 10473
bullet 10474
Sadly 10475
investigate 10476
bounce 10477
Political 10478
ions 10479
vodka 10480
gies 10481
ux 10482
deadly 10483
chaos 10484
lip@@ 10485
taylor 10486
eland 10487
wth 10488
1970 10489
Advice 10490
#USA 10491
itch@@ 10492
equally 10493
Bluetooth 10494
:astonished_face: 10495
OL@@ 10496
Treat 10497
beaten 10498
ave 10499
Banks 10500
das 10501
explaining 10502
disappointing 10503
flu@@ 10504
DEAD 10505
Artists 10506
NAME 10507
Champion 10508
colleagues 10509
abandoned 10510
revolution 10511
Dang 10512
d'@@ 10513
cd 10514
royal 10515
homecoming 10516
#Pro@@ 10517
Become 10518
starter 10519
CIA 10520
Glasgow 10521
Earrings 10522
Offer 10523
Gen 10524
shoulda 10525
franchise 10526
frequently 10527
Heart@@ 10528
Trading 10529
surprising 10530
oooooo 10531
stupidity 10532
emojis 10533
zoo 10534
Couple 10535
revenue 10536
nurse 10537
blues 10538
vegan 10539
Epic 10540
popping 10541
stepped 10542
tttt 10543
scientists 10544
#ge@@ 10545
Rol@@ 10546
OTHER 10547
Bit 10548
AWAY 10549
FG 10550
flew 10551
Gla@@ 10552
Hay@@ 10553
jam@@ 10554
fairly 10555
inal 10556
Venezuela 10557
railway 10558
eer@@ 10559
Discover 10560
Gl@@ 10561
Gym 10562
bag@@ 10563
TR 10564
❝ 10565
anxious 10566
mountains 10567
SOMETHING 10568
visits 10569
Gaming 10570
part@@ 10571
collected 10572
rat@@ 10573
gla@@ 10574
69@@ 10575
typically 10576
shining 10577
Random 10578
EAT 10579
Afghanistan 10580
Off@@ 10581
ggy 10582
lor 10583
<@@ 10584
:30 10585
tooth 10586
Yankees 10587
Run@@ 10588
Charger 10589
Tag 10590
Paradise 10591
beliefs 10592
acted 10593
thankyou 10594
ables 10595
retweeting 10596
PlayStation 10597
patch 10598
sticking 10599
viewers 10600
Ministry 10601
stalk 10602
Dylan 10603
Bruno 10604
#Po@@ 10605
KA 10606
congress 10607
Highway 10608
mike 10609
ting@@ 10610
nit@@ 10611
secondary 10612
abi 10613
hooked 10614
#ro@@ 10615
ales 10616
و@@ 10617
Cast@@ 10618
tional 10619
quar@@ 10620
OG 10621
Ny@@ 10622
I-@@ 10623
2-0 10624
EDT 10625
doo 10626
technically 10627
journalism 10628
Jean 10629
Pic@@ 10630
loool 10631
ld@@ 10632
cakes 10633
Hahah 10634
ML@@ 10635
What@@ 10636
valentines 10637
dog@@ 10638
#Red@@ 10639
Finish 10640
tters 10641
landing 10642
dentist 10643
Trip 10644
criminals 10645
Loo@@ 10646
superior 10647
Bang@@ 10648
vintage 10649
vo 10650
Cody 10651
passionate 10652
See@@ 10653
try@@ 10654
Jenner 10655
weakness 10656
Fighting 10657
Costa 10658
Wear 10659
drum 10660
Bishop 10661
FE@@ 10662
Ops 10663
saves 10664
MANY 10665
911 10666
Blu@@ 10667
AGE 10668
youuu 10669
biased 10670
Engineering 10671
striker 10672
:sunflower: 10673
kha@@ 10674
kl@@ 10675
funded 10676
android 10677
organizations 10678
Jo 10679
owns 10680
Shooting 10681
brands 10682
Marcus 10683
earning 10684
Speaker 10685
lit@@ 10686
Sugar 10687
180 10688
pul@@ 10689
mainstream 10690
Youtube 10691
#love@@ 10692
,9@@ 10693
junk 10694
Guitar 10695
insecure 10696
starring 10697
instant 10698
elli 10699
Conservative 10700
#Ar@@ 10701
Shares 10702
inj@@ 10703
subs 10704
portion 10705
Rule 10706
Cast 10707
BEAUTY 10708
ﾟ 10709
affordable 10710
Sleeve 10711
Bak@@ 10712
journalists 10713
Jacket 10714
traveled 10715
Agree 10716
Woods 10717
doc 10718
Pla@@ 10719
conc@@ 10720
philosophy 10721
TWITTER 10722
ATED 10723
ler@@ 10724
uti@@ 10725
jst 10726
:middle_finger: 10727
Tools 10728
Ste@@ 10729
rappers 10730
199@@ 10731
Calls 10732
ctfu 10733
swift 10734
destroying 10735
downloaded 10736
Past 10737
Slim 10738
hd 10739
multi-@@ 10740
vet 10741
Carl 10742
LETS 10743
:Santa_Claus: 10744
crea@@ 10745
woah 10746
machines 10747
xi@@ 10748
tag@@ 10749
conf@@ 10750
OC 10751
Score 10752
Cake 10753
rainbow 10754
-RSB- 10755
mouse 10756
CL 10757
x3 10758
eep 10759
Ten@@ 10760
nickname 10761
Mostly 10762
engage 10763
Jun 10764
#National@@ 10765
weave 10766
❞ 10767
Construction 10768
delays 10769
esp@@ 10770
ori 10771
#Q@@ 10772
graphics 10773
Work@@ 10774
Members 10775
zombie 10776
#Li@@ 10777
ova 10778
ump 10779
K-@@ 10780
rural 10781
pun 10782
Gang 10783
Ara@@ 10784
atmosphere 10785
purse 10786
ket@@ 10787
Hen@@ 10788
Gallery 10789
Ry@@ 10790
Ran@@ 10791
wack 10792
netflix 10793
sher 10794
tab@@ 10795
Adventure 10796
TUR@@ 10797
Forum 10798
iss 10799
sticker 10800
Designer 10801
tter@@ 10802
ffy 10803
indian 10804
mea@@ 10805
Tampa 10806
Robinson 10807
trippin 10808
mit@@ 10809
ACT 10810
ech 10811
9:@@ 10812
1983 10813
bull@@ 10814
-LSB- 10815
Met@@ 10816
sadness 10817
closely 10818
goat 10819
examples 10820
submitted 10821
ato@@ 10822
led@@ 10823
Clearly 10824
Spot 10825
MOM 10826
commentary 10827
stalking 10828
ral 10829
wipe 10830
bunny 10831
alien 10832
RTs 10833
creates 10834
Corbyn 10835
Tre@@ 10836
Sli@@ 10837
andy 10838
smarter 10839
amongst 10840
cope 10841
Dal@@ 10842
Waking 10843
rail 10844
hoo 10845
ust 10846
EC 10847
chef 10848
Cry 10849
1982 10850
materials 10851
BR 10852
5:30 10853
rom@@ 10854
liars 10855
kg 10856
representing 10857
tracking 10858
KY 10859
Pat 10860
Kil@@ 10861
#ho@@ 10862
lier 10863
STR@@ 10864
pasta 10865
◡ 10866
rounds 10867
Roses 10868
pregnancy 10869
cop@@ 10870
profits 10871
siblings 10872
legally 10873
powered 10874
pan 10875
#Sh@@ 10876
bald 10877
beloved 10878
overnight 10879
Apps 10880
Bonus 10881
tempted 10882
Hehe 10883
valley 10884
Few 10885
warned 10886
qui@@ 10887
az 10888
ite@@ 10889
dest 10890
Lies 10891
Ji 10892
legendary 10893
wished 10894
Law@@ 10895
punishment 10896
#quotes 10897
sam 10898
wondered 10899
#TeenChoice 10900
Tun@@ 10901
rubbish 10902
butt@@ 10903
y_@@ 10904
Knowing 10905
reporter 10906
basement 10907
GRA@@ 10908
territory 10909
WW@@ 10910
jay@@ 10911
tripping 10912
Devil 10913
Columbus 10914
gurl 10915
Sl@@ 10916
Cer@@ 10917
artwork 10918
object 10919
outstanding 10920
86@@ 10921
subway 10922
Hoes 10923
1979 10924
statements 10925
Stainless 10926
Mystery 10927
sleeve 10928
Cambridge 10929
seniors 10930
minority 10931
Century 10932
Game@@ 10933
Key@@ 10934
Hat@@ 10935
Leadership 10936
loc@@ 10937
suggests 10938
panties 10939
Micro@@ 10940
Kon@@ 10941
64@@ 10942
#sh@@ 10943
flood 10944
Mirror 10945
Hom@@ 10946
Bulls 10947
wala 10948
Elite 10949
outfits 10950
PO 10951
chris 10952
clutch 10953
gur@@ 10954
Evening 10955
2day 10956
dn@@ 10957
Skype 10958
LITTLE 10959
17.@@ 10960
89@@ 10961
#la@@ 10962
sponsor 10963
Dancing 10964
#for@@ 10965
WE@@ 10966
3000 10967
ancy 10968
proposal 10969
lan 10970
chinese 10971
photographer 10972
impress 10973
continuing 10974
Bond 10975
Bradley 10976
Kid@@ 10977
Podcast 10978
fur 10979
NWT 10980
Regional 10981
behaviour 10982
resume 10983
reunion 10984
offices 10985
dj 10986
list@@ 10987
til@@ 10988
AIR 10989
median 10990
Adult 10991
OPEN 10992
reverse 10993
(@@ 10994
Mari@@ 10995
hot@@ 10996
Excuse 10997
soldier 10998
prizes 10999
dee 11000
Jus 11001
CE@@ 11002
stro@@ 11003
#ar@@ 11004
methods 11005
occurred 11006
#what@@ 11007
unity 11008
Wonderful 11009
#One@@ 11010
Fifth 11011
rocket 11012
champ 11013
steam 11014
ect 11015
Turns 11016
ww@@ 11017
LY@@ 11018
aki 11019
unt 11020
matching 11021
medi@@ 11022
Dy@@ 11023
Praying 11024
STO@@ 11025
Sleeping 11026
cameras 11027
bites 11028
Asking 11029
24.@@ 11030
poly@@ 11031
mil 11032
Tumblr 11033
hemmings 11034
Drew 11035
Kay@@ 11036
gel 11037
Plans 11038
Hat 11039
chemical 11040
lighter 11041
too@@ 11042
#Not@@ 11043
harsh 11044
retire 11045
Lucy 11046
Sunny 11047
Crown 11048
125 11049
documents 11050
GIRLS 11051
iced 11052
HAIR 11053
admin 11054
ing_@@ 11055
tragic 11056
Commercial 11057
Horse 11058
Sending 11059
Sec@@ 11060
Massive 11061
CRY 11062
Book@@ 11063
Speaking 11064
ung@@ 11065
lov 11066
Lives 11067
Moments 11068
pancakes 11069
downstairs 11070
SG 11071
ddd 11072
mat 11073
Daughter 11074
Sto@@ 11075
:fearful_face: 11076
UK@@ 11077
tti 11078
begun 11079
hem@@ 11080
Cel@@ 11081
Coo@@ 11082
Serious 11083
Squad 11084
Image 11085
Ex-@@ 11086
chan 11087
intro 11088
chee@@ 11089
#What@@ 11090
bake 11091
canceled 11092
immature 11093
ov 11094
SUPER 11095
Important 11096
:heavy_heart_exclamation: 11097
:ribbon: 11098
vulnerable 11099
hosts 11100
Tem@@ 11101
Curry 11102
pity 11103
Candy 11104
SY@@ 11105
2-1 11106
ruled 11107
expansion 11108
dio 11109
Economic 11110
donated 11111
logy 11112
cleaned 11113
formation 11114
tures 11115
ms@@ 11116
Growing 11117
Fire@@ 11118
Hon@@ 11119
strongly 11120
formal 11121
0000 11122
eer 11123
Gandhi 11124
break@@ 11125
Drama 11126
unbelievable 11127
skins 11128
lor@@ 11129
Thunder 11130
mom@@ 11131
ished 11132
Surely 11133
Mand@@ 11134
responded 11135
lec@@ 11136
:55 11137
Fred 11138
【 11139
widely 11140
cracked 11141
mers 11142
5,000 11143
Villa 11144
Lamar 11145
cult 11146
ordinary 11147
Maine 11148
#free 11149
Jer@@ 11150
nvm 11151
baby@@ 11152
organic 11153
sni@@ 11154
wk 11155
losses 11156
es-@@ 11157
fml 11158
recommended 11159
buzz 11160
AU 11161
BELIEVE 11162
imp@@ 11163
comp 11164
AAAA@@ 11165
shook 11166
#Coronavirus 11167
old@@ 11168
Liberty 11169
RY 11170
initially 11171
Lemme 11172
Leaving 11173
borders 11174
Promo 11175
9pm 11176
publicly 11177
Bike 11178
dump 11179
Quotes 11180
fathers 11181
softly 11182
BO 11183
programming 11184
Gil@@ 11185
year@@ 11186
resign 11187
Cats 11188
#Tr@@ 11189
FUN 11190
Vol 11191
trea@@ 11192
athlete 11193
Bath 11194
♬ 11195
Ang@@ 11196
Goal 11197
differences 11198
sizes 11199
directions 11200
BEA@@ 11201
67@@ 11202
inv@@ 11203
reckon 11204
Tab@@ 11205
Cloudy 11206
mute 11207
Retweets 11208
Cap 11209
destruction 11210
OWN 11211
ALREADY 11212
smoked 11213
destiny 11214
Boyfriend 11215
BLO@@ 11216
sponsored 11217
Ever@@ 11218
Idol 11219
port@@ 11220
Nov@@ 11221
Region 11222
Euro 11223
nes@@ 11224
LM@@ 11225
pcs 11226
reflect 11227
Clifford 11228
Mi 11229
Dry 11230
130 11231
Crisis 11232
ा 11233
Solutions 11234
Developer 11235
havin 11236
ruling 11237
ston@@ 11238
Dame 11239
Called 11240
Forgot 11241
twat 11242
passenger 11243
sushi 11244
mee@@ 11245
TRY 11246
Events 11247
refund 11248
Hearts 11249
Wings 11250
cheering 11251
ition 11252
Fal@@ 11253
practical 11254
beers 11255
oppa 11256
UGH 11257
Unit 11258
e: 11259
Mir@@ 11260
5pm 11261
yeh 11262
ANCE 11263
tragedy 11264
Jets 11265
wah 11266
municipality 11267
Dou@@ 11268
OT@@ 11269
teenager 11270
Sen 11271
life@@ 11272
necessarily 11273
cleared 11274
Lie 11275
5.0 11276
iss@@ 11277
】 11278
Tournament 11279
Makeup 11280
LU@@ 11281
TB 11282
LEA@@ 11283
lab@@ 11284
donation 11285
insight 11286
wrist 11287
wakes 11288
idgaf 11289
Ham 11290
Posted 11291
Boost 11292
Spent 11293
roster 11294
IMO 11295
Knicks 11296
Ahhh 11297
Nathan 11298
pointed 11299
unexpected 11300
colours 11301
traded 11302
FYI 11303
kins 11304
pipe 11305
lifting 11306
calories 11307
winds 11308
Arena 11309
SING 11310
dit@@ 11311
Comedy 11312
Wade 11313
Companies 11314
1980s 11315
Delivery 11316
4.5 11317
HH 11318
Thai 11319
acknowledge 11320
:rainbow: 11321
industrial 11322
merch 11323
Leaders 11324
bowling 11325
Swiss 11326
websites 11327
fixing 11328
responding 11329
tacos 11330
Watson 11331
:45 11332
electricity 11333
partnership 11334
world@@ 11335
ä@@ 11336
:person_running: 11337
Flower 11338
screenshot 11339
Ki 11340
combo 11341
Virgin 11342
codes 11343
plat@@ 11344
tiv@@ 11345
gent 11346
welfare 11347
habits 11348
Land@@ 11349
Leicester 11350
HEAD 11351
Chapter 11352
Eagle 11353
twisted 11354
dicks 11355
Gate 11356
improvement 11357
rainy 11358
dose 11359
tou@@ 11360
shark 11361
flirt 11362
ements 11363
ush@@ 11364
#win 11365
equality 11366
9/11 11367
Crash 11368
a_@@ 11369
meds 11370
HIGH 11371
Vice 11372
Fab@@ 11373
SIZE 11374
yyyyy 11375
Kenny 11376
BET 11377
Massachusetts 11378
low-@@ 11379
Thompson 11380
beings 11381
dive 11382
GOLD 11383
Hearing 11384
ners 11385
TEAM 11386
tr 11387
potatoes 11388
xxxxx 11389
Ep@@ 11390
God@@ 11391
viral 11392
Var@@ 11393
#travel 11394
MPs 11395
She@@ 11396
vel 11397
Intel 11398
Sav@@ 11399
Hindu 11400
Till 11401
overcome 11402
Rap 11403
Unknown 11404
900 11405
commission 11406
CR 11407
Jesse 11408
edited 11409
oul@@ 11410
beds 11411
t.co/@@ 11412
Roc@@ 11413
ied 11414
Graphic 11415
ind 11416
43@@ 11417
bombs 11418
AAAAAAAA@@ 11419
esp 11420
Pence 11421
jewelry 11422
Memories 11423
waist 11424
wicked 11425
Pelosi 11426
whit@@ 11427
Christopher 11428
Ven@@ 11429
:worried_face: 11430
Speak 11431
10am 11432
eh@@ 11433
Rather 11434
acid 11435
Stanley 11436
democratic 11437
DT 11438
PC@@ 11439
john 11440
pro-@@ 11441
td 11442
Haw@@ 11443
Among 11444
stor@@ 11445
GC 11446
iri 11447
Ji@@ 11448
missions 11449
alleged 11450
Memphis 11451
inbox 11452
thers 11453
Fix 11454
Foo@@ 11455
DL 11456
kil@@ 11457
3/4 11458
ees 11459
volunteers 11460
backing 11461
Trump@@ 11462
yummy 11463
:dark_skin_tone: 11464
Say@@ 11465
Dat 11466
spaces 11467
burgers 11468
:leaf_fluttering_in_wind: 11469
bly 11470
soda 11471
BOO@@ 11472
adi 11473
Tw@@ 11474
Caught 11475
ssy 11476
1972 11477
Lens 11478
seeks 11479
Airlines 11480
Tool 11481
Julia 11482
wig 11483
BOOK 11484
MF 11485
Everton 11486
voter 11487
PUT 11488
wheels 11489
LOVES 11490
breakdown 11491
aah 11492
toll 11493
Boy@@ 11494
PHOTO 11495
7.5 11496
KO@@ 11497
Dj 11498
softball 11499
hubby 11500
casual 11501
hater 11502
Billion 11503
Memory 11504
Jul 11505
kt 11506
halfway 11507
ben 11508
tub 11509
Dur@@ 11510
bin@@ 11511
shrugs 11512
Throw 11513
bestie 11514
Besides 11515
CLO@@ 11516
ound@@ 11517
Louisiana 11518
Hart 11519
PHOTOS 11520
locks 11521
licking 11522
mes@@ 11523
kee@@ 11524
'n 11525
Intelligence 11526
thumbs 11527
ACTUALLY 11528
Head@@ 11529
exception 11530
#FF 11531
heart@@ 11532
END@@ 11533
flavor 11534
Spending 11535
Dawn 11536
Marshall 11537
ceiling 11538
guaranteed 11539
1981 11540
Strategy 11541
oma 11542
anthem 11543
Ama@@ 11544
Marie 11545
ough@@ 11546
imagination 11547
hangover 11548
producing 11549
oned 11550
FRIDAY 11551
Stats 11552
EAR@@ 11553
Investment 11554
readers 11555
resolved 11556
Oomf 11557
ney@@ 11558
lay@@ 11559
Wide 11560
eys 11561
fication 11562
Islands 11563
Tran@@ 11564
FAST 11565
depend 11566
cum@@ 11567
RB 11568
necklace 11569
DOWNLOAD 11570
Period 11571
Cubs 11572
registration 11573
#All@@ 11574
elsewhere 11575
Outside 11576
manner 11577
Shoot 11578
DIDNT 11579
Bristol 11580
Belgium 11581
Chrome 11582
Outdoor 11583
Destiny 11584
demo 11585
boarding 11586
Rolling 11587
topics 11588
nya 11589
handling 11590
follow@@ 11591
9.5 11592
10:30 11593
Suite 11594
expand 11595
Montreal 11596
oh@@ 11597
Sher@@ 11598
vocals 11599
Mumbai 11600
pt@@ 11601
Reports 11602
Per 11603
resistance 11604
short@@ 11605
ough 11606
entrance 11607
Trends 11608
Tel@@ 11609
passengers 11610
lanes 11611
GPS 11612
even@@ 11613
wid 11614
disappointment 11615
free@@ 11616
Actor 11617
investors 11618
demands 11619
HARRY 11620
AAA 11621
Dual 11622
Hurricane 11623
IDK 11624
solved 11625
INA 11626
Verizon 11627
ical@@ 11628
power@@ 11629
Lounge 11630
Mississippi 11631
Kindly 11632
Raw 11633
Indeed 11634
replay 11635
mug 11636
prick 11637
Logan 11638
justify 11639
SR@@ 11640
#ad 11641
TB@@ 11642
105 11643
fu 11644
flex 11645
bun 11646
INTO 11647
Carlos 11648
outdoor 11649
pairs 11650
operated 11651
elementary 11652
SHUT 11653
FOREVER 11654
Analyst 11655
infrastructure 11656
transition 11657
scares 11658
Wi-Fi 11659
wednesday 11660
rest@@ 11661
Competition 11662
courts 11663
D'@@ 11664
DMs 11665
Cheese 11666
ored 11667
Mam@@ 11668
faves 11669
mindset 11670
#PushAwardsLizQuens 11671
snaps 11672
AJ 11673
Rocky 11674
ordering 11675
twit@@ 11676
shouting 11677
Norway 11678
divorce 11679
fir@@ 11680
innings 11681
ado@@ 11682
Ball@@ 11683
headline 11684
1969 11685
ask@@ 11686
1976 11687
needing 11688
wassup 11689
HES 11690
Sessions 11691
furniture 11692
Alaska 11693
Giant 11694
:star-struck: 11695
SR 11696
fck 11697
abilities 11698
lic 11699
semi 11700
Solo 11701
temp 11702
immediate 11703
BI 11704
Write 11705
jar@@ 11706
:crossed_fingers: 11707
Non-@@ 11708
largely 11709
celebrated 11710
Dri@@ 11711
XX 11712
torn 11713
Live@@ 11714
Will@@ 11715
eller 11716
alls 11717
isha 11718
Springs 11719
Celtic 11720
focusing 11721
trapped 11722
Delta 11723
Bella 11724
ence@@ 11725
upstairs 11726
NIALL 11727
Sin@@ 11728
WAL@@ 11729
Bull 11730
Honda 11731
acquired 11732
Tough 11733
homemade 11734
TRYING 11735
TY@@ 11736
Who@@ 11737
hy 11738
layout 11739
uring 11740
Sandy 11741
7,@@ 11742
925 11743
#ipadgames 11744
#can@@ 11745
sixth 11746
rick 11747
cabinet 11748
MN 11749
mother@@ 11750
reportedly 11751
Lan@@ 11752
Exp@@ 11753
Hard@@ 11754
Secrets 11755
describes 11756
leaked 11757
Hur@@ 11758
sells 11759
Avengers 11760
Updated 11761
Exchange 11762
sword 11763
Authentic 11764
struggles 11765
Keeping 11766
Others 11767
Derby 11768
nan 11769
borough 11770
Pool 11771
Megan 11772
educational 11773
Wright 11774
threatening 11775
reaches 11776
PART 11777
Pres 11778
Time@@ 11779
Lou 11780
sou@@ 11781
braces 11782
slick 11783
LOW 11784
cross@@ 11785
progressive 11786
exp@@ 11787
josh 11788
Wendy 11789
Strange 11790
primarily 11791
donations 11792
ABLE 11793
Bought 11794
Chef 11795
BAR@@ 11796
Jared 11797
FollowSpree 11798
expose 11799
#Man@@ 11800
Railway 11801
Paid 11802
Pak 11803
Incredible 11804
melt 11805
th-@@ 11806
Simply 11807
DK@@ 11808
law@@ 11809
para 11810
ht 11811
Tablet 11812
gut 11813
Putting 11814
Bit@@ 11815
genre 11816
ented 11817
Mill@@ 11818
greet 11819
appreciation 11820
YING 11821
yea@@ 11822
ender 11823
Hii 11824
tonite 11825
settlement 11826
Baker 11827
Bae 11828
1978 11829
Oz 11830
;( 11831
¯ 11832
1970s 11833
ance@@ 11834
#HappyBirthday@@ 11835
10k 11836
las 11837
bac@@ 11838
23rd 11839
EURUSD 11840
viewing 11841
Masters 11842
nt@@ 11843
Rock@@ 11844
ve-@@ 11845
#Di@@ 11846
Lab 11847
occasion 11848
#Super@@ 11849
zzle 11850
tered 11851
x1 11852
lau@@ 11853
Drug 11854
requests 11855
skype 11856
kingdom 11857
storms 11858
anga 11859
stat@@ 11860
FIN@@ 11861
1968 11862
EX 11863
literature 11864
9am 11865
:confetti_ball: 11866
lasted 11867
integrity 11868
Tank 11869
Oakland 11870
East@@ 11871
Oops 11872
Gorgeous 11873
#Star@@ 11874
From@@ 11875
MJ 11876
employed 11877
arena 11878
21.@@ 11879
forum 11880
A1 11881
guidance 11882
Cont@@ 11883
lottery 11884
Sonic 11885
Eh 11886
sins 11887
Dig@@ 11888
400@@ 11889
jelly 11890
s: 11891
regard 11892
Bio@@ 11893
YOURE 11894
LES 11895
establishment 11896
Chair 11897
hence 11898
damaged 11899
1974 11900
zation 11901
QUE 11902
convention 11903
but@@ 11904
AK 11905
:02 11906
Adele 11907
DING 11908
Eminem 11909
Vir@@ 11910
sav@@ 11911
Bros 11912
ENCE 11913
ginger 11914
_button: 11915
battles 11916
8.5 11917
1977 11918
half-@@ 11919
BYE 11920
WC 11921
XX@@ 11922
vía 11923
Nearly 11924
london 11925
Legends 11926
Ty 11927
Plea@@ 11928
waters 11929
Twin 11930
AH@@ 11931
honour 11932
#dont@@ 11933
defender 11934
hii 11935
ov@@ 11936
inspirational 11937
:person_bowing: 11938
Calum 11939
Ghana 11940
kim 11941
Ends 11942
sers 11943
Noah 11944
nig@@ 11945
sle@@ 11946
elo@@ 11947
#Ra@@ 11948
BER@@ 11949
ush 11950
Travis 11951
refuses 11952
employment 11953
ota 11954
Gods 11955
Kel@@ 11956
ed-@@ 11957
#marketing 11958
Moscow 11959
Administration 11960
dk@@ 11961
MB@@ 11962
Pastor 11963
Comes 11964
mob 11965
eo 11966
roller 11967
BMW 11968
BUR@@ 11969
PHONE 11970
visitors 11971
filed 11972
о@@ 11973
adi@@ 11974
relatively 11975
5000 11976
ore@@ 11977
swee@@ 11978
punched 11979
lik 11980
iconic 11981
idi@@ 11982
Like@@ 11983
CAR 11984
Stuff 11985
iously 11986
ag 11987
ng@@ 11988
ayo 11989
Relationship 11990
fort 11991
Lim@@ 11992
polish 11993
utes 11994
upside 11995
:ring: 11996
6,@@ 11997
Hiring 11998
Played 11999
infection 12000
Rate 12001
Attention 12002
lam@@ 12003
Auto@@ 12004
PDT 12005
#World@@ 12006
Derek 12007
sexually 12008
Steps 12009
casino 12010
Watched 12011
hurricane 12012
oney 12013
broad 12014
Midnight 12015
Spec@@ 12016
favorited 12017
1945 12018
approve 12019
Bir@@ 12020
Campbell 12021
SOON 12022
Adidas 12023
dun 12024
Barack 12025
102 12026
collaboration 12027
mas@@ 12028
22.@@ 12029
desert 12030
pumpkin 12031
iter@@ 12032
cherry 12033
Basically 12034
fist 12035
buses 12036
Clo@@ 12037
#po@@ 12038
stance 12039
cc@@ 12040
Shane 12041
losers 12042
shelter 12043
casting 12044
fart 12045
68@@ 12046
XI 12047
dumbest 12048
Lower 12049
assumed 12050
involving 12051
adventures 12052
exhibition 12053
targets 12054
brutal 12055
arrival 12056
von 12057
deposit 12058
3am 12059
duc@@ 12060
Snow@@ 12061
dian 12062
represents 12063
flags 12064
eyed 12065
networking 12066
managers 12067
eg@@ 12068
Karen 12069
Stu@@ 12070
1973 12071
gol@@ 12072
TON 12073
roses 12074
Platform 12075
nd@@ 12076
Photo@@ 12077
unlimited 12078
ct 12079
safely 12080
Harmony 12081
holder 12082
rad 12083
MSM 12084
leak 12085
agu@@ 12086
hyper@@ 12087
protests 12088
professionals 12089
advise 12090
density 12091
lemon 12092
fence 12093
KILL 12094
Pic 12095
anta 12096
grip 12097
possession 12098
Goals 12099
ANYONE 12100
oner 12101
tablet 12102
hammer 12103
Reviews 12104
Nights 12105
MG 12106
❀ 12107
DB 12108
bush 12109
goddamn 12110
forming 12111
lasts 12112
console 12113
Winning 12114
administrative 12115
showers 12116
:palm_tree: 12117
reflection 12118
THAT'S 12119
ecting 12120
bff 12121
Speech 12122
Kent 12123
Sigh 12124
travelling 12125
#10 12126
gud 12127
dly 12128
estimated 12129
ishing 12130
occur 12131
legislation 12132
exposure 12133
SLEEP 12134
Soooo 12135
camping 12136
choke 12137
towns 12138
Murphy 12139
dancer 12140
unhappy 12141
Seth 12142
ALLY 12143
wealthy 12144
jar 12145
Flat 12146
Superman 12147
roll@@ 12148
SAD 12149
Uni@@ 12150
#La@@ 12151
hl 12152
eff@@ 12153
Harper 12154
achi 12155
shoots 12156
cking 12157
Clar@@ 12158
Floyd 12159
webcam 12160
Dr. 12161
sour 12162
Pon@@ 12163
xed 12164
Stan 12165
<--- 12166
attempting 12167
McCain 12168
confusion 12169
Xxx 12170
:trophy: 12171
challenging 12172
Marathon 12173
Impact 12174
sarcastic 12175
rises 12176
MER@@ 12177
ruins 12178
iy@@ 12179
pill 12180
ahah 12181
prep 12182
controversial 12183
Bul@@ 12184
Bag@@ 12185
:drooling_face: 12186
II@@ 12187
:herb: 12188
#bo@@ 12189
brea@@ 12190
antly 12191
Broadway 12192
warns 12193
WAR@@ 12194
chatting 12195
ona@@ 12196
Mitchell 12197
Celebrity 12198
distribution 12199
de-@@ 12200
ris 12201
nicely 12202
graduating 12203
rev@@ 12204
cents 12205
Championships 12206
complaint 12207
shawty 12208
Hear@@ 12209
coal 12210
slam 12211
realistic 12212
snow@@ 12213
Oc@@ 12214
fastest 12215
#NP 12216
nak 12217
fam@@ 12218
reliable 12219
mums 12220
Burger 12221
Aid 12222
ENT@@ 12223
Sucks 12224
spelled 12225
vocal 12226
Kan@@ 12227
ALSO 12228
Kin@@ 12229
IES 12230
Several 12231
Kavanaugh 12232
now@@ 12233
ESS 12234
se-@@ 12235
Theory 12236
1971 12237
Talent 12238
Vision 12239
cotton 12240
census 12241
NICE 12242
constitution 12243
foot@@ 12244
gay@@ 12245
dedication 12246
mn 12247
9:30 12248
Advanced 12249
james 12250
ym@@ 12251
Genuine 12252
collapse 12253
Sheeran 12254
g-@@ 12255
#Just@@ 12256
Post@@ 12257
opponent 12258
Valentines 12259
Non@@ 12260
:-D 12261
nicest 12262
attract 12263
Al-@@ 12264
Stri@@ 12265
HIT 12266
ICYMI 12267
regards 12268
LIAM 12269
LIGHT 12270
auto@@ 12271
PRI@@ 12272
Truly 12273
Hawks 12274
:hibiscus: 12275
1960s 12276
Murder 12277
Heroes 12278
Gir@@ 12279
ssing 12280
RD 12281
Min 12282
#mar@@ 12283
Agent 12284
JB 12285
py@@ 12286
dorm 12287
#ra@@ 12288
agencies 12289
fairy 12290
Marc 12291
2-3 12292
vampire 12293
qualify 12294
Ricky 12295
rea 12296
unk 12297
Risk 12298
tags 12299
arsenal 12300
pressing 12301
louder 12302
2pm 12303
baked 12304
Policy 12305
SAW 12306
gossip 12307
OFFICIAL 12308
minus 12309
amazed 12310
8am 12311
hahahaha@@ 12312
crappy 12313
dig@@ 12314
god@@ 12315
intentions 12316
Flu@@ 12317
composed 12318
Specialist 12319
Lucas 12320
54@@ 12321
draws 12322
Supply 12323
MR 12324
wick 12325
Wy@@ 12326
taller 12327
Jack@@ 12328
elderly 12329
#NBA 12330
Lou@@ 12331
jury 12332
Beast 12333
24th 12334
Edinburgh 12335
burns 12336
HEA@@ 12337
happ@@ 12338
:copyright: 12339
cast@@ 12340
nia 12341
earthquake 12342
Healthcare 12343
relative 12344
hen@@ 12345
connections 12346
mem@@ 12347
sung 12348
☾ 12349
ongoing 12350
no-@@ 12351
Convention 12352
rist@@ 12353
sssss 12354
Doug 12355
zar@@ 12356
currency 12357
DON@@ 12358
disturbing 12359
Quit 12360
GL@@ 12361
#shoes 12362
stans 12363
Theres 12364
shooter 12365
Browns 12366
communicate 12367
Dm 12368
Cuba 12369
jan@@ 12370
dats 12371
deadass 12372
FIRE 12373
CN@@ 12374
stuffed 12375
lipstick 12376
Malik 12377
oring 12378
Studies 12379
Gab@@ 12380
Frame 12381
origin 12382
girlfriends 12383
scope 12384
parliament 12385
Luxury 12386
org 12387
Ray@@ 12388
bhi 12389
Cricket 12390
pouring 12391
pee@@ 12392
Kim@@ 12393
shorter 12394
lined 12395
rows 12396
Dumb 12397
infected 12398
Journey 12399
comparing 12400
n-@@ 12401
Kylie 12402
flaws 12403
creator 12404
Mode 12405
clap 12406
kay@@ 12407
Kane 12408
#PeoplesChoice 12409
Py@@ 12410
fic 12411
IRS 12412
Todd 12413
basket 12414
Harvard 12415
properties 12416
computers 12417
discussed 12418
labour 12419
ssa 12420
Obamacare 12421
Letter 12422
popularity 12423
representation 12424
kies 12425
turnt 12426
fol@@ 12427
less@@ 12428
:alien: 12429
Killing 12430
masters 12431
#giveaway 12432
ggg 12433
GRE@@ 12434
á 12435
Self-@@ 12436
4.0 12437
referendum 12438
jer@@ 12439
clu@@ 12440
:globe_showing_Americas: 12441
deleting 12442
KKK 12443
prominent 12444
Celebrate 12445
trigger 12446
GETTING 12447
will@@ 12448
FLO@@ 12449
explode 12450
whos 12451
occupied 12452
adopt 12453
ward@@ 12454
blacks 12455
electronic 12456
LIE 12457
overrated 12458
tel 12459
ects 12460
anon 12461
WI@@ 12462
22nd 12463
Wenger 12464
creativity 12465
side@@ 12466
#lov@@ 12467
itz 12468
shyt 12469
Ellen 12470
Lmaoo 12471
Figure 12472
lb 12473
yed 12474
Was@@ 12475
Signs 12476
ironic 12477
commonly 12478
sarcasm 12479
Trail 12480
gee 12481
#Do@@ 12482
itis 12483
Caribbean 12484
risks 12485
ght@@ 12486
ises 12487
tak@@ 12488
plan@@ 12489
Shadow 12490
decline 12491
olo 12492
resort 12493
crashed 12494
Ou@@ 12495
courtesy 12496
VI 12497
dee@@ 12498
Cohen 12499
Presidential 12500
Medicine 12501
106 12502
ving@@ 12503
Smoke 12504
oven 12505
hom@@ 12506
Welp 12507
remembering 12508
POST 12509
appearances 12510
Killed 12511
gener@@ 12512
dur@@ 12513
Reveals 12514
sul@@ 12515
Mitch 12516
assigned 12517
iti@@ 12518
Marriage 12519
#too@@ 12520
av 12521
1967 12522
pi 12523
ides 12524
Kir@@ 12525
Circle 12526
1960 12527
Quite 12528
idols 12529
JESUS 12530
1/5 12531
Gives 12532
After@@ 12533
reserve 12534
show@@ 12535
THOUGHT 12536
Il@@ 12537
Pas@@ 12538
wud 12539
reli@@ 12540
arrives 12541
witnessed 12542
Ric@@ 12543
U-@@ 12544
Budget 12545
apa 12546
visible 12547
Comment 12548
tured 12549
vil@@ 12550
#big@@ 12551
#AS@@ 12552
Cul@@ 12553
fuckers 12554
slavery 12555
#auspol 12556
poppin 12557
duo 12558
SHO@@ 12559
shouldnt 12560
watchin 12561
Susan 12562
Molly 12563
onna 12564
charm 12565
treasure 12566
#get@@ 12567
VC 12568
Miles 12569
Baby@@ 12570
stal@@ 12571
Expect 12572
premium 12573
sid@@ 12574
Tesla 12575
cle@@ 12576
tellin 12577
kick@@ 12578
CHAR@@ 12579
pero 12580
Steady 12581
Queens 12582
Issue 12583
youngest 12584
loading 12585
conduct 12586
yl 12587
chil@@ 12588
Hunger 12589
twerk 12590
LESS 12591
roast 12592
CAUSE 12593
ENG 12594
Nail 12595
Rugby 12596
P-@@ 12597
tropical 12598
Roo@@ 12599
sno@@ 12600
strongest 12601
regrets 12602
Reserve 12603
maximum 12604
Hang 12605
cab 12606
Huh 12607
stein 12608
#is@@ 12609
F1 12610
Chairman 12611
t-shirt 12612
blowjob 12613
ando 12614
engineer 12615
ema 12616
slapped 12617
runner 12618
extend 12619
WOR@@ 12620
LD 12621
rain@@ 12622
CRAZY 12623
ail@@ 12624
#health 12625
Spo@@ 12626
1.6 12627
unto 12628
ulation 12629
BC@@ 12630
ANG@@ 12631
KC 12632
1.2 12633
160 12634
FAKE 12635
learnt 12636
chop 12637
utter 12638
apologies 12639
practically 12640
fortune 12641
Promise 12642
parks 12643
diary 12644
eno 12645
Deb@@ 12646
increases 12647
Yea@@ 12648
kat 12649
Technical 12650
PSA 12651
Near 12652
ox@@ 12653
posters 12654
anya 12655
stating 12656
Olivia 12657
Whitney 12658
distracted 12659
Heading 12660
Pendant 12661
stepping 12662
que@@ 12663
Shah 12664
Mourinho 12665
A. 12666
Domin@@ 12667
cave 12668
ATT@@ 12669
institutions 12670
BOX 12671
servers 12672
survival 12673
16:@@ 12674
Wat 12675
Fav 12676
Mouse 12677
hills 12678
Upon 12679
Andre 12680
Wearing 12681
MAD 12682
ock 12683
curry 12684
person@@ 12685
ular 12686
inform 12687
Inv@@ 12688
Penn 12689
constructed 12690
Corp 12691
5.00 12692
Kick 12693
Calvin 12694
ix@@ 12695
illy 12696
maps 12697
Inst@@ 12698
Proof 12699
wed@@ 12700
Blo@@ 12701
Rainbow 12702
Movement 12703
mv 12704
#Cor@@ 12705
mighty 12706
yal 12707
ARY 12708
Lab@@ 12709
Shake 12710
the-@@ 12711
27th 12712
lifted 12713
hospitals 12714
carbon 12715
BOTH 12716
LD@@ 12717
pepper 12718
colored 12719
ram 12720
smashed 12721
hay@@ 12722
thank@@ 12723
jack@@ 12724
̈ 12725
hee 12726
plates 12727
Portable 12728
fitting 12729
✩ 12730
connecting 12731
#NY@@ 12732
FUNNY 12733
Petition 12734
bers 12735
haha@@ 12736
improving 12737
ultimately 12738
nooo 12739
4pm 12740
Actress 12741
Te 12742
PIC 12743
Border 12744
accomplish 12745
28th 12746
Flying 12747
STAY 12748
shire 12749
Boots 12750
Ye 12751
wood@@ 12752
authors 12753
Ward 12754
inging 12755
Highlights 12756
bets 12757
are@@ 12758
unusual 12759
scars 12760
premier 12761
ente 12762
tactics 12763
Minutes 12764
mam 12765
assets 12766
pad@@ 12767
#ipad 12768
invisible 12769
stat 12770
Nam@@ 12771
absence 12772
streams 12773
Tee 12774
Holder 12775
Wat@@ 12776
1500 12777
Alpha 12778
graphy 12779
chairman 12780
Broken 12781
mud 12782
experiencing 12783
graph 12784
Sn@@ 12785
Lace 12786
freeze 12787
#Android 12788
Dav@@ 12789
check@@ 12790
Ugly 12791
Debate 12792
bots 12793
poorly 12794
spar@@ 12795
guts 12796
terrified 12797
Engine 12798
takin 12799
extent 12800
entertain 12801
guards 12802
relation 12803
payments 12804
o'clock 12805
#PushAwardsKathNiels 12806
flirting 12807
contribute 12808
#Real@@ 12809
aspect 12810
Corps 12811
ces 12812
Steelers 12813
333 12814
Girlfriend 12815
26.@@ 12816
icky 12817
reminding 12818
AW 12819
Billboard 12820
Som@@ 12821
Unlocked 12822
KK 12823
Raj@@ 12824
bleeding 12825
technique 12826
mentioning 12827
dou@@ 12828
vile 12829
gee@@ 12830
Light@@ 12831
sch 12832
OKC 12833
Had@@ 12834
Crea@@ 12835
MIL@@ 12836
Joel 12837
I'ma 12838
Jet 12839
lightning 12840
istic 12841
eem 12842
yy@@ 12843
Way@@ 12844
contracts 12845
swallow 12846
box@@ 12847
requirements 12848
hhhhhh 12849
Turner 12850
ZE 12851
rewards 12852
hustle 12853
symbol 12854
FUL 12855
requested 12856
Tottenham 12857
Omfg 12858
Lev@@ 12859
shifts 12860
thumb 12861
;p 12862
ASS@@ 12863
PEN@@ 12864
haa 12865
Sex@@ 12866
Rodgers 12867
lun@@ 12868
Points 12869
OB@@ 12870
29th 12871
Hurry 12872
dev 12873
ord 12874
rin 12875
Rogers 12876
fts 12877
Music@@ 12878
consistently 12879
I'LL 12880
Given 12881
Positive 12882
Hit@@ 12883
periods 12884
efficient 12885
97@@ 12886
shutdown 12887
#Dont@@ 12888
filmed 12889
Calm 12890
stages 12891
tire 12892
:heart_with_ribbon: 12893
Bryant 12894
BAN@@ 12895
deer 12896
Jonas 12897
Got@@ 12898
DY@@ 12899
Ooh 12900
shakes 12901
10pm 12902
Foods 12903
#Stop@@ 12904
Bio 12905
evolution 12906
rear 12907
zu@@ 12908
annoys 12909
practicing 12910
stab 12911
seeds 12912
MENT 12913
thighs 12914
factors 12915
debating 12916
ming@@ 12917
gently 12918
TAL@@ 12919
#COVIDー19 12920
biology 12921
planes 12922
Fam 12923
ories 12924
mint 12925
tasty 12926
grandmother 12927
printing 12928
:woozy_face: 12929
:face_with_open_mouth: 12930
column 12931
ests 12932
operate 12933
ques 12934
spice 12935
conducted 12936
96@@ 12937
serial 12938
merely 12939
pork 12940
Bha@@ 12941
#real@@ 12942
Wins 12943
gray 12944
Norman 12945
:water_wave: 12946
1.3 12947
input 12948
Scar@@ 12949
VER 12950
Storage 12951
confirms 12952
probe 12953
Crime 12954
Nic@@ 12955
Boom 12956
reader 12957
radical 12958
CHO@@ 12959
Flag 12960
lungs 12961
Colin 12962
association 12963
eable 12964
Taken 12965
Salt 12966
blasting 12967
ANOTHER 12968
:03 12969
aliens 12970
repeatedly 12971
yuh 12972
trucks 12973
tweeps 12974
pierced 12975
ç@@ 12976
70s 12977
Shower 12978
SURE 12979
journal 12980
slight 12981
:crescent_moon: 12982
STER 12983
generous 12984
rob 12985
spoon 12986
Yours 12987
Possible 12988
carefully 12989
Victor 12990
Dell 12991
favs 12992
smartphone 12993
Richmond 12994
lawyers 12995
Rest@@ 12996
mentality 12997
Bass 12998
irony 12999
gin@@ 13000
ND@@ 13001
thi@@ 13002
overseas 13003
legends 13004
Status 13005
Myself 13006
Premiere 13007
Dol@@ 13008
ei 13009
animation 13010
powder 13011
scra@@ 13012
vir@@ 13013
Language 13014
Muhammad 13015
muscles 13016
raid 13017
veterans 13018
whatsapp 13019
LINK 13020
Gospel 13021
Fur@@ 13022
Eng@@ 13023
multi@@ 13024
kai 13025
Independence 13026
Theater 13027
galaxy 13028
#tbt 13029
intention 13030
prints 13031
Attorney 13032
Mah@@ 13033
trainer 13034
ب@@ 13035
long@@ 13036
msg 13037
ICS 13038
rival 13039
drown 13040
leaf 13041
FX 13042
Surprise 13043
bay@@ 13044
followback 13045
Dakota 13046
keen 13047
ense 13048
priorities 13049
scum 13050
innovation 13051
kal@@ 13052
Jump 13053
Guest 13054
counter@@ 13055
198@@ 13056
teaser 13057
slice 13058
Accident 13059
SHIP 13060
stack 13061
Theme 13062
stake 13063
Suarez 13064
tummy 13065
crawl 13066
lam 13067
Chil@@ 13068
closure 13069
rains 13070
automatic 13071
#socialmedia 13072
Les 13073
Buying 13074
wives 13075
gaining 13076
alia 13077
13:@@ 13078
busted 13079
eled 13080
1990s 13081
techniques 13082
Russians 13083
deb@@ 13084
Streaming 13085
transferred 13086
paradise 13087
Famous 13088
Benefits 13089
principal 13090
Deluxe 13091
heated 13092
JK 13093
Kh@@ 13094
esh@@ 13095
betting 13096
invasion 13097
Interested 13098
house@@ 13099
critics 13100
slaves 13101
Tories 13102
pause 13103
Greater 13104
Spa 13105
gona 13106
Cardiff 13107
rats 13108
hips 13109
road@@ 13110
kan@@ 13111
White@@ 13112
recruiting 13113
ints 13114
worthless 13115
。 13116
Mom@@ 13117
Nav@@ 13118
monkeys 13119
Beatles 13120
DB@@ 13121
#black@@ 13122
MEN 13123
#FollowMe@@ 13124
mand@@ 13125
donuts 13126
monitor 13127
DC@@ 13128
Pants 13129
FOLLOWERS 13130
west@@ 13131
sleeps 13132
noo 13133
Horror 13134
LT 13135
Rooney 13136
Satan 13137
consideration 13138
Forces 13139
THINGS 13140
Sou@@ 13141
hotels 13142
Poly@@ 13143
Description 13144
2,000 13145
123 13146
Carson 13147
OF@@ 13148
Toyota 13149
Mental 13150
ato 13151
bees 13152
publishing 13153
ext@@ 13154
Push 13155
underground 13156
Arkansas 13157
gloves 13158
Loves 13159
segment 13160
monsters 13161
Triple 13162
aly@@ 13163
gathering 13164
uss 13165
GH 13166
26th 13167
Toys 13168
cliff 13169
MAY 13170
crucial 13171
objects 13172
Aw@@ 13173
musicians 13174
Rad@@ 13175
socialist 13176
screening 13177
hearted 13178
shipped 13179
Server 13180
brag 13181
coupon 13182
LEAVE 13183
translation 13184
consumer 13185
FaceTime 13186
bash 13187
#MUFC 13188
Douglas 13189
Türkiye 13190
Motion 13191
asi 13192
thro@@ 13193
towel 13194
commented 13195
FUCK@@ 13196
itting 13197
xy 13198
soooooo 13199
hal 13200
Chile 13201
bang@@ 13202
Coin 13203
800@@ 13204
23.@@ 13205
ros 13206
hear@@ 13207
replacing 13208
4G 13209
mist@@ 13210
weirdest 13211
ooooooo 13212
gutted 13213
Notice 13214
WN 13215
greatness 13216
environmental 13217
SER@@ 13218
#On@@ 13219
b-@@ 13220
Avoid 13221
103 13222
Ros@@ 13223
kel@@ 13224
Along 13225
Benjamin 13226
refreshing 13227
Samuel 13228
workin 13229
GF 13230
Aqu@@ 13231
cnt 13232
ch-@@ 13233
27.@@ 13234
Associate 13235
tus 13236
ith@@ 13237
purposes 13238
RM@@ 13239
Protect 13240
#lo@@ 13241
vers@@ 13242
#Stay@@ 13243
grabs 13244
notable 13245
OOOO@@ 13246
skies 13247
Usually 13248
Sz 13249
whoop 13250
#Ha@@ 13251
Our@@ 13252
Teachers 13253
diving 13254
2am 13255
#Top@@ 13256
Floor 13257
Ann@@ 13258
sho 13259
functions 13260
CITY 13261
dre@@ 13262
potentially 13263
contemporary 13264
Acc@@ 13265
SN 13266
ials 13267
harassment 13268
faggot 13269
ET@@ 13270
Property 13271
effectively 13272
nnn 13273
Holland 13274
1964 13275
100,000 13276
spr@@ 13277
Amsterdam 13278
enders 13279
accountable 13280
cent@@ 13281
Arch@@ 13282
grandparents 13283
stickers 13284
knocking 13285
suggestion 13286
document 13287
Pad 13288
negativity 13289
Prison 13290
VES 13291
settings 13292
Dee@@ 13293
cunts 13294
PST 13295
Rel@@ 13296
entr@@ 13297
#Hiring 13298
5.5 13299
C'mon 13300
supportive 13301
ucks 13302
heh 13303
eville 13304
Jackie 13305
Display 13306
Yorkshire 13307
JJ 13308
m-@@ 13309
banging 13310
glow 13311
fighters 13312
LEY 13313
conscious 13314
amounts 13315
ental 13316
Prices 13317
Basic 13318
POWER 13319
NESS 13320
whites 13321
firing 13322
Upper 13323
=D 13324
Losing 13325
Engagement 13326
Walter 13327
Pac@@ 13328
lmaoooo 13329
rts 13330
TOR 13331
proving 13332
spinning 13333
eu@@ 13334
platforms 13335
spurs 13336
3pm 13337
NL 13338
manga 13339
summit 13340
Pics 13341
os@@ 13342
valentine 13343
#LFC 13344
Prayer 13345
hah@@ 13346
Must@@ 13347
counted 13348
granny 13349
1965 13350
Gur@@ 13351
25.@@ 13352
japanese 13353
4:30 13354
Too@@ 13355
Pick@@ 13356
ón 13357
HD@@ 13358
TI 13359
Celtics 13360
ariana 13361
WB 13362
glorious 13363
kh 13364
yn@@ 13365
Repair 13366
irritating 13367
Iggy 13368
generations 13369
remembers 13370
drums 13371
vital 13372
ñ@@ 13373
WR@@ 13374
eg 13375
Ferguson 13376
11:30 13377
POR@@ 13378
Dea@@ 13379
3-0 13380
involve 13381
yes@@ 13382
dow@@ 13383
е@@ 13384
000@@ 13385
refers 13386
ICK@@ 13387
FRE@@ 13388
Ground 13389
unlocked 13390
But@@ 13391
gates 13392
manufacturing 13393
tmr 13394
kitten 13395
Ther@@ 13396
Earn 13397
TL@@ 13398
leggings 13399
participated 13400
defo 13401
lololol 13402
ard@@ 13403
respected 13404
Hot@@ 13405
Comp@@ 13406
izer 13407
Sara 13408
Show@@ 13409
democrats 13410
ENS 13411
actively 13412
flop 13413
McDonalds 13414
noodles 13415
Wing 13416
Fair@@ 13417
Switzerland 13418
bling 13419
PERSON 13420
YAY 13421
#Con@@ 13422
experiment 13423
abused 13424
eda 13425
1.1 13426
sim 13427
aspects 13428
musician 13429
Bored 13430
Jon@@ 13431
cans 13432
Julie 13433
instructions 13434
Sundays 13435
NING 13436
questioning 13437
lee@@ 13438
Alive 13439
Map 13440
Places 13441
Bus@@ 13442
KER 13443
cage 13444
Volume 13445
:man_and_woman_holding_hands: 13446
Dating 13447
KI@@ 13448
gem 13449
dawn 13450
Earl 13451
digging 13452
warn 13453
kas 13454
aching 13455
Production 13456
associate 13457
initiative 13458
ASK 13459
vic 13460
Studios 13461
Wall@@ 13462
jimin 13463
invitation 13464
switching 13465
aman 13466
ential 13467
log@@ 13468
Smash 13469
hahaa 13470
recipes 13471
subjects 13472
Steam 13473
Ruby 13474
Connect 13475
Resources 13476
1966 13477
acoustic 13478
neva 13479
:rocket: 13480
seller 13481
bend 13482
Reply 13483
#RIP@@ 13484
6am 13485
det@@ 13486
Grill 13487
ags 13488
detailed 13489
veteran 13490
travels 13491
Gates 13492
15:@@ 13493
Veterans 13494
Trek 13495
shady 13496
Sunshine 13497
Hoodie 13498
ORDER 13499
Corporate 13500
agrees 13501
HEL@@ 13502
85@@ 13503
tooo 13504
Connor 13505
wonders 13506
pursue 13507
targeted 13508
Cleaning 13509
ands 13510
ress 13511
#Me@@ 13512
JE@@ 13513
Girl@@ 13514
resident 13515
Neck 13516
Umm 13517
luc@@ 13518
001 13519
Females 13520
Leg@@ 13521
18:@@ 13522
clash 13523
churches 13524
notification 13525
а@@ 13526
FAN@@ 13527
Primary 13528
Punk 13529
Boris 13530
mut@@ 13531
sounding 13532
piercing 13533
Vikings 13534
Tech@@ 13535
ownership 13536
Craft 13537
immune 13538
xes 13539
revision 13540
crushed 13541
aired 13542
tering 13543
Hil@@ 13544
jumps 13545
__@@ 13546
animated 13547
confirmation 13548
Feed 13549
ound 13550
Jess 13551
setup 13552
Gave 13553
STUPID 13554
CLICK 13555
Anonymous 13556
IQ 13557
Ash 13558
oni 13559
influenced 13560
rookie 13561
Opinion 13562
wd 13563
gays 13564
Clip 13565
Honor 13566
Resort 13567
Spend 13568
stic@@ 13569
mic@@ 13570
Pull 13571
competing 13572
underrated 13573
percentage 13574
Busy 13575
14:@@ 13576
Warner 13577
universal 13578
curve 13579
Rain@@ 13580
Luis 13581
PRO 13582
poo 13583
flawless 13584
Otherwise 13585
Ace 13586
111 13587
Bac@@ 13588
ummm 13589
spicy 13590
iv 13591
Beliebers 13592
Hispanic 13593
10:00 13594
Brooks 13595
Spread 13596
pick@@ 13597
Wit 13598
Math 13599
hit@@ 13600
Reid 13601
Factor 13602
bd 13603
RARE 13604
Replacement 13605
penny 13606
buddies 13607
Manning 13608
#Fuck@@ 13609
ez@@ 13610
acking 13611
Session 13612
Higher 13613
sip 13614
6.5 13615
able@@ 13616
orn 13617
dial 13618
Within 13619
producers 13620
MOR@@ 13621
Vic@@ 13622
Meek 13623
Exc@@ 13624
:cloud: 13625
stunt 13626
Powerful 13627
bk 13628
Kerry 13629
rrrr 13630
Manhattan 13631
Nine 13632
bikini 13633
lum 13634
www 13635
Palestinian 13636
Mea@@ 13637
#GetGlue 13638
involves 13639
Bright 13640
MP3 13641
meaningful 13642
Gameplay 13643
LEFT 13644
mining 13645
slim 13646
FIND 13647
:04 13648
enforcement 13649
AI@@ 13650
Trending 13651
ل@@ 13652
elling 13653
calum 13654
zen 13655
papa 13656
Pinterest 13657
ket 13658
4am 13659
ALBUM 13660
bis@@ 13661
1950 13662
Historic 13663
tiger 13664
uce 13665
HER@@ 13666
cy 13667
discovery 13668
:53 13669
Christina 13670
LinkedIn 13671
Spencer 13672
Mia 13673
Therefore 13674
:nauseated_face: 13675
gather 13676
#android 13677
Broke 13678
sofa 13679
#Tra@@ 13680
WiFi 13681
tent 13682
Finale 13683
hotter 13684
Lun@@ 13685
disappeared 13686
tro 13687
USED 13688
desperately 13689
N-@@ 13690
VEN@@ 13691
cry@@ 13692
clueless 13693
ece 13694
quietly 13695
h-@@ 13696
plea@@ 13697
sausage 13698
#Follow@@ 13699
LOOKS 13700
rabbit 13701
nursing 13702
Husband 13703
Antique 13704
curly 13705
handy 13706
concrete 13707
attorney 13708
mmmm 13709
crystal 13710
ef 13711
ange 13712
Forbes 13713
Tennis 13714
Means 13715
:dizzy_face: 13716
14-@@ 13717
allegations 13718
illo 13719
poison 13720
lawn 13721
Ner@@ 13722
yi@@ 13723
#Its@@ 13724
presidency 13725
twi@@ 13726
ARD 13727
hang@@ 13728
master@@ 13729
Killer 13730
19:@@ 13731
ett@@ 13732
Pakistani 13733
MU 13734
eli 13735
mont 13736
ect@@ 13737
:59 13738
halloween 13739
WING 13740
Master@@ 13741
Crush 13742
pokemon 13743
Helen 13744
oning 13745
applying 13746
nest 13747
terrifying 13748
highschool 13749
dozen 13750
hr@@ 13751
zer@@ 13752
#Save@@ 13753
Gold@@ 13754
Fridays 13755
NH 13756
ult 13757
someones 13758
ast 13759
Economy 13760
BRA@@ 13761
Tho 13762
MOVIE 13763
ports 13764
COOL 13765
ris@@ 13766
nomination 13767
JA 13768
Palm 13769
IRE 13770
countdown 13771
strawberry 13772
Kuala 13773
Winds 13774
DNC 13775
uri 13776
crop 13777
Philip 13778
right@@ 13779
ull@@ 13780
Neither 13781
#me@@ 13782
fella 13783
Lon@@ 13784
liquid 13785
Raiders 13786
deciding 13787
attendance 13788
err@@ 13789
mos 13790
20-@@ 13791
three-@@ 13792
dead@@ 13793
mir@@ 13794
1-1 13795
Fr 13796
bow@@ 13797
douche 13798
oooooooo@@ 13799
:globe_showing_Europe-Africa: 13800
Dennis 13801
cringe 13802
sympathy 13803
cart 13804
Mind@@ 13805
V-@@ 13806
Pin 13807
pit@@ 13808
Gosh 13809
zzz 13810
intellectual 13811
Plastic 13812
atives 13813
bs@@ 13814
nightmares 13815
NOBODY 13816
lyn 13817
startup 13818
aj 13819
screamed 13820
queue 13821
Successful 13822
holla 13823
95@@ 13824
Motor 13825
bot@@ 13826
Ang 13827
WP 13828
inda 13829
wages 13830
☽ 13831
shud 13832
salon 13833
Christianity 13834
Ul@@ 13835
Chiefs 13836
Lov@@ 13837
tease 13838
auction 13839
ikr 13840
mark@@ 13841
Poll 13842
Expert 13843
Alexis 13844
Gaza 13845
Steph 13846
Minute 13847
savage 13848
gentle 13849
len@@ 13850
preparation 13851
encouraging 13852
OfThe@@ 13853
ram@@ 13854
Roberts 13855
HIV 13856
grinding 13857
Cir@@ 13858
Pocket 13859
representative 13860
Mickey 13861
breed 13862
dark@@ 13863
GER 13864
trials 13865
Downtown 13866
economics 13867
sequel 13868
BAL@@ 13869
som 13870
â 13871
x4 13872
weirdo 13873
Treatment 13874
Harrison 13875
spoilers 13876
Unlike 13877
sided 13878
Releases 13879
:two_women_holding_hands: 13880
Hill@@ 13881
rooting 13882
sco 13883
vast 13884
touches 13885
THOSE 13886
Standing 13887
Insider 13888
tv@@ 13889
Entry 13890
circles 13891
ely@@ 13892
eri 13893
horn 13894
cloudy 13895
600@@ 13896
Pokémon 13897
viewed 13898
Musical 13899
atta 13900
Operation 13901
50,000 13902
Victory 13903
listens 13904
Emperor 13905
shield 13906
fying 13907
demons 13908
cks 13909
HTC 13910
#TeamFollowBack 13911
hee@@ 13912
Liberals 13913
Drunk 13914
sane 13915
chains 13916
HT 13917
ditch 13918
RM 13919
blogs 13920
Butler 13921
Barbara 13922
eel 13923
Hudson 13924
robbed 13925
salute 13926
ART 13927
Kris 13928
occasionally 13929
cigarettes 13930
Lanka 13931
educate 13932
fulness 13933
tat 13934
signature 13935
ired 13936
lesbians 13937
ALE 13938
affairs 13939
sym@@ 13940
cons 13941
statistics 13942
esses 13943
skating 13944
Iranian 13945
SINGLE 13946
sketch 13947
NP 13948
nan@@ 13949
cab@@ 13950
Brighton 13951
controls 13952
Needed 13953
banking 13954
Omar 13955
PD@@ 13956
Sanchez 13957
Bil@@ 13958
ese 13959
#Sha@@ 13960
Lock 13961
PS3 13962
Paperback 13963
principles 13964
Bou@@ 13965
lawsuit 13966
assembly 13967
ested 13968
judged 13969
drafted 13970
fish@@ 13971
Herald 13972
wht 13973
Cs 13974
Praise 13975
,7@@ 13976
Gulf 13977
ted@@ 13978
Keys 13979
offs 13980
Louisville 13981
greedy 13982
WISH 13983
Wiz 13984
resource 13985
ores 13986
verified 13987
sunglasses 13988
Claire 13989
:heavy_multiplication_x: 13990
Luv 13991
goofy 13992
admits 13993
Kur@@ 13994
#Ac@@ 13995
Glory 13996
bbed 13997
warriors 13998
Cherry 13999
IBM 14000
acks 14001
bbing 14002
Enjoying 14003
oud 14004
Cli@@ 14005
bak 14006
formerly 14007
dash 14008
Colors 14009
earrings 14010
foolish 14011
18-@@ 14012
stly 14013
tre 14014
partying 14015
fat@@ 14016
idek 14017
presenting 14018
iii@@ 14019
bleed 14020
sion@@ 14021
arr@@ 14022
baking 14023
convenient 14024
Nate 14025
got@@ 14026
Singer 14027
Jar@@ 14028
interact 14029
28.@@ 14030
element 14031
hometown 14032
approaching 14033
tunnel 14034
conservatives 14035
Seat 14036
stoked 14037
chu@@ 14038
pencil 14039
Pirates 14040
Quarter 14041
embarrassment 14042
governments 14043
#fre@@ 14044
caption 14045
LIN@@ 14046
3-1 14047
dddd 14048
Broncos 14049
aches 14050
Therapy 14051
ected 14052
ayy 14053
ranking 14054
hub 14055
themed 14056
syn@@ 14057
neutral 14058
tes@@ 14059
ballot 14060
Linda 14061
fleet 14062
motor@@ 14063
liner 14064
china 14065
ouch 14066
kor@@ 14067
opener 14068
Knew 14069
M-@@ 14070
:06 14071
Ds 14072
shelf 14073
Monica 14074
preferred 14075
Wii 14076
ont@@ 14077
predict 14078
Shoe 14079
Edit 14080
Liz 14081
grabbed 14082
rever@@ 14083
Opportunity 14084
#20@@ 14085
Jk 14086
itter 14087
SAVE 14088
Mason 14089
Position 14090
hike 14091
Workers 14092
:51 14093
ord@@ 14094
Button 14095
Julian 14096
:-/ 14097
compliments 14098
bcs 14099
town@@ 14100
domain 14101
gus 14102
LGBT 14103
Bottle 14104
uuuu@@ 14105
secretary 14106
VID@@ 14107
bud@@ 14108
Morris 14109
Simpson 14110
,6@@ 14111
like@@ 14112
ر@@ 14113
Sing 14114
ACC 14115
Dat@@ 14116
FAMILY 14117
vie 14118
dae 14119
superb 14120
jaw 14121
reactions 14122
theories 14123
Bailey 14124
#Never@@ 14125
catches 14126
Milk 14127
Marco 14128
104 14129
lol@@ 14130
sorts 14131
stown 14132
delusional 14133
handled 14134
Psalm 14135
Theresa 14136
En 14137
#fashion 14138
Holding 14139
recommendations 14140
responses 14141
affair 14142
envy 14143
ZZ@@ 14144
positivity 14145
lobby 14146
tab 14147
rapping 14148
allegedly 14149
avoiding 14150
Bee 14151
x5 14152
wy@@ 14153
lock@@ 14154
15-@@ 14155
meter 14156
brighter 14157
opp@@ 14158
Milwaukee 14159
:58 14160
Barca 14161
eco@@ 14162
behave 14163
Appreciate 14164
UE 14165
RR 14166
Rivers 14167
Sit 14168
Bed@@ 14169
ination 14170
87@@ 14171
Christ@@ 14172
Province 14173
MEET 14174
#do@@ 14175
Idea 14176
broadcasting 14177
skate 14178
Cavs 14179
titties 14180
Animals 14181
challenged 14182
Ship 14183
layer 14184
tha@@ 14185
fascinating 14186
fl 14187
bail 14188
OO 14189
Mint 14190
hunter 14191
diverse 14192
#am@@ 14193
hobby 14194
puppies 14195
pol 14196
Comics 14197
#Ad@@ 14198
vinyl 14199
Duck 14200
#never@@ 14201
Bec@@ 14202
AU@@ 14203
noises 14204
eeeeee 14205
Cruise 14206
complaints 14207
bed@@ 14208
vid@@ 14209
Representative 14210
Bundle 14211
bracelet 14212
Profile 14213
tender 14214
30-@@ 14215
buck 14216
camps 14217
than@@ 14218
statue 14219
Organic 14220
Lines 14221
slu@@ 14222
bothering 14223
Commerce 14224
1.4 14225
sought 14226
gar 14227
scor@@ 14228
Re-@@ 14229
swap 14230
#Bu@@ 14231
feel@@ 14232
PAN@@ 14233
TOUR 14234
ratio 14235
Che@@ 14236
sville 14237
genus 14238
Signed 14239
UV 14240
Has@@ 14241
betta 14242
Campus 14243
#Repost 14244
convicted 14245
elo 14246
sies 14247
า@@ 14248
muslim 14249
turtle 14250
kr@@ 14251
nw 14252
uch 14253
Statement 14254
#bb@@ 14255
Ko 14256
17:@@ 14257
long-@@ 14258
BP 14259
#that@@ 14260
easiest 14261
12:00 14262
Shell 14263
OD 14264
BLE 14265
Changing 14266
judgement 14267
niggaz 14268
5am 14269
Amendment 14270
rah 14271
tto 14272
tex@@ 14273
Se 14274
#MA@@ 14275
Mandela 14276
lian 14277
athletic 14278
LINE 14279
dialogue 14280
Suicide 14281
:56 14282
ax@@ 14283
off-@@ 14284
opera 14285
strings 14286
lio 14287
Welsh 14288
TICKETS 14289
sporting 14290
feminist 14291
STFU 14292
Panthers 14293
Sad@@ 14294
Issues 14295
scenario 14296
squeeze 14297
#sorrynotsorry 14298
full@@ 14299
irritated 14300
concerning 14301
carries 14302
Rat@@ 14303
Vince 14304
Oak 14305
achi@@ 14306
stop@@ 14307
igh 14308
Tour@@ 14309
bombing 14310
Wondering 14311
Shu@@ 14312
5k 14313
assignments 14314
openly 14315
fore@@ 14316
instance 14317
LLC 14318
Bangladesh 14319
Moms 14320
eon 14321
DRA@@ 14322
backyard 14323
10/10 14324
#x@@ 14325
unfortunate 14326
moo@@ 14327
elect 14328
Karma 14329
Alliance 14330
managing 14331
bent 14332
Adapter 14333
Kurt 14334
passport 14335
nec@@ 14336
cycling 14337
Zach 14338
lig@@ 14339
Egyptian 14340
unlikely 14341
Ottawa 14342
hen 14343
biting 14344
inviting 14345
succ@@ 14346
swi@@ 14347
Rally 14348
:snowman_without_snow: 14349
31st 14350
Taiwan 14351
Mitt 14352
:money-mouth_face: 14353
separated 14354
#truth 14355
creatures 14356
throne 14357
:baseball: 14358
:52 14359
START 14360
deaf 14361
Jamaica 14362
tension 14363
controversy 14364
Protection 14365
cover@@ 14366
:54 14367
Mariah 14368
Thus 14369
fictional 14370
11am 14371
dammit 14372
por 14373
banner 14374
discipline 14375
Scientists 14376
psycho@@ 14377
Strike 14378
ib@@ 14379
sim@@ 14380
Won 14381
Tou@@ 14382
Hub 14383
Kis@@ 14384
Foot 14385
Mondays 14386
#bad@@ 14387
essentially 14388
Dam 14389
MPH 14390
Mixtape 14391
rubber 14392
SEN@@ 14393
DV@@ 14394
soo@@ 14395
pak 14396
Stevie 14397
phi@@ 14398
Kendall 14399
L-@@ 14400
Denmark 14401
Riley 14402
rzzp 14403
mock 14404
ution 14405
dynamic 14406
Nak@@ 14407
NER 14408
tham 14409
DEC@@ 14410
Trey 14411
:08 14412
VED 14413
Open@@ 14414
allergic 14415
banter 14416
naps 14417
Florence 14418
quoted 14419
soil 14420
Mets 14421
buttons 14422
helmet 14423
Bills 14424
hou@@ 14425
Thank@@ 14426
underway 14427
inas 14428
Ke 14429
Euro@@ 14430
Cities 14431
surprises 14432
participating 14433
Cost 14434
cheesy 14435
42@@ 14436
lens 14437
ika 14438
Eli@@ 14439
BF 14440
overs 14441
empire 14442
Team@@ 14443
Eli 14444
cupcakes 14445
Bloody 14446
centuries 14447
#sc@@ 14448
architecture 14449
enters 14450
suspected 14451
Hey@@ 14452
nipples 14453
then@@ 14454
:cat_face: 14455
Scene 14456
tae 14457
ffle 14458
resolve 14459
:person_getting_massage: 14460
chairs 14461
scroll 14462
establish 14463
Blair 14464
teaches 14465
Inspired 14466
nicer 14467
Thousands 14468
Bayern 14469
essing 14470
Nazis 14471
candle 14472
JP 14473
Normal 14474
Instant 14475
#Can@@ 14476
Nd 14477
pr 14478
arti@@ 14479
essi@@ 14480
iiii@@ 14481
IAN 14482
Cav@@ 14483
Dre 14484
week@@ 14485
WOO@@ 14486
arriving 14487
#photography 14488
resulted 14489
dil@@ 14490
Hurt 14491
LCD 14492
bob 14493
oul 14494
bastards 14495
Nikki 14496
Melissa 14497
Bottom 14498
FFS 14499
compassion 14500
dge 14501
grill 14502
stabbed 14503
gimme 14504
sup 14505
:07 14506
reject 14507
sport@@ 14508
IP@@ 14509
FAN 14510
HOR@@ 14511
:cross_mark: 14512
converted 14513
Enterprise 14514
lining 14515
Darren 14516
rap@@ 14517
gger 14518
Workout 14519
talents 14520
pains 14521
AINT 14522
him@@ 14523
Poster 14524
Beta 14525
expanded 14526
floating 14527
interior 14528
Cher@@ 14529
Nova 14530
gentleman 14531
Chart 14532
Frozen 14533
Vincent 14534
NOTICE 14535
Months 14536
rum 14537
t.@@ 14538
Fucked 14539
consecutive 14540
16-@@ 14541
slot 14542
LB 14543
transit 14544
gues 14545
kam@@ 14546
signals 14547
#forex 14548
1.8 14549
collecting 14550
mg 14551
Sid@@ 14552
whatsoever 14553
Lay@@ 14554
nets 14555
es.@@ 14556
HB@@ 14557
grandfather 14558
Bureau 14559
Maker 14560
Doll 14561
Demand 14562
Mix@@ 14563
subscription 14564
after@@ 14565
nag@@ 14566
Chloe 14567
53@@ 14568
ethnic 14569
1963 14570
ning@@ 14571
Guns 14572
patterns 14573
Berry 14574
CAL@@ 14575
introduction 14576
extensive 14577
discrimination 14578
hari 14579
WW 14580
DES@@ 14581
pale 14582
props 14583
Thankyou 14584
posed 14585
arrogant 14586
disgusted 14587
advert 14588
wait@@ 14589
umi 14590
dull 14591
HAHAHAHAHA 14592
heating 14593
tl@@ 14594
recovered 14595
yess 14596
errors 14597
cigarette 14598
JR 14599
Jerusalem 14600
Colombia 14601
anim@@ 14602
Crying 14603
oooooo@@ 14604
IB@@ 14605
dragged 14606
ML 14607
corny 14608
tem@@ 14609
ert 14610
JC 14611
itor 14612
cray 14613
IK 14614
motor 14615
itted 14616
chats 14617
yang 14618
Host 14619
from@@ 14620
Understand 14621
riot 14622
Joshua 14623
#KCAPinoyStar 14624
hart 14625
Auburn 14626
Felt 14627
Staying 14628
uda 14629
cock@@ 14630
̩ 14631
ridge 14632
Painting 14633
iii 14634
PER 14635
Mega 14636
scholarship 14637
christ@@ 14638
meters 14639
jungle 14640
prank 14641
indie 14642
#De@@ 14643
Ohhh 14644
korean 14645
milf 14646
LUKE 14647
Fuel 14648
HHH 14649
-time 14650
Dis 14651
Know@@ 14652
Vehicle 14653
Range 14654
rell 14655
regions 14656
convert 14657
Grandma 14658
Stocks 14659
Consumer 14660
wolves 14661
uuu@@ 14662
Rescue 14663
ua 14664
Tears 14665
pon 14666
Nigerians 14667
Lau@@ 14668
Democracy 14669
nods 14670
FR 14671
climbing 14672
dealt 14673
Wen 14674
AMERICA 14675
Papa 14676
É 14677
CHRISTMAS 14678
fly@@ 14679
OOO 14680
suc@@ 14681
Changes 14682
universities 14683
STORY 14684
slee@@ 14685
huhu 14686
bestfriends 14687
aaaaa 14688
Cal 14689
investigating 14690
toss 14691
eau 14692
LER 14693
dunk 14694
NU@@ 14695
Twit@@ 14696
guilt 14697
uhh 14698
numb 14699
:09 14700
fare 14701
Criminal 14702
aaaaaaaa@@ 14703
hp 14704
wu@@ 14705
Violence 14706
bait 14707
denial 14708
SILVER 14709
poet 14710
Wallet 14711
Handmade 14712
zombies 14713
Id@@ 14714
awh 14715
uro 14716
creature 14717
NWS 14718
Purchase 14719
wt 14720
fin 14721
Jessie 14722
2/3 14723
1pm 14724
Randy 14725
Doc@@ 14726
roughly 14727
iti 14728
flesh 14729
cheeky 14730
yi 14731
10x 14732
colleges 14733
ppa 14734
Troy 14735
Kno@@ 14736
top@@ 14737
Lightning 14738
O-@@ 14739
In-@@ 14740
tax@@ 14741
span 14742
Sti@@ 14743
eek 14744
Plaza 14745
Juice 14746
enjoyable 14747
Sharing 14748
Barr 14749
10.5 14750
Wheel 14751
ols 14752
perfume 14753
F-@@ 14754
Screw 14755
˚ 14756
ffin 14757
MIND 14758
Coldplay 14759
pens 14760
lastnight 14761
affects 14762
Lmaooo 14763
disorder 14764
translate 14765
ener 14766
#Par@@ 14767
21:@@ 14768
#Bar@@ 14769
elephant 14770
Bomb 14771
footballer 14772
WN@@ 14773
Row 14774
Len@@ 14775
HOURS 14776
clar@@ 14777
BRAND 14778
nod 14779
ffer 14780
portfolio 14781
sley 14782
Comic 14783
Comey 14784
#ed@@ 14785
LOST 14786
Dist@@ 14787
Savage 14788
Rid@@ 14789
offline 14790
subsequently 14791
bride 14792
ousted 14793
innovative 14794
bikes 14795
Belt 14796
Launches 14797
Ik 14798
kkkk 14799
door@@ 14800
test@@ 14801
Birds 14802
drill 14803
Casual 14804
Cincinnati 14805
psychology 14806
#Pre@@ 14807
ツ 14808
HAN@@ 14809
WhatsApp 14810
tol@@ 14811
Andrea 14812
Fac@@ 14813
Directioners 14814
AMA 14815
:@ 14816
narrow 14817
:hear-no-evil_monkey: 14818
rushing 14819
interaction 14820
warrior 14821
EEE 14822
peep 14823
mu 14824
rod 14825
classical 14826
gb 14827
Flo@@ 14828
hateful 14829
giants 14830
Hahahahaha 14831
rim 14832
succeeded 14833
disney 14834
:anguished_face: 14835
gn 14836
Lessons 14837
SHARE 14838
HRC 14839
wis@@ 14840
pals 14841
13-@@ 14842
principle 14843
ip 14844
PLAYING 14845
wind@@ 14846
Nokia 14847
Response 14848
:57 14849
infinite 14850
pos 14851
demanding 14852
Dim@@ 14853
Pen 14854
Disc 14855
applies 14856
fic@@ 14857
INT 14858
#GO@@ 14859
hoop 14860
resting 14861
strategies 14862
Heritage 14863
This@@ 14864
J. 14865
Ram 14866
Arrested 14867
hypocrite 14868
smallest 14869
Foster 14870
iggy 14871
Lyn@@ 14872
special@@ 14873
Cardinals 14874
Peel 14875
SEL@@ 14876
Affairs 14877
c'mon 14878
Sierra 14879
Sold 14880
screams 14881
Diana 14882
ake 14883
choir 14884
Brett 14885
reception 14886
pel 14887
Role 14888
firms 14889
Virtual 14890
HE'S 14891
teenagers 14892
Cant@@ 14893
birthdays 14894
Testing 14895
Nebraska 14896
#lol 14897
transportation 14898
tory 14899
Thankful 14900
sexuality 14901
Tha 14902
shove 14903
Caroline 14904
consumers 14905
duties 14906
default 14907
yan@@ 14908
Beth 14909
Carrie 14910
JS 14911
DEAL 14912
YET 14913
bothers 14914
Naw 14915
Warm 14916
Fir@@ 14917
fucken 14918
mming 14919
boats 14920
Awkward 14921
LM 14922
#AMAs 14923
Ahead 14924
DED 14925
Ap@@ 14926
lest 14927
OU 14928
contribution 14929
bullied 14930
Naked 14931
inconvenience 14932
Hop@@ 14933
1.7 14934
Stuck 14935
fork 14936
drone 14937
rian 14938
l-@@ 14939
thingy 14940
SAL@@ 14941
Panel 14942
sweep 14943
encounter 14944
sweating 14945
Fel@@ 14946
diss 14947
Ticket 14948
icker 14949
icks 14950
balanced 14951
-in 14952
Whoa 14953
Angela 14954
publication 14955
dock 14956
Flow 14957
apparent 14958
Trial 14959
Van@@ 14960
sburg 14961
Come@@ 14962
resulting 14963
anonymous 14964
Voting 14965
maj@@ 14966
girly 14967
Fancy 14968
hairy 14969
apo@@ 14970
predicted 14971
Nina 14972
Ads 14973
nel 14974
Parade 14975
oi 14976
#jo@@ 14977
cocaine 14978
chem 14979
personnel 14980
dub 14981
parody 14982
ench 14983
dt 14984
bitching 14985
Subscribe 14986
increasingly 14987
tis 14988
Lego 14989
sole 14990
step@@ 14991
controller 14992
launching 14993
Connecticut 14994
Cc 14995
Lls 14996
Clothing 14997
RADIO 14998
Millions 14999
20:@@ 15000
Ancient 15001
Hindi 15002
ZAYN 15003
0.1 15004
Owen 15005
Organ@@ 15006
nuggets 15007
tics 15008
fast@@ 15009
ddy 15010
divide 15011
Les@@ 15012
infront 15013
Mid 15014
diabetes 15015
tm 15016
strict 15017
heritage 15018
disappoint 15019
x10 15020
sus 15021
Wash 15022
promising 15023
#super@@ 15024
Shore 15025
TF@@ 15026
hacking 15027
outrage 15028
Jefferson 15029
rock@@ 15030
ally@@ 15031
Suck 15032
snowing 15033
mt 15034
ssed 15035
situated 15036
1944 15037
over-@@ 15038
Console 15039
intent 15040
screens 15041
elevator 15042
Nevada 15043
obama 15044
indi@@ 15045
SUCH 15046
clinic 15047
Net@@ 15048
references 15049
ASH@@ 15050
inc 15051
Cop@@ 15052
Athletic 15053
aly 15054
MD@@ 15055
Friendly 15056
york 15057
cracks 15058
adoption 15059
bitch@@ 15060
Claim 15061
aaah 15062
HBO 15063
Doctors 15064
funnier 15065
drain 15066
packages 15067
7am 15068
Rams 15069
Monitor 15070
aro 15071
rapidly 15072
uwu 15073
Dnt 15074
Images 15075
NI 15076
Madness 15077
uuu 15078
shin 15079
nominate 15080
vey 15081
#sex 15082
renamed 15083
Canvas 15084
bronze 15085
Pan 15086
pleasant 15087
Hair@@ 15088
Kashmir 15089
preach 15090
INGS 15091
Mes@@ 15092
1950s 15093
Tiffany 15094
150@@ 15095
Sheffield 15096
Dee 15097
designated 15098
importantly 15099
APC 15100
awwww 15101
ishes 15102
twelve 15103
Recipe 15104
vest 15105
tuition 15106
gle 15107
CDT 15108
#fin@@ 15109
Baro 15110
Rating 15111
LAND 15112
2x 15113
T-Shirt 15114
binge 15115
pac@@ 15116
Kn@@ 15117
HH@@ 15118
posing 15119
declare 15120
FT@@ 15121
Forex 15122
dining 15123
Fol@@ 15124
palm 15125
1962 15126
spark 15127
developers 15128
quicker 15129
ax 15130
spl@@ 15131
assessment 15132
E3 15133
TURN 15134
Globe 15135
Romance 15136
Quebec 15137
lovin 15138
atch 15139
Alberta 15140
GB@@ 15141
reckless 15142
Mont@@ 15143
Wee@@ 15144
Lumpur 15145
novels 15146
Shoulder 15147
thot 15148
Fat@@ 15149
#En@@ 15150
tearing 15151
TOGETHER 15152
Fuckin 15153
5s 15154
encouraged 15155
ministry 15156
dessert 15157
Hook 15158
Damon 15159
Pil@@ 15160
diamonds 15161
Scal@@ 15162
beliebers 15163
iller 15164
Woah 15165
blink 15166
wounded 15167
noooo 15168
fry 15169
opponents 15170
gat@@ 15171
arm@@ 15172
flows 15173
ulate 15174
restored 15175
dan@@ 15176
shaved 15177
coincidence 15178
Tattoo 15179
paths 15180
RES 15181
sc 15182
2k@@ 15183
:face_with_symbols_on_mouth: 15184
enjoys 15185
burden 15186
iso@@ 15187
stripper 15188
tain 15189
Halo 15190
Twins 15191
wal 15192
Abraham 15193
Va@@ 15194
whiskey 15195
#Jo@@ 15196
usage 15197
Holidays 15198
dragging 15199
rubbing 15200
Det@@ 15201
Survey 15202
Cabinet 15203
ein 15204
amazon 15205
transformation 15206
islands 15207
Hanging 15208
Fam@@ 15209
Dodgers 15210
108 15211
Song@@ 15212
Sent 15213
#Cam@@ 15214
Burn 15215
mond 15216
contributed 15217
slo@@ 15218
receives 15219
Mic@@ 15220
hahahahahaha 15221
remake 15222
bos 15223
ucking 15224
kPa 15225
inappropriate 15226
supposedly 15227
clan 15228
peek 15229
#Things@@ 15230
1k 15231
Prayers 15232
#Lea@@ 15233
coworker 15234
hoped 15235
ranks 15236
cuddling 15237
FOOD 15238
igh@@ 15239
Partners 15240
SUR@@ 15241
#Su@@ 15242
Completely 15243
BRO@@ 15244
ingo 15245
Homes 15246
Fisher 15247
strap 15248
Telling 15249
EXACTLY 15250
Health@@ 15251
juss 15252
ahahaha 15253
prettiest 15254
tires 15255
ELSE 15256
wink 15257
goo 15258
RUN 15259
1-2 15260
reset 15261
Worldwide 15262
hungover 15263
aces 15264
mysterious 15265
Motor@@ 15266
sustainable 15267
teammates 15268
sign@@ 15269
BFF 15270
Matters 15271
inge 15272
know@@ 15273
mak@@ 15274
advocate 15275
Teach 15276
protective 15277
Einstein 15278
Plant 15279
weigh 15280
Hoe 15281
Industrial 15282
49ers 15283
logists 15284
Wild@@ 15285
Effect 15286
Trap 15287
lmfaoo 15288
Partner 15289
mass@@ 15290
lays 15291
suspension 15292
districts 15293
Barbie 15294
cocky 15295
dough 15296
frustration 15297
:princess: 15298
esting 15299
rope 15300
thrilled 15301
MAX 15302
invested 15303
Silver@@ 15304
pigs 15305
pod 15306
Calgary 15307
#True@@ 15308
Portuguese 15309
Biz 15310
MAS 15311
1940 15312
Parts 15313
stea@@ 15314
amen 15315
Austria 15316
Cou@@ 15317
curl 15318
lease 15319
restore 15320
Lopez 15321
coworkers 15322
Essential 15323
Flood 15324
Rac@@ 15325
fuk 15326
OP 15327
hahahahah 15328
Bow 15329
IO@@ 15330
Legacy 15331
Wells 15332
SNL 15333
sick@@ 15334
expressed 15335
Lily 15336
Added 15337
PRETTY 15338
Grammy 15339
TIMES 15340
Packers 15341
xmas 15342
Reagan 15343
Hidden 15344
Wrestling 15345
overwhelming 15346
#com@@ 15347
Peyton 15348
perf 15349
Kitty 15350
consent 15351
Monroe 15352
ma'am 15353
gust 15354
Angry 15355
HEAR 15356
Logo 15357
pat 15358
Kat 15359
11:00 15360
Jin 15361
Donate 15362
boro 15363
tornado 15364
FACT 15365
yh 15366
investing 15367
wers 15368
mortgage 15369
Shakespeare 15370
edly 15371
cuss 15372
t: 15373
villain 15374
MYSELF 15375
Shel@@ 15376
Jeans 15377
Lloyd 15378
ninja 15379
significantly 15380
ec 15381
YOU@@ 15382
ethics 15383
sama 15384
Doc 15385
insulting 15386
confuse 15387
Form 15388
vanilla 15389
ipod 15390
Charity 15391
Active 15392
EO 15393
GUY 15394
grid 15395
Scary 15396
scarf 15397
CAM 15398
REMEMBER 15399
WD 15400
fing 15401
index 15402
coo 15403
developer 15404
Swee@@ 15405
PM@@ 15406
Ron@@ 15407
Jai 15408
organisation 15409
Fail 15410
#Live@@ 15411
ray@@ 15412
Arms 15413
x-@@ 15414
Beli@@ 15415
rar@@ 15416
brook 15417
jr 15418
moder@@ 15419
HELLO 15420
uno 15421
#le@@ 15422
Articles 15423
tourism 15424
soc@@ 15425
rp 15426
Weeknd 15427
did@@ 15428
Rod 15429
tee@@ 15430
Mommy 15431
dp 15432
trolling 15433
bans 15434
tribe 15435
read@@ 15436
myth 15437
ahhhh 15438
scientist 15439
LOUIS 15440
#Brexit 15441
Heights 15442
scrolling 15443
mega 15444
TIONS 15445
placing 15446
earliest 15447
#30@@ 15448
polite 15449
Regi@@ 15450
alo 15451
trolls 15452
billions 15453
:kissing_face_with_smiling_eyes: 15454
Rita 15455
allies 15456
remo@@ 15457
lag 15458
ão 15459
#work@@ 15460
Trouble 15461
accessories 15462
,8@@ 15463
concentrate 15464
Cooking 15465
browser 15466
boundaries 15467
EVERYBODY 15468
Pea@@ 15469
Wind@@ 15470
」 15471
poli 15472
bases 15473
backpack 15474
Direc@@ 15475
cin@@ 15476
supreme 15477
2016-@@ 15478
BER 15479
Boot 15480
onia 15481
Rab@@ 15482
ş@@ 15483
bulls 15484
Casey 15485
Considering 15486
Hilarious 15487
#bitcoin 15488
Certified 15489
Palestine 15490
Draw 15491
en-@@ 15492
pec@@ 15493
blamed 15494
bha@@ 15495
blade 15496
:baby: 15497
1/3 15498
vis 15499
pandora 15500
flooding 15501
Robot 15502
2.4 15503
ROCK 15504
dg@@ 15505
Unique 15506
Teaching 15507
contained 15508
Markets 15509
wardrobe 15510
MORNING 15511
eing 15512
aims 15513
0.5 15514
imagined 15515
isation 15516
#Tech 15517
Java 15518
Innovation 15519
meee 15520
2K@@ 15521
Asked 15522
wireless 15523
Lamp 15524
ced 15525
ن@@ 15526
Ravens 15527
#we@@ 15528
iring 15529
COVER 15530
Tiny 15531
Imp@@ 15532
Duncan 15533
reign 15534
¡ 15535
ford@@ 15536
Mother@@ 15537
surprisingly 15538
Reed 15539
twitch 15540
Stat@@ 15541
Snap@@ 15542
ggin 15543
Madonna 15544
iners 15545
ACK 15546
asylum 15547
seal 15548
credibility 15549
x6 15550
I'VE 15551
coward 15552
:person_walking: 15553
Phones 15554
2.2 15555
Ellie 15556
ility 15557
covid 15558
watch@@ 15559
#na@@ 15560
Increase 15561
alize 15562
freaky 15563
itu@@ 15564
sections 15565
cyber 15566
pinned 15567
samples 15568
wil 15569
collab 15570
ideology 15571
Miguel 15572
Annie 15573
first-@@ 15574
dances 15575
32GB 15576
#bi@@ 15577
EW 15578
illegals 15579
umbrella 15580
talaga 15581
FOUR 15582
#AL@@ 15583
Lay 15584
Dream@@ 15585
extraordinary 15586
è@@ 15587
Shaw 15588
neighbours 15589
fea@@ 15590
ses@@ 15591
Chad 15592
izes 15593
sian 15594
casually 15595
:beer_mug: 15596
3.4 15597
traitor 15598
activist 15599
faded 15600
alists 15601
SJ 15602
Holmes 15603
sar 15604
icing 15605
7:00 15606
GONE 15607
kita 15608
Pie 15609
legitimate 15610
#free@@ 15611
sorta 15612
CS@@ 15613
#RAW 15614
clowns 15615
IDE 15616
boutta 15617
Consider 15618
mistaken 15619
radar 15620
3:30 15621
Co-@@ 15622
zel 15623
campaigns 15624
#wtf 15625
Fuck@@ 15626
srsly 15627
amu@@ 15628
accessible 15629
acceptance 15630
SIG@@ 15631
wwww 15632
#smh 15633
NM 15634
Lil@@ 15635
cole 15636
inks 15637
ACA 15638
Czech 15639
#mis@@ 15640
ت@@ 15641
ARMY 15642
compilation 15643
news@@ 15644
Phillips 15645
relatives 15646
ight@@ 15647
Conf@@ 15648
Yemen 15649
http 15650
lions 15651
pitcher 15652
Fool 15653
MacBook 15654
youuuu 15655
ROOM 15656
kem@@ 15657
umped 15658
mr@@ 15659
subtweet 15660
smar@@ 15661
thirst 15662
Tat@@ 15663
heartbreaking 15664
appearing 15665
Road@@ 15666
x8 15667
Thor 15668
iler 15669
memorable 15670
yle 15671
Average 15672
LIES 15673
Buddy 15674
Singing 15675
soci@@ 15676
aimed 15677
umps 15678
Officially 15679
pastor 15680
Ink 15681
social@@ 15682
mrs 15683
Juli@@ 15684
uri@@ 15685
ale@@ 15686
Holly 15687
Sak@@ 15688
removing 15689
spite 15690
radi@@ 15691
fj@@ 15692
#Make@@ 15693
Sunset 15694
Lynch 15695
venture 15696
stubborn 15697
tours 15698
yaa 15699
't 15700
QUEEN 15701
Typical 15702
Operations 15703
Presents 15704
shiny 15705
Teams 15706
DEL@@ 15707
airline 15708
Bow@@ 15709
Discount 15710
probz 15711
TG 15712
Saving 15713
Spr@@ 15714
Gee@@ 15715
Formula 15716
dum@@ 15717
gia 15718
pledge 15719
snakes 15720
processing 15721
Further 15722
107 15723
Related 15724
lacking 15725
Tv 15726
eno@@ 15727
sonic 15728
chills 15729
Carey 15730
MAKES 15731
provider 15732
filthy 15733
Equ@@ 15734
finishes 15735
Expo 15736
harmony 15737
#CO@@ 15738
publish 15739
ooo@@ 15740
blogger 15741
Television 15742
Fav@@ 15743
kasi 15744
priceless 15745
Mfs 15746
#WeAre@@ 15747
ual 15748
ician 15749
Fortnite 15750
John@@ 15751
cal 15752
Blonde 15753
Fish@@ 15754
skinned 15755
reck@@ 15756
MEN@@ 15757
feeds 15758
PI 15759
pollution 15760
cinnamon 15761
pper@@ 15762
#tr@@ 15763
Claims 15764
bras 15765
ace@@ 15766
CAT 15767
School@@ 15768
Plat@@ 15769
#Ho@@ 15770
st-@@ 15771
suitable 15772
priest 15773
routes 15774
crashes 15775
̥ 15776
Charm 15777
Bo 15778
itters 15779
institution 15780
sop@@ 15781
-off 15782
Remote 15783
Def 15784
lasting 15785
tains 15786
ento 15787
PINK 15788
spectacular 15789
TRO@@ 15790
Mixed 15791
Fourth 15792
Nepal 15793
put@@ 15794
them@@ 15795
FUCKIN 15796
touchdown 15797
gene 15798
alternate 15799
ded@@ 15800
wie 15801
Beijing 15802
boob 15803
fel@@ 15804
Communications 15805
ounce 15806
Arnold 15807
Starts 15808
rack 15809
BD 15810
killin 15811
NEW@@ 15812
zza 15813
batch 15814
TOR@@ 15815
Reminder 15816
chipotle 15817
sentences 15818
pas 15819
worm 15820
Boat 15821
Feet 15822
stamp 15823
bundle 15824
bou@@ 15825
disc 15826
utterly 15827
1948 15828
dictionary 15829
chew 15830
Jakarta 15831
Adrian 15832
scal@@ 15833
:wine_glass: 15834
Blind 15835
3.3 15836
Luther 15837
Ana 15838
explosion 15839
dignity 15840
CU 15841
Character 15842
NIKE 15843
Lol@@ 15844
:frog_face: 15845
memorial 15846
Gas@@ 15847
iya 15848
semi-@@ 15849
Housing 15850
singers 15851
loy@@ 15852
SPECIAL 15853
freaks 15854
briefly 15855
bility 15856
Paulo 15857
puff 15858
UNTIL 15859
protesters 15860
Inn 15861
Canc@@ 15862
Features 15863
generate 15864
alex 15865
urges 15866
matt 15867
hears 15868
electoral 15869
MK@@ 15870
Catching 15871
Advertising 15872
Ninja 15873
Mr.@@ 15874
Nikon 15875
ska 15876
eternal 15877
sis@@ 15878
Gy@@ 15879
collective 15880
TALKING 15881
#follow@@ 15882
literal 15883
checkout 15884
vent@@ 15885
Glenn 15886
leaning 15887
Mr. 15888
C. 15889
YE 15890
Bowie 15891
TRUTH 15892
Anyways 15893
115 15894
12:30 15895
Zoo 15896
lander 15897
CUR@@ 15898
dime 15899
spill 15900
6.0 15901
:hushed_face: 15902
porch 15903
WHILE 15904
Ridge 15905
syndrome 15906
pag@@ 15907
Kas@@ 15908
25-@@ 15909
ured 15910
shuffle 15911
lessly 15912
interviewed 15913
cing 15914
prediction 15915
Arabic 15916
dar 15917
#Ex@@ 15918
Trend 15919
#tra@@ 15920
frog 15921
MING 15922
Sense 15923
placement 15924
24-@@ 15925
420 15926
Ze@@ 15927
Carly 15928
Coupon 15929
Ebola 15930
wy 15931
Sherlock 15932
dominant 15933
1d 15934
CHANGE 15935
Hungry 15936
chapters 15937
maid 15938
#wa@@ 15939
｡ 15940
dealer 15941
whoa 15942
handful 15943
Nag@@ 15944
audition 15945
headquarters 15946
PIC@@ 15947
goddess 15948
lebron 15949
Meghan 15950
a.@@ 15951
1D@@ 15952
Margaret 15953
jin@@ 15954
Floral 15955
unemployment 15956
darn 15957
Jen@@ 15958
Corner 15959
sighs 15960
coup 15961
FE 15962
insert 15963
hail 15964
motorcycle 15965
ading 15966
stalker 15967
Advisory 15968
well@@ 15969
underneath 15970
wooden 15971
sweets 15972
tery 15973
Munich 15974
#Col@@ 15975
overtime 15976
COM 15977
Authority 15978
Skills 15979
sentenced 15980
Pag@@ 15981
Sr 15982
ILL@@ 15983
liber@@ 15984
4K 15985
hardware 15986
carrier 15987
woken 15988
2:30 15989
Mate 15990
cour@@ 15991
JD 15992
MAKING 15993
dome 15994
Heads 15995
#Yelp 15996
Eva 15997
Smo@@ 15998
BEL@@ 15999
22:@@ 16000
AKA 16001
Danielle 16002
overwhelmed 16003
Tan 16004
gggg 16005
Carol 16006
Lying 16007
Pump 16008
#blessed 16009
Proverbs 16010
liver 16011
Autumn 16012
Deputy 16013
certified 16014
SMILE 16015
masks 16016
Winston 16017
respectful 16018
RING 16019
prisoners 16020
wag@@ 16021
darker 16022
NRA 16023
Tue 16024
marine 16025
Recruitment 16026
Tone 16027
Severe 16028
damned 16029
「 16030
Owner 16031
distant 16032
masterpiece 16033
ori@@ 16034
1:30 16035
Winners 16036
Bank@@ 16037
ony@@ 16038
Sexual 16039
#fml 16040
mount 16041
Vampire 16042
Tube 16043
ify 16044
#sa@@ 16045
Imperial 16046
Sig@@ 16047
neat 16048
#MLB 16049
direc@@ 16050
suspicious 16051
hindi 16052
poses 16053
Mercy 16054
OUS 16055
poke 16056
vert 16057
secs 16058
fabric 16059
she@@ 16060
Awareness 16061
dering 16062
passage 16063
Wallace 16064
IND@@ 16065
lounge 16066
Stor@@ 16067
ع@@ 16068
achievements 16069
Desk 16070
ā@@ 16071
obtained 16072
gd 16073
callin 16074
engines 16075
Salon 16076
smelling 16077
illas 16078
이@@ 16079
ZA 16080
#ri@@ 16081
nigg@@ 16082
shxt 16083
hawks 16084
movements 16085
rhetoric 16086
vac@@ 16087
Kee@@ 16088
Karl 16089
Lyric 16090
apologise 16091
sanctions 16092
:nerd_face: 16093
Gifts 16094
PDP 16095
addressed 16096
exclusively 16097
Newton 16098
celebs 16099
Improve 16100
tolerate 16101
careers 16102
yt 16103
SEEN 16104
affection 16105
essays 16106
hash 16107
Marley 16108
Isaac 16109
Laugh 16110
elec@@ 16111
Grove 16112
POP 16113
Jin@@ 16114
Flowers 16115
bbm 16116
candles 16117
bies 16118
1961 16119
AAP 16120
Jud@@ 16121
relaxed 16122
Stunning 16123
Chip 16124
delivering 16125
ucker 16126
enta 16127
Notre 16128
ios 16129
punished 16130
sincere 16131
sandwiches 16132
fag 16133
#winning 16134
tolerance 16135
Canadians 16136
grabbing 16137
ena@@ 16138
Turning 16139
AFC 16140
Clarke 16141
alization 16142
landscape 16143
vegas 16144
Carry 16145
#br@@ 16146
Barnes 16147
MICHAEL 16148
dispute 16149
lon 16150
Township 16151
Accessories 16152
glo@@ 16153
mmed 16154
gc 16155
theft 16156
hid 16157
Multiple 16158
#all@@ 16159
Twitter@@ 16160
Vinyl 16161
ican 16162
Bucks 16163
ATM 16164
clicking 16165
dummy 16166
Slo@@ 16167
paste 16168
df@@ 16169
faculty 16170
Cross@@ 16171
109 16172
x7 16173
Platinum 16174
ggs 16175
Aha 16176
actin 16177
sig@@ 16178
Kill@@ 16179
17-@@ 16180
engaging 16181
wax 16182
#BBMAsTopSocial 16183
Bell@@ 16184
Thu 16185
Jimin 16186
Virus 16187
turn@@ 16188
throwback 16189
coconut 16190
Griffin 16191
sumn 16192
pros 16193
Cops 16194
flame 16195
structures 16196
#lets@@ 16197
Rahul 16198
ing.@@ 16199
ps4 16200
Tin@@ 16201
ami@@ 16202
ci 16203
Chee@@ 16204
breeze 16205
unhealthy 16206
Norwegian 16207
#pandora 16208
stry 16209
Process 16210
line@@ 16211
newsletter 16212
tide 16213
Solution 16214
TU 16215
ross 16216
capitalism 16217
Ilysm 16218
29m 16219
Ctfu 16220
restrictions 16221
threaten 16222
Raise 16223
fewer 16224
thirty 16225
NN@@ 16226
127 16227
pes@@ 16228
RSS 16229
pony 16230
cer 16231
whale 16232
Twilight 16233
snapped 16234
scru@@ 16235
occurs 16236
headlines 16237
Opera 16238
inevitable 16239
Leon 16240
orientation 16241
Designs 16242
uhm 16243
mel 16244
flipping 16245
Spider-Man 16246
tails 16247
dual 16248
:umbrella_with_rain_drops: 16249
authentic 16250
Flor@@ 16251
take@@ 16252
Essex 16253
Shots 16254
SES 16255
communist 16256
sequence 16257
diseases 16258
sunrise 16259
ACC@@ 16260
dong 16261
Multi-@@ 16262
shorty 16263
fli@@ 16264
costumes 16265
Hampshire 16266
:] 16267
MMA 16268
BODY 16269
killers 16270
substance 16271
organised 16272
LIN 16273
Quinn 16274
comedian 16275
Fingers 16276
sexist 16277
Falcons 16278
Year@@ 16279
EEEE@@ 16280
YT 16281
garlic 16282
crowded 16283
Dil@@ 16284
NowPlaying 16285
lmfaooo 16286
stan@@ 16287
alcoholic 16288
Pi 16289
Dark@@ 16290
thesis 16291
Transfer 16292
therapist 16293
GT@@ 16294
gameplay 16295
come@@ 16296
Arctic 16297
Wha@@ 16298
Abu 16299
Egg 16300
HUN@@ 16301
edges 16302
SMS 16303
touring 16304
Tina 16305
bedtime 16306
bloggers 16307
credited 16308
sal 16309
Orchestra 16310
containing 16311
GBP 16312
McConnell 16313
SON@@ 16314
exes 16315
SED 16316
ONG 16317
oxygen 16318
Nexus 16319
:angry_face_with_horns: 16320
Share-Worthy 16321
collar 16322
Wolves 16323
racists 16324
BEAT 16325
74@@ 16326
ples 16327
haunted 16328
ingredients 16329
motto 16330
Buzz 16331
InThe@@ 16332
Parks 16333
bizarre 16334
spirits 16335
MINE 16336
Arm@@ 16337
Stress 16338
ggers 16339
Sing@@ 16340
1- 16341
df 16342
#Syria 16343
pis@@ 16344
tourist 16345
kits 16346
170 16347
Sisters 16348
portrait 16349
grounded 16350
BG 16351
Section 16352
ayyy 16353
db@@ 16354
removal 16355
Plate 16356
Maj@@ 16357
1947 16358
hypocrisy 16359
RFT 16360
Ye@@ 16361
WordPress 16362
#RE@@ 16363
TEA@@ 16364
looool 16365
⋆ 16366
iser 16367
rumours 16368
More@@ 16369
Latino 16370
cen@@ 16371
APP@@ 16372
:dollar_banknote: 16373
satisfaction 16374
LSU 16375
mod@@ 16376
ollo@@ 16377
Plays 16378
Coke 16379
Bacon 16380
flames 16381
MED 16382
1942 16383
locking 16384
Alot 16385
fruits 16386
IND 16387
slides 16388
Kit@@ 16389
Woo 16390
coulda 16391
Jade 16392
Anime 16393
Adventures 16394
suggesting 16395
hain 16396
DEN@@ 16397
april 16398
tissue 16399
#ca@@ 16400
dependent 16401
aco@@ 16402
CY@@ 16403
Miranda 16404
atively 16405
scri@@ 16406
pha@@ 16407
ASH 16408
KEY 16409
Package 16410
psycho 16411
س@@ 16412
typo 16413
SAT 16414
Multi@@ 16415
#iHeartAwards 16416
charming 16417
diagnosed 16418
FUN@@ 16419
Regina 16420
sneaky 16421
look@@ 16422
chic 16423
alt 16424
occasions 16425
ELL 16426
#art 16427
ounding 16428
anatomy 16429
Dead@@ 16430
Startup 16431
Finland 16432
chan@@ 16433
strategic 16434
135 16435
Flip 16436
grief 16437
jah 16438
objective 16439
Brit@@ 16440
PED 16441
WITHOUT 16442
#deals 16443
EMENT 16444
:love_letter: 16445
navy 16446
suite 16447
Dro@@ 16448
smen 16449
PLZ 16450
#weather 16451
doo@@ 16452
FO 16453
Hab@@ 16454
blankets 16455
awk 16456
TON@@ 16457
3-4 16458
dl@@ 16459
contrast 16460
debates 16461
loo 16462
Jenny 16463
3,000 16464
spends 16465
ounds 16466
commander 16467
Charge 16468
CASE 16469
permit 16470
Foto 16471
illegally 16472
Ris@@ 16473
inted 16474
Wrap 16475
Dom@@ 16476
frfr 16477
pel@@ 16478
hallway 16479
Quest 16480
un-@@ 16481
:play_button: 16482
testimony 16483
Dies 16484
112 16485
apples 16486
NEEDS 16487
#pro@@ 16488
repeating 16489
problematic 16490
nab@@ 16491
1956 16492
hyun 16493
Flynn 16494
Silk 16495
อ@@ 16496
#ab@@ 16497
201 16498
Maya 16499
Celebrating 16500
User 16501
bal 16502
delighted 16503
2014-@@ 16504
Sons 16505
#need@@ 16506
enting 16507
redeem 16508
obtain 16509
layers 16510
saint 16511
BABE 16512
gga 16513
unlock 16514
frank 16515
val 16516
joy@@ 16517
emma 16518
#iphone 16519
haven 16520
pronounce 16521
snapchats 16522
Balance 16523
KFC 16524
ANE 16525
cod 16526
neuro@@ 16527
Inc@@ 16528
#Dis@@ 16529
naming 16530
Wid@@ 16531
#androidgames 16532
House@@ 16533
#don@@ 16534
Returns 16535
july 16536
amendment 16537
Consultant 16538
20,000 16539
donating 16540
HAHAHAHA@@ 16541
responds 16542
butterflies 16543
Shine 16544
ㅋㅋㅋ 16545
sucker 16546
wound 16547
Penny 16548
helicopter 16549
centers 16550
Ox@@ 16551
S2 16552
JT 16553
2.3 16554
sey@@ 16555
750 16556
KT 16557
author@@ 16558
Never@@ 16559
polo 16560
bah 16561
xing 16562
paranoid 16563
waits 16564
Li 16565
Snap 16566
Earnings 16567
OOOOOOOO@@ 16568
Silence 16569
his@@ 16570
ness@@ 16571
Sprint 16572
Southampton 16573
:regional_indicator_symbol_letter_b: 16574
REC@@ 16575
Prof@@ 16576
Tho@@ 16577
yum 16578
parallel 16579
197@@ 16580
paintings 16581
1959 16582
uts 16583
activists 16584
About@@ 16585
teen@@ 16586
Make@@ 16587
Hes 16588
Communist 16589
certificate 16590
Extreme 16591
:red_circle: 16592
WAR 16593
,5@@ 16594
grow@@ 16595
influential 16596
Religion 16597
Twitch 16598
regulations 16599
Pair 16600
1958 16601
KA@@ 16602
aan 16603
Elvis 16604
butterfly 16605
Lool 16606
academy 16607
solely 16608
Art@@ 16609
Monsters 16610
Es@@ 16611
difficulty 16612
Mane 16613
11:11 16614
Hayes 16615
Follow@@ 16616
tales 16617
Romans 16618
DIDN'T 16619
doubles 16620
gamer 16621
Dew 16622
Blade 16623
heel 16624
furious 16625
Kai 16626
fellas 16627
dn 16628
dist@@ 16629
morons 16630
nae 16631
aria 16632
celeb 16633
Oprah 16634
mornin 16635
Ew 16636
crashing 16637
Liber@@ 16638
#ic@@ 16639
̶ 16640
Workshop 16641
Trumps 16642
#100@@ 16643
Port@@ 16644
:guitar: 16645
Eight 16646
pushes 16647
TP 16648
globe 16649
ase 16650
safer 16651
fair@@ 16652
shines 16653
Changed 16654
fix@@ 16655
elled 16656
Sophie 16657
450 16658
external 16659
Invite 16660
midfielder 16661
Exercise 16662
Chamber 16663
WORD 16664
err 16665
enter@@ 16666
reporters 16667
Trudeau 16668
Index 16669
str 16670
YG 16671
shawn 16672
Body@@ 16673
Rings 16674
Creating 16675
repeated 16676
khan 16677
Harbor 16678
23:@@ 16679
Smoking 16680
tanks 16681
#201@@ 16682
Racist 16683
unite 16684
ond 16685
SHI@@ 16686
#iPhone 16687
eligible 16688
FINAL 16689
SUN@@ 16690
resigned 16691
Depends 16692
#di@@ 16693
plac@@ 16694
Elementary 16695
forgiveness 16696
aba 16697
metro 16698
Walt 16699
tutorial 16700
tain@@ 16701
Kirk 16702
J.@@ 16703
DOG 16704
Za@@ 16705
ttttt 16706
Thir@@ 16707
scoop 16708
Honest 16709
ł@@ 16710
downloading 16711
RH 16712
tac@@ 16713
straw 16714
121 16715
ret@@ 16716
Serena 16717
loudly 16718
fatal 16719
typed 16720
ttle 16721
Tamil 16722
Ily 16723
Tape 16724
psy@@ 16725
ection 16726
Jail 16727
Acting 16728
stit@@ 16729
abusive 16730
Forward 16731
FOUND 16732
Trevor 16733
heartless 16734
enne 16735
wk@@ 16736
Cent@@ 16737
Blow 16738
electr@@ 16739
Marijuana 16740
SICK 16741
thn 16742
buh 16743
Dont@@ 16744
lagi 16745
Birth 16746
ı 16747
instrument 16748
ATS 16749
#SEO 16750
Else 16751
yur 16752
amaz@@ 16753
AIDS 16754
regi@@ 16755
elf 16756
whipped 16757
live@@ 16758
Nuclear 16759
trac@@ 16760
checked-in 16761
Mel 16762
eps 16763
220 16764
Learned 16765
escaping 16766
motherfucker 16767
T-shirt 16768
refusing 16769
#South@@ 16770
Continue 16771
kim@@ 16772
YORK 16773
misery 16774
TOLD 16775
Hugh 16776
jailed 16777
Ga 16778
Dale 16779
bled 16780
parked 16781
fee@@ 16782
Becky 16783
SEX 16784
Discovery 16785
shitting 16786
hl@@ 16787
Every@@ 16788
yesss 16789
Regular 16790
voc@@ 16791
champagne 16792
MUS@@ 16793
politically 16794
EUR 16795
dominated 16796
Rh@@ 16797
Cyber 16798
moderate 16799
pct 16800
ribs 16801
ope 16802
wats 16803
TW 16804
Wheels 16805
1957 16806
Rear 16807
tx@@ 16808
Hilton 16809
د@@ 16810
DAR@@ 16811
euro 16812
Pot 16813
Joan 16814
999 16815
sums 16816
nicki 16817
geo@@ 16818
earnings 16819
Some@@ 16820
:face_with_raised_eyebrow: 16821
showcase 16822
ARE@@ 16823
Zara 16824
Tales 16825
ox 16826
Era 16827
esome 16828
let@@ 16829
Durant 16830
THER@@ 16831
paycheck 16832
immigrant 16833
Customers 16834
fy@@ 16835
holders 16836
ø@@ 16837
LoL 16838
Users 16839
Window 16840
spir@@ 16841
Titans 16842
cartoons 16843
Electronic 16844
Registered 16845
angles 16846
ign 16847
meanwhile 16848
prot@@ 16849
mit 16850
Zo@@ 16851
#0@@ 16852
Rocket 16853
saddest 16854
dancers 16855
wut 16856
Scandal 16857
#Life@@ 16858
nearest 16859
UCK 16860
Infinity 16861
insanity 16862
Decor 16863
weights 16864
specially 16865
False 16866
Recipes 16867
Paint 16868
Branch 16869
Mercury 16870
microwave 16871
founding 16872
researchers 16873
divine 16874
compromise 16875
KIDS 16876
Leonard 16877
ail 16878
Radio@@ 16879
polar 16880
FAV 16881
1941 16882
Files 16883
Sis 16884
tad 16885
bz 16886
bre 16887
batman 16888
classified 16889
sweaty 16890
cord 16891
É@@ 16892
EB 16893
Schedule 16894
republicans 16895
ev 16896
erase 16897
Wikipedia 16898
Young@@ 16899
homo 16900
dof@@ 16901
chess 16902
S3 16903
5.1 16904
champs 16905
Babies 16906
PB 16907
pint 16908
literary 16909
mp3 16910
Natalie 16911
denying 16912
whereas 16913
DLC 16914
Regardless 16915
[...]
